<pad>	0
<unk>	0
[CLS]	0
[SEP]	0
[MASK]	0
(	0
)	0
"	0
-	0
.	0
–	0
£	0
€	0
▁	-2.12781
,	-3.53143
▁der	-3.73568
▁und	-4.0074
▁die	-4.16759
▁in	-4.2948
en	-4.37732
s	-4.4076
e	-4.63447
▁von	-4.7293
▁den	-4.90627
▁des	-5.05684
n	-5.0713
▁im	-5.09177
▁mit	-5.13994
er	-5.14213
▁wurde	-5.29312
▁dem	-5.33619
▁ist	-5.37918
▁das	-5.38217
▁er	-5.41919
▁Die	-5.42974
▁ein	-5.43722
▁als	-5.45207
▁zu	-5.46596
▁auf	-5.47406
▁für	-5.56359
▁eine	-5.5776
▁sich	-5.60178
▁an	-5.60591
▁war	-5.65247
▁aus	-5.86348
▁bis	-6.01823
▁nach	-6.01827
▁auch	-6.03582
▁am	-6.08538
▁bei	-6.09675
es	-6.13686
▁Der	-6.15958
▁„	-6.16874
“	-6.17146
▁zum	-6.2067
▁sie	-6.21051
▁einer	-6.21242
t	-6.22405
:	-6.32742
▁durch	-6.35213
▁In	-6.40284
▁einem	-6.42875
▁Im	-6.44125
▁werden	-6.44426
▁nicht	-6.44745
▁über	-6.44892
▁sind	-6.46683
a	-6.50865
▁wird	-6.51105
▁Das	-6.52238
▁zur	-6.57477
▁um	-6.61082
in	-6.62203
▁Er	-6.6334
r	-6.63642
▁oder	-6.64709
▁einen	-6.64837
▁wurden	-6.67674
▁unter	-6.72879
▁es	-6.74546
▁dass	-6.80102
▁Jahr	-6.80219
▁vor	-6.80531
;	-6.87139
▁wie	-6.91946
▁Nach	-6.96364
d	-6.96793
▁ab	-6.99257
▁vom	-7.00965
▁sowie	-7.01171
▁seiner	-7.01746
▁nur	-7.05555
▁zwei	-7.06502
▁hatte	-7.0689
▁seine	-7.07653
▁noch	-7.08339
m	-7.10061
▁Sie	-7.14185
ung	-7.14219
▁Jahre	-7.14608
▁Am	-7.15025
o	-7.15224
▁aber	-7.16976
z	-7.17686
▁hat	-7.19111
▁1	-7.22292
▁Stadt	-7.26677
▁waren	-7.26763
de	-7.26841
▁sein	-7.27696
▁zwischen	-7.28125
te	-7.28499
i	-7.28755
k	-7.2946
▁Es	-7.29751
y	-7.29762
*	-7.30296
▁dieser	-7.32258
▁eines	-7.34402
▁Jahren	-7.36612
▁Zeit	-7.36896
/	-7.37153
▁gegen	-7.37686
▁jedoch	-7.44138
▁drei	-7.44813
▁Ein	-7.45994
▁ersten	-7.46395
▁B	-7.47325
▁A	-7.47556
▁wieder	-7.48981
▁seit	-7.496
▁so	-7.50198
h	-7.5184
l	-7.52055
▁etwa	-7.52406
▁15	-7.54953
den	-7.56322
▁Bei	-7.56664
▁of	-7.58981
▁Als	-7.59887
▁Ab	-7.60353
ten	-7.60676
▁seinem	-7.61666
▁mehr	-7.61791
▁Mit	-7.62304
▁Gemeinde	-7.6336
an	-7.63463
▁S	-7.64322
▁später	-7.64585
▁diese	-7.66452
▁seinen	-7.67775
▁2	-7.67863
▁kann	-7.68055
▁liegt	-7.68951
▁Von	-7.69088
▁Teil	-7.69367
▁beim	-7.69587
▁de	-7.7023
▁Ende	-7.70668
▁ihre	-7.70769
us	-7.72729
▁man	-7.73486
▁An	-7.73987
▁Mai	-7.73992
2	-7.74088
▁16	-7.75797
▁konnte	-7.75982
▁erste	-7.76395
▁wo	-7.76762
▁ihm	-7.77518
be	-7.77991
▁kam	-7.78391
g	-7.78713
al	-7.79466
S	-7.80388
▁August	-7.81292
▁3	-7.81841
▁14	-7.83622
ge	-7.83857
▁März	-7.84647
▁zurück	-7.84818
▁Januar	-7.85593
▁Oktober	-7.86071
▁bereits	-7.86097
▁dann	-7.86292
▁Auf	-7.86617
▁haben	-7.86958
▁St	-7.87098
▁vier	-7.87801
el	-7.88346
▁ihrer	-7.88406
▁dort	-7.8867
em	-7.89131
▁ihn	-7.89137
▁13	-7.8952
▁Juli	-7.89968
▁12	-7.90536
▁20	-7.91662
▁September	-7.91694
b	-7.9209
▁April	-7.92158
um	-7.92264
▁anderen	-7.92329
▁I	-7.9242
▁während	-7.9249
1	-7.93002
▁Juni	-7.93279
▁erhielt	-7.93687
▁4	-7.94169
u	-7.94789
▁Diese	-7.94919
▁US	-7.95218
▁ihr	-7.95218
▁heute	-7.95295
▁Dezember	-7.95544
▁Film	-7.95574
▁ver	-7.96268
▁zusammen	-7.96356
’	-7.97222
▁Seit	-7.97241
▁November	-7.97604
▁beiden	-7.97754
000	-7.98399
f	-7.98675
▁Saison	-7.98699
A	-7.99016
▁können	-7.99275
ischen	-7.99947
▁gab	-8.00461
▁diesem	-8.00641
▁10	-8.0067
ver	-8.00672
le	-8.01231
▁Jahrhundert	-8.01285
▁†	-8.01569
et	-8.02232
▁dessen	-8.02481
▁%	-8.02489
on	-8.02568
ing	-8.02998
▁da	-8.03546
der	-8.03856
▁Deutschland	-8.04588
▁Kirche	-8.04639
▁gibt	-8.05246
▁Mitglied	-8.05246
▁km	-8.05607
▁K	-8.05966
▁Bau	-8.06598
sch	-8.07083
▁So	-8.08513
▁Berlin	-8.08824
berg	-8.09136
land	-8.09769
▁Eine	-8.09822
▁5	-8.1019
▁alle	-8.10279
B	-8.10564
is	-8.10735
C	-8.1075
▁Februar	-8.10993
▁Aus	-8.11459
▁C	-8.11532
▁Auch	-8.11937
▁damit	-8.1241
▁Ort	-8.12552
▁Da	-8.12871
3	-8.13595
re	-8.13776
▁Zu	-8.14057
K	-8.14572
▁Universität	-8.1469
▁M	-8.14739
▁Platz	-8.14963
▁keine	-8.15084
▁D	-8.15161
▁Be	-8.15175
▁U	-8.16326
▁zunächst	-8.16336
▁Für	-8.16862
▁sehr	-8.17281
G	-8.18164
▁Ver	-8.18367
▁19	-8.18569
st	-8.189
▁befindet	-8.19274
▁Namen	-8.19956
▁ihren	-8.20039
▁E	-8.2032
▁P	-8.20428
▁G	-8.20597
▁weitere	-8.20693
▁Vor	-8.20777
▁begann	-8.21029
▁m	-8.21068
▁Personen	-8.21296
▁Unter	-8.21663
ische	-8.22515
▁bekannt	-8.22635
▁18	-8.22686
ch	-8.2323
▁allem	-8.23994
▁selbst	-8.24733
▁worden	-8.24811
▁6	-8.24921
▁Sohn	-8.2529
mann	-8.25365
▁11	-8.26207
p	-8.27562
▁Land	-8.27575
D	-8.27769
▁nahm	-8.28228
▁ebenfalls	-8.28533
▁anderem	-8.28773
▁Welt	-8.28854
na	-8.28976
man	-8.29071
▁bzw	-8.29821
▁V	-8.299
▁O	-8.29921
▁gewann	-8.29963
▁8	-8.30021
▁National	-8.30422
▁deutschen	-8.31305
▁spielte	-8.31509
▁hier	-8.31552
▁T	-8.3216
▁fünf	-8.32418
▁7	-8.32589
▁Familie	-8.33456
▁30	-8.33818
▁17	-8.34352
ab	-8.34552
▁statt	-8.34796
▁dabei	-8.3491
▁was	-8.3548
ia	-8.36236
▁neuen	-8.36456
▁Art	-8.36828
▁9	-8.36988
c	-8.37108
▁2010	-8.373
da	-8.37324
▁F	-8.37425
▁gehörte	-8.37802
▁Titel	-8.3799
▁neue	-8.37994
▁Während	-8.3872
ie	-8.40309
18	-8.40324
ka	-8.40905
▁2011	-8.40946
▁ohne	-8.40969
▁erstmals	-8.40974
ton	-8.41074
▁Mal	-8.41197
▁Durch	-8.41658
▁Musik	-8.41821
▁Wasser	-8.42199
▁formula	-8.42292
▁Jahrhunderts	-8.42607
V	-8.42663
▁trat	-8.42804
lich	-8.42951
▁Ober	-8.43002
▁be	-8.43088
▁gehört	-8.4325
▁Haupt	-8.43361
▁sei	-8.43591
▁ging	-8.43745
▁weiter	-8.43758
▁Band	-8.44016
▁Um	-8.44303
at	-8.44315
▁deutscher	-8.44317
▁erst	-8.44406
▁schon	-8.44547
▁New	-8.44643
ig	-8.45
▁2008	-8.45441
▁2009	-8.4549
▁ge	-8.45664
▁immer	-8.45973
ke	-8.45996
P	-8.46298
haus	-8.46839
▁Seine	-8.46885
ern	-8.4709
▁Name	-8.4712
▁2012	-8.47194
4	-8.47217
it	-8.47739
▁einige	-8.47828
▁2013	-8.47974
▁bezeichnet	-8.48088
▁Sein	-8.48115
▁sondern	-8.48122
▁2014	-8.48156
ter	-8.48381
▁L	-8.48582
ner	-8.4863
▁De	-8.49206
straße	-8.49308
to	-8.49338
▁Menschen	-8.49372
▁2015	-8.49419
▁rund	-8.4947
ar	-8.49636
▁La	-8.50329
▁führte	-8.50371
„	-8.50391
▁2007	-8.50434
ma	-8.50781
▁neben	-8.50844
isch	-8.50889
ta	-8.51305
▁Landes	-8.51536
j	-8.51838
▁Kinder	-8.51982
'	-8.52022
▁steht	-8.5205
▁zweiten	-8.52518
▁25	-8.52533
▁arbeitete	-8.52597
M	-8.52807
▁H	-8.53104
▁Haus	-8.53166
or	-8.53493
▁Deutschen	-8.53526
5	-8.53612
▁Neben	-8.54344
▁studierte	-8.54528
▁Über	-8.54882
▁fand	-8.54911
▁andere	-8.5503
im	-8.5504
E	-8.55181
▁2006	-8.55539
ungen	-8.55614
▁R	-8.55712
F	-8.558
▁ihrem	-8.55824
burg	-8.5593
▁besteht	-8.56124
▁Spiel	-8.56131
▁genannt	-8.56187
▁2016	-8.56211
▁seines	-8.56272
la	-8.56912
▁mehrere	-8.57326
▁Tod	-8.57874
▁Meter	-8.57934
17	-8.57985
bau	-8.581
w	-8.58223
ur	-8.58407
bach	-8.58516
▁wegen	-8.58518
au	-8.58558
▁hatten	-8.58641
▁tätig	-8.5878
“,	-8.59377
gen	-8.5942
▁sollte	-8.5964
▁W	-8.59644
ne	-8.59681
▁großen	-8.60087
iert	-8.6022
▁dieses	-8.6067
▁Anfang	-8.60989
▁wenn	-8.61437
▁soll	-8.61487
▁sechs	-8.61518
▁Kilometer	-8.61765
▁neu	-8.62333
T	-8.62556
▁allerdings	-8.62759
▁Ge	-8.6293
▁große	-8.63108
▁Friedrich	-8.63162
sten	-8.63495
▁Grund	-8.63517
▁2017	-8.63519
heim	-8.63714
Die	-8.6401
▁1990	-8.64329
▁erfolgte	-8.64416
▁letzten	-8.64607
▁2005	-8.65438
▁diesen	-8.65508
▁Geschichte	-8.65785
▁wechselte	-8.6589
▁gegründet	-8.6599
▁Bis	-8.66034
os	-8.66189
▁wobei	-8.66307
▁Gebiet	-8.66308
▁Burg	-8.66525
▁Form	-8.67141
x	-8.67207
▁Frau	-8.6768
stein	-8.68025
▁the	-8.68084
▁Unternehmen	-8.68194
▁Gebäude	-8.68232
▁viele	-8.68297
W	-8.68299
▁N	-8.68521
▁Neu	-8.68806
▁deutsche	-8.6893
▁24	-8.69069
▁nun	-8.69162
▁2000	-8.69176
▁Berg	-8.69219
▁Dorf	-8.69299
▁21	-8.6973
▁Einwohner	-8.69734
▁Nachdem	-8.69871
▁Co	-8.70306
6	-8.70353
▁un	-8.70829
▁1945	-8.70841
H	-8.71135
▁musste	-8.71186
▁Partei	-8.71488
▁Vater	-8.7153
▁Frauen	-8.71543
▁22	-8.71648
▁übernahm	-8.71675
▁blieb	-8.71764
▁Mitte	-8.71935
▁West	-8.7195
▁schließlich	-8.72168
▁Tochter	-8.72179
▁gewählt	-8.72211
▁Zweiten	-8.72288
no	-8.7235
N	-8.72641
▁erreichte	-8.72717
The	-8.72769
▁Re	-8.72818
▁II	-8.72882
▁Buch	-8.72889
▁folgenden	-8.73058
▁2018	-8.73058
▁Johann	-8.732
▁2004	-8.73234
ler	-8.73451
di	-8.73575
▁Liste	-8.7362
se	-8.73623
bar	-8.73958
▁Norden	-8.7426
▁Einsatz	-8.7426
ik	-8.74283
zu	-8.74457
zeit	-8.74543
ca	-8.74624
ste	-8.74674
▁erhalten	-8.74989
▁weiteren	-8.75068
▁See	-8.75195
▁Region	-8.75624
▁jeweils	-8.75643
tal	-8.75754
chen	-8.75897
▁Karl	-8.75963
▁welche	-8.76083
ein	-8.76192
L	-8.7623
▁führt	-8.76828
▁Leben	-8.76895
Z	-8.76964
feld	-8.77079
son	-8.77169
▁Verein	-8.77296
▁Bereich	-8.77398
▁Nord	-8.77469
▁verwendet	-8.77586
ation	-8.7759
ko	-8.7774
un	-8.77778
▁Europa	-8.77841
▁König	-8.77894
▁lang	-8.78237
▁Gruppe	-8.78265
▁Prozent	-8.7882
ja	-8.79047
ad	-8.79191
▁meist	-8.79223
▁Dabei	-8.79782
▁Kunst	-8.7985
▁USA	-8.80018
▁Dort	-8.80123
▁Rahmen	-8.80226
▁entstand	-8.80239
▁Amt	-8.80349
▁insgesamt	-8.80521
▁dazu	-8.80596
ra	-8.80653
▁München	-8.80815
▁verschiedenen	-8.80888
▁teil	-8.80916
co	-8.81185
▁denen	-8.81362
▁Kreis	-8.81469
▁darauf	-8.81788
il	-8.81821
▁Hof	-8.81944
▁aufgrund	-8.82052
▁Süden	-8.82061
▁erneut	-8.82086
▁Arbeit	-8.82529
▁erschien	-8.82979
▁23	-8.83117
R	-8.83156
▁Wien	-8.83216
am	-8.83273
▁Mannschaft	-8.83321
é	-8.83768
▁Millionen	-8.83826
▁folgender	-8.84111
ist	-8.84252
▁26	-8.84261
0	-8.84317
▁errichtet	-8.84339
▁1970	-8.84907
▁Le	-8.85123
th	-8.85146
I	-8.85288
as	-8.85698
weg	-8.85804
▁Jahres	-8.8609
▁eingesetzt	-8.86112
▁Z	-8.86138
▁gilt	-8.8625
▁1980	-8.86322
▁2003	-8.86583
▁Provinz	-8.86667
▁Man	-8.86792
▁University	-8.86866
▁Rolle	-8.87084
▁Weltkrieg	-8.87376
▁ließ	-8.87429
▁Hans	-8.87518
▁28	-8.87654
▁2019	-8.87693
▁Sommer	-8.87893
▁Dieser	-8.87996
▁2001	-8.88575
▁stand	-8.88581
▁2002	-8.88695
▁Westen	-8.88783
▁Folge	-8.88908
▁konnten	-8.89117
igen	-8.89151
▁finden	-8.89228
▁Zwischen	-8.89256
ed	-8.8944
▁Osten	-8.89455
▁100	-8.89536
O	-8.89686
ben	-8.90001
▁27	-8.90249
▁and	-8.90491
▁Sitz	-8.90497
▁Album	-8.90831
ck	-8.90941
ster	-8.90961
▁Werk	-8.91123
▁Al	-8.91426
▁1960	-8.91512
ion	-8.91749
▁stark	-8.91906
▁davon	-8.91951
▁J	-8.91988
▁insbesondere	-8.92
▁innerhalb	-8.92172
▁Beginn	-8.92537
▁Straße	-8.92574
schen	-8.92814
wissenschaftlich	-8.92913
▁Groß	-8.93057
▁veröffentlicht	-8.93081
▁fast	-8.93127
▁Bevölkerung	-8.93149
▁Ost	-8.93173
▁Mittel	-8.93375
▁Beispiel	-8.93395
▁Wilhelm	-8.93466
▁York	-8.93514
aus	-8.93541
U	-8.93566
ul	-8.93686
ach	-8.93762
▁Richtung	-8.93794
schaft	-8.94026
▁Höhe	-8.94087
▁Außerdem	-8.94391
▁zog	-8.94655
▁Regierung	-8.94744
▁Heinrich	-8.94837
8	-8.94983
meisterschaft	-8.95017
▁starb	-8.95385
▁Entwicklung	-8.9563
schule	-8.95664
▁Frankreich	-8.95714
▁eigenen	-8.9578
ierung	-8.9588
▁Paris	-8.95993
▁oft	-8.96268
7	-8.96383
ieren	-8.96575
▁acht	-8.96596
▁habe	-8.96676
▁Landkreis	-8.96716
▁&	-8.96812
stadt	-8.96968
▁zweite	-8.9698
▁John	-8.9705
innen	-8.97075
▁Bundes	-8.97205
▁Pro	-8.97303
liche	-8.97327
▁gegenüber	-8.97338
id	-8.97548
▁kommt	-8.97708
16	-8.97718
▁heutigen	-8.97835
spiel	-8.97917
▁Wald	-8.98013
rat	-8.9802
▁Staaten	-8.9802
▁Stein	-8.98129
▁ehemaligen	-8.98554
▁Schloss	-8.98908
ien	-8.98975
ry	-8.99005
▁1999	-8.99055
und	-8.99178
▁Rechts	-8.99447
▁Sch	-8.99811
▁29	-8.99819
▁Zur	-9.00569
▁zahlreiche	-9.00575
▁Paul	-9.00672
vor	-9.00754
▁hin	-9.00768
▁Mutter	-9.0099
▁damals	-9.01084
▁muss	-9.0124
▁sieben	-9.0125
▁folgte	-9.01444
▁Peter	-9.01605
▁Krieg	-9.0175
mer	-9.02147
▁1950	-9.02164
hof	-9.0228
▁kurz	-9.02291
Stand	-9.02415
▁General	-9.02423
tor	-9.02553
▁also	-9.02659
▁Bedeutung	-9.02681
▁darunter	-9.02723
▁Raum	-9.02904
▁Wahl	-9.02953
▁Ziel	-9.02983
v	-9.03043
▁gemeinsam	-9.03127
▁Alter	-9.03212
ä	-9.03361
▁Tor	-9.03563
ow	-9.03801
▁verschiedene	-9.03803
ha	-9.03831
▁hinaus	-9.03832
▁lange	-9.03859
▁zehn	-9.03894
▁Theater	-9.03912
▁Mar	-9.04112
▁findet	-9.04493
▁Insel	-9.04572
▁Tag	-9.04593
mannschaft	-9.04658
▁Seite	-9.04787
mal	-9.04802
▁sowohl	-9.04823
werk	-9.04866
▁1998	-9.05204
ium	-9.0536
▁31	-9.05568
ismus	-9.06087
▁weil	-9.06266
▁50	-9.06314
stand	-9.06452
▁danach	-9.0652
go	-9.06848
▁Österreich	-9.06932
▁Jugend	-9.07117
▁allen	-9.07243
ro	-9.07302
▁FC	-9.07514
▁zudem	-9.07915
ers	-9.07992
gruppe	-9.08183
▁doch	-9.08197
▁Holz	-9.08223
li	-9.08232
▁besonders	-9.08298
ir	-9.08389
▁Natur	-9.08515
▁bestand	-9.08604
▁deutlich	-9.08636
ei	-9.08749
▁lag	-9.08809
▁Mann	-9.08871
▁u	-9.08975
▁besuchte	-9.09151
▁Kultur	-9.09231
▁häufig	-9.09271
▁Süd	-9.09331
ak	-9.0934
▁Professor	-9.09774
ina	-9.10113
▁je	-9.10166
bahn	-9.10211
▁pro	-9.10389
▁stellte	-9.10461
ierte	-9.10499
▁Hamburg	-9.10595
auf	-9.10806
15	-9.10953
▁Kaiser	-9.11058
▁Erst	-9.11164
▁gelang	-9.11288
platz	-9.11351
▁1994	-9.11436
▁französischen	-9.11451
▁Reichs	-9.11548
▁setzte	-9.11749
▁zeigt	-9.11762
▁hinter	-9.11802
me	-9.11913
lichen	-9.11961
▁schrieb	-9.12006
art	-9.12041
▁San	-9.12058
▁Spieler	-9.12183
▁Den	-9.12216
▁Kloster	-9.12306
del	-9.1232
los	-9.12352
▁teilweise	-9.12354
ic	-9.12574
▁Betrieb	-9.12637
▁Zum	-9.12713
▁meisten	-9.12741
dorf	-9.12819
▁Maria	-9.12851
▁gehören	-9.12875
meisterschaften	-9.12944
J	-9.12953
▁Kirchen	-9.1311
do	-9.13194
▁heraus	-9.13195
▁beispielsweise	-9.13213
▁zuvor	-9.13217
▁Team	-9.13286
ich	-9.13419
▁Hier	-9.13624
Der	-9.13752
▁befinden	-9.13778
▁Gesellschaft	-9.14093
▁1996	-9.14163
▁Dr	-9.14296
▁alten	-9.1442
ungs	-9.14425
▁möglich	-9.14452
▁London	-9.14647
10	-9.14661
ius	-9.14786
▁lassen	-9.14896
▁1992	-9.15056
end	-9.15287
▁machte	-9.15355
▁veröffentlichte	-9.1539
▁1997	-9.1545
▁Schule	-9.155
form	-9.15595
Be	-9.15733
▁Karriere	-9.15932
▁daher	-9.15934
▁Gründung	-9.15977
▁geht	-9.16054
▁Vertrag	-9.16097
9	-9.16236
▁Wie	-9.16466
die	-9.16477
ki	-9.16526
▁Weg	-9.16598
ige	-9.16631
▁Bruder	-9.16672
▁aufgenommen	-9.16877
▁Sport	-9.16897
▁Gemeinden	-9.16907
ger	-9.17092
▁genutzt	-9.17233
io	-9.17338
he	-9.1735
La	-9.17575
Re	-9.17629
▁Georg	-9.17754
iz	-9.1794
▁geboren	-9.17974
recht	-9.18023
▁ihnen	-9.18025
ly	-9.18221
▁1991	-9.1845
ent	-9.18546
▁entstanden	-9.18593
▁1995	-9.18743
▁Einzel	-9.18775
▁eigene	-9.18843
▁handelt	-9.19232
▁gründete	-9.19273
▁Armee	-9.19304
ard	-9.19464
▁Danach	-9.19464
ken	-9.20045
▁Mo	-9.20124
▁El	-9.20177
▁Ko	-9.20302
mit	-9.20357
▁erreicht	-9.20616
▁nachdem	-9.20634
▁aller	-9.20687
▁folgende	-9.20749
▁DDR	-9.2095
enden	-9.20954
see	-9.20957
raum	-9.21014
▁Dienst	-9.21136
▁1993	-9.21238
▁Strecke	-9.21281
▁kleinen	-9.21362
▁Mitglieder	-9.21416
▁Un	-9.21453
▁kleine	-9.21527
ling	-9.21545
mar	-9.21769
▁Truppen	-9.21837
▁kamen	-9.2187
▁Liga	-9.21971
▁Euro	-9.22028
ti	-9.22045
▁gut	-9.22149
▁direkt	-9.22344
▁Seiten	-9.22408
ber	-9.22466
▁Vereinigten	-9.225
▁gleichen	-9.22517
▁einigen	-9.2263
za	-9.22645
auch	-9.22651
▁absolvierte	-9.22691
ol	-9.22821
ze	-9.23021
▁Dies	-9.23023
ni	-9.23123
▁zwar	-9.23218
▁sehen	-9.23309
lo	-9.23313
▁kein	-9.23466
▁Bo	-9.23478
▁Martin	-9.2349
ian	-9.23542
▁stehen	-9.23571
bel	-9.23638
▁Schweiz	-9.23665
▁Bereits	-9.23736
▁Tal	-9.23763
▁Arbeits	-9.23884
pa	-9.23889
▁Roman	-9.23998
▁Zwei	-9.24002
▁somit	-9.24048
▁Ersten	-9.24076
▁Nähe	-9.24098
ce	-9.24237
▁1989	-9.24528
sche	-9.24586
▁Schul	-9.24624
▁ursprünglich	-9.24872
▁Familien	-9.24982
20	-9.25047
▁Volks	-9.25054
ley	-9.25115
▁Besitz	-9.25172
▁Chr	-9.25186
ve	-9.25236
▁Staats	-9.2529
▁Bild	-9.25593
▁Stelle	-9.25946
▁anschließend	-9.2597
▁Straßen	-9.26003
▁40	-9.26087
▁vielen	-9.26126
▁Präsident	-9.2654
sa	-9.26701
▁Franz	-9.26764
▁etwas	-9.26944
▁ernannt	-9.27205
▁Studium	-9.27334
▁lässt	-9.27382
▁Bezeichnung	-9.27389
▁außerdem	-9.27449
▁Erfolg	-9.27462
▁kehrte	-9.27489
ier	-9.27509
ff	-9.27849
▁erwähnt	-9.27892
▁Michael	-9.28099
▁Ar	-9.281
▁letzte	-9.28132
▁südlich	-9.28141
▁Literatur	-9.28177
▁Fall	-9.28346
men	-9.28347
ine	-9.28386
▁liegen	-9.28393
▁Klein	-9.28616
ert	-9.28654
▁Meister	-9.28688
▁Ehe	-9.28821
▁dafür	-9.28889
▁Hoch	-9.28961
▁beide	-9.28963
▁schloss	-9.29004
▁Ortsteil	-9.2907
bereich	-9.29091
▁gewesen	-9.29248
buch	-9.29249
▁Begriff	-9.2937
▁verheiratet	-9.29384
▁Fußball	-9.2945
▁1933	-9.29562
▁Kriegs	-9.29808
▁County	-9.30003
▁Militär	-9.30033
▁Spielen	-9.30076
▁selben	-9.30192
▁Schutz	-9.30201
▁Künstler	-9.30351
▁Saint	-9.30373
▁mehreren	-9.30375
wald	-9.30496
ri	-9.30587
ende	-9.30698
▁ganz	-9.30763
▁Politiker	-9.30829
▁Nachfolger	-9.31019
▁Stil	-9.31279
ci	-9.31366
▁Ludwig	-9.3139
her	-9.3142
▁1972	-9.31495
▁stammt	-9.31539
pe	-9.31799
▁The	-9.31826
▁unterschiedlich	-9.31957
▁Einwohnern	-9.32011
▁Schweizer	-9.32028
▁Zudem	-9.32049
▁nördlich	-9.32116
▁hoch	-9.32142
ek	-9.32159
▁weniger	-9.32213
▁entwickelte	-9.32247
▁stellt	-9.32303
▁Reihe	-9.32359
heit	-9.32424
▁Robert	-9.32473
▁Arten	-9.32484
St	-9.32577
▁Alt	-9.32821
▁Ausbildung	-9.32949
▁1920	-9.33133
enberg	-9.33181
▁Boden	-9.3332
▁Rom	-9.33404
▁nahe	-9.33631
▁Olympischen	-9.3366
]	-9.33738
che	-9.33796
▁Bar	-9.3396
▁Gold	-9.3399
tz	-9.34066
▁1988	-9.34135
▁1930	-9.34239
▁umfasst	-9.34266
▁erster	-9.34327
Sch	-9.34333
▁ehemalige	-9.34344
▁Bahnhof	-9.34367
▁Familienname	-9.34419
kirche	-9.34471
▁heiratete	-9.34566
zug	-9.34613
▁kommen	-9.34613
▁Ihre	-9.34733
amerikanischer	-9.34804
▁Serie	-9.3493
▁dritten	-9.34937
▁Pa	-9.35053
meister	-9.35264
bi	-9.35275
▁bildet	-9.3535
▁Bad	-9.35427
isten	-9.35429
▁Hand	-9.35452
▁v	-9.3546
Le	-9.35643
▁Markt	-9.3566
▁Leitung	-9.35704
▁Wirtschafts	-9.35721
▁fest	-9.35735
▁Park	-9.35779
▁gebaut	-9.36172
▁Deutsche	-9.36207
▁Carl	-9.36286
▁No	-9.3637
▁Ha	-9.36464
▁Turm	-9.36614
▁befand	-9.36664
▁Kampf	-9.36755
lin	-9.36776
▁wenig	-9.36828
▁Fluss	-9.3698
ischer	-9.37004
▁Herrschaft	-9.37151
od	-9.37241
▁Tage	-9.37375
▁Werke	-9.37466
▁1939	-9.3749
▁Chor	-9.37568
▁welches	-9.37607
gebiet	-9.37654
▁Reich	-9.37711
▁1987	-9.37728
á	-9.37829
▁Damit	-9.37851
▁Verbindung	-9.37912
▁Gesamt	-9.37946
▁größten	-9.38005
▁diente	-9.38216
▁bevor	-9.38439
▁Ka	-9.38534
ga	-9.38573
▁Gruppen	-9.38579
▁Köln	-9.38631
▁Di	-9.38702
är	-9.38864
▁Thomas	-9.38867
gel	-9.38937
▁England	-9.39066
▁Lebens	-9.39321
▁Verwaltungs	-9.39348
▁1938	-9.39461
▁Rhein	-9.39476
▁ca	-9.3951
ant	-9.39526
▁Bischof	-9.39626
In	-9.39641
▁ob	-9.39696
▁Regel	-9.39913
system	-9.39958
op	-9.40289
▁französische	-9.4029
▁Spiele	-9.40361
▁Ho	-9.40403
so	-9.40434
▁1944	-9.4044
▁Berliner	-9.40464
zen	-9.40469
▁Hälfte	-9.40554
▁Leiter	-9.40584
▁Teile	-9.40629
▁Beim	-9.40651
▁Zuge	-9.40731
▁Rang	-9.41102
▁Tour	-9.41157
▁1974	-9.41179
▁dar	-9.41183
▁Du	-9.41187
▁Luft	-9.41311
bild	-9.41453
▁Sprache	-9.41722
tra	-9.41947
▁Projekt	-9.42011
▁ebenso	-9.42015
▁hohen	-9.42082
▁1986	-9.42163
▁1940	-9.42187
▁einmal	-9.42276
▁Schlacht	-9.42279
ker	-9.42314
▁1984	-9.42366
▁Italien	-9.42368
Universität	-9.42466
▁benannt	-9.4256
▁1975	-9.42583
▁sogar	-9.42659
▁League	-9.42798
▁Car	-9.42824
des	-9.42915
▁Sachsen	-9.42943
gesellschaft	-9.42956
▁damaligen	-9.42978
▁Te	-9.43004
▁Kanton	-9.43016
▁1985	-9.43047
▁Me	-9.43082
eck	-9.43139
mm	-9.43173
▁einzige	-9.43246
▁Museum	-9.43282
▁Polizei	-9.43442
▁entfernt	-9.43448
▁größte	-9.43459
▁Hilfe	-9.4346
Ge	-9.43614
▁Otto	-9.43742
▁Ru	-9.43863
▁Ihr	-9.43888
▁ihres	-9.44064
▁Frankfurt	-9.44147
zi	-9.44242
ski	-9.44383
▁spielt	-9.44462
ierten	-9.44537
▁entwickelt	-9.44605
bo	-9.44634
▁Uhr	-9.44728
▁1968	-9.4482
▁neun	-9.4484
▁östlich	-9.44851
▁Ne	-9.44877
▁Studien	-9.44883
▁ausgezeichnet	-9.45038
▁weit	-9.45177
▁Drei	-9.45208
▁besitzt	-9.45283
▁1978	-9.45482
▁britischen	-9.45554
▁Anschließend	-9.45579
▁Fach	-9.45624
je	-9.4573
▁Dieses	-9.45787
ex	-9.45803
▁1969	-9.46163
ana	-9.46331
▁1971	-9.46333
▁Feld	-9.46356
ho	-9.46518
ut	-9.46612
▁Später	-9.46698
An	-9.46701
▁Ri	-9.46733
▁Christian	-9.46745
geschichte	-9.46746
▁Or	-9.46749
▁Länge	-9.46948
▁He	-9.4705
▁1973	-9.47192
▁Johannes	-9.47315
▁Alle	-9.47355
bis	-9.47422
▁viel	-9.47513
▁gleich	-9.47547
▁aktiv	-9.47565
▁Schüler	-9.4768
▁verbunden	-9.47883
▁cm	-9.47901
wa	-9.4795
mo	-9.48027
▁Weitere	-9.48079
▁Geld	-9.48099
▁Li	-9.48111
▁1983	-9.48173
ale	-9.48194
kreis	-9.48351
stellen	-9.48355
▁Joseph	-9.48355
▁Aufgrund	-9.48389
Ver	-9.48629
▁weiterhin	-9.48717
▁Preis	-9.4873
welt	-9.4879
▁müssen	-9.48973
▁1976	-9.49249
▁1979	-9.49382
▁Arbeiten	-9.49438
▁1946	-9.4947
▁Linie	-9.49562
▁System	-9.49593
▁1982	-9.49619
▁fanden	-9.49625
the	-9.49635
preis	-9.49975
▁beträgt	-9.50122
▁Winter	-9.50149
▁Grenze	-9.50177
▁Firma	-9.50198
ville	-9.50214
▁Her	-9.50325
▁Leipzig	-9.50356
hausen	-9.50493
▁Na	-9.50498
▁Kurz	-9.50532
▁Post	-9.5062
▁bisher	-9.50923
▁City	-9.50939
by	-9.50951
▁Zahl	-9.5108
▁Stadtteil	-9.51144
▁geführt	-9.51169
ac	-9.51232
isierung	-9.5135
▁Produktion	-9.51363
▁frühen	-9.514
wasser	-9.51402
▁Lehrer	-9.51579
▁Doppel	-9.51663
les	-9.51677
12	-9.51692
▁enthält	-9.51718
▁Start	-9.51739
tsch	-9.51741
▁Schiff	-9.51827
▁Bahn	-9.51894
nach	-9.52015
▁lediglich	-9.52047
▁Republik	-9.52096
sel	-9.52175
▁1981	-9.52243
▁Männer	-9.52313
pf	-9.52327
ell	-9.52412
De	-9.52424
▁Bayern	-9.52437
▁Ma	-9.52571
▁Je	-9.52597
▁westlich	-9.52736
▁knapp	-9.52773
va	-9.52922
▁Lage	-9.52975
▁Funktion	-9.52991
▁Industrie	-9.531
ba	-9.5331
anlage	-9.53322
▁Kar	-9.53394
▁ent	-9.5341
kon	-9.53436
▁60	-9.53471
30	-9.53511
▁GmbH	-9.5376
▁1964	-9.53769
▁III	-9.53772
▁Frei	-9.53804
▁1967	-9.53841
▁Druck	-9.53955
▁Ernst	-9.5401
▁frei	-9.5408
keit	-9.54091
si	-9.54108
sp	-9.5412
▁verlor	-9.54188
▁Ur	-9.5426
dienst	-9.54297
mi	-9.54496
▁beteiligt	-9.54628
▁Rad	-9.54683
leben	-9.54711
per	-9.54738
▁politischen	-9.54837
▁Ent	-9.54866
▁brachte	-9.54881
▁internationalen	-9.5492
▁1977	-9.54991
▁Körper	-9.55001
14	-9.5508
▁Polen	-9.55159
▁Fläche	-9.55175
▁Gattung	-9.55204
▁Per	-9.55368
▁Licht	-9.55435
▁gleichzeitig	-9.55476
▁Einfluss	-9.55483
▁wohl	-9.55559
▁wollte	-9.55816
▁späteren	-9.55854
▁ersetzt	-9.55877
▁Mark	-9.55923
▁Zentrum	-9.55978
▁Gut	-9.5618
▁Kon	-9.56329
▁hervor	-9.56338
▁erreichen	-9.56377
gang	-9.56401
▁Energie	-9.56411
▁belegte	-9.56423
▁Abschluss	-9.56526
amt	-9.56655
▁machen	-9.56756
▁Po	-9.56975
▁Ca	-9.57025
▁eher	-9.57043
▁Direktor	-9.57084
ix	-9.57137
▁Bank	-9.57138
▁Pe	-9.57178
▁1966	-9.57302
▁1965	-9.57427
▁Mitarbeiter	-9.57433
▁College	-9.57504
Welt	-9.57649
▁Se	-9.57776
▁Medien	-9.57796
▁Gegen	-9.57899
▁Finale	-9.57945
▁Vertreter	-9.58028
▁gesamte	-9.58062
fer	-9.58084
▁Akademie	-9.58088
▁erfolgreich	-9.58149
▁Zeitpunkt	-9.5816
▁hohe	-9.5816
▁1956	-9.58234
▁sollten	-9.58305
fall	-9.58307
▁führen	-9.58361
▁gefunden	-9.58366
▁erzielte	-9.58382
▁Wort	-9.58423
▁Ton	-9.5846
▁Kopf	-9.58461
▁Rat	-9.5855
▁Heimat	-9.58564
▁alte	-9.58595
▁1961	-9.58618
▁Auftrag	-9.58641
▁Richard	-9.58825
▁1952	-9.58944
▁bilden	-9.58961
yl	-9.58977
band	-9.59036
▁Con	-9.59059
▁hauptsächlich	-9.59097
ron	-9.59118
▁betrug	-9.59121
ov	-9.59282
▁Basis	-9.59331
▁Bürgermeister	-9.59451
▁Wiener	-9.59467
▁AG	-9.59489
über	-9.59701
▁China	-9.5974
▁Vorsitzender	-9.5974
▁Bürger	-9.59782
rad	-9.5987
▁Verfügung	-9.59882
▁1962	-9.59886
▁Trainer	-9.59902
▁International	-9.59962
▁1949	-9.59973
▁zahlreichen	-9.59998
▁1941	-9.60135
wissenschaften	-9.6019
▁Eltern	-9.60195
ort	-9.60219
▁Heute	-9.60224
ö	-9.60299
▁Ja	-9.60306
▁gestellt	-9.60347
▁1963	-9.60457
▁1958	-9.60572
▁Soldaten	-9.60595
▁verloren	-9.60682
▁Dem	-9.60713
▁1943	-9.60853
▁Ben	-9.60888
▁überwiegend	-9.60929
▁Flug	-9.60942
▁hielt	-9.60947
▁1948	-9.6097
▁200	-9.61067
▁Des	-9.61095
▁Gegensatz	-9.61103
du	-9.61229
▁wenige	-9.6124
▁1942	-9.61309
▁1959	-9.61371
▁politische	-9.61443
▁Rück	-9.61479
▁will	-9.61502
amerikanischen	-9.61522
▁Sozial	-9.61741
führer	-9.61868
50	-9.61908
▁Ex	-9.61913
punkt	-9.61956
11	-9.61963
▁Ni	-9.61967
▁David	-9.6199
verein	-9.62034
▁Handels	-9.62245
▁Forschungs	-9.62433
▁nächsten	-9.62452
ett	-9.62469
▁leicht	-9.62554
▁Eisenbahn	-9.6263
▁Daten	-9.62669
dy	-9.62673
▁vollständig	-9.62725
▁Go	-9.62745
▁Königs	-9.62752
mon	-9.62774
ologie	-9.62853
ft	-9.62869
pp	-9.62879
▁Unterstützung	-9.62889
40	-9.62908
min	-9.62958
▁Bezirk	-9.63081
ß	-9.63089
▁darüber	-9.63159
schutz	-9.63175
▁Lo	-9.63284
sdorf	-9.63334
▁eröffnet	-9.63392
13	-9.63579
▁Japan	-9.63873
▁Modell	-9.63876
▁Metern	-9.63939
▁Wochen	-9.64173
▁All	-9.64211
▁mm	-9.64218
▁verläuft	-9.64249
‘	-9.64255
▁Jan	-9.64384
ice	-9.64456
von	-9.64507
▁Anschluss	-9.64537
▁Kreuz	-9.64554
▁würde	-9.64561
▁sollen	-9.64752
▁erwarb	-9.64847
▁Schauspieler	-9.64943
▁dadurch	-9.64987
teil	-9.65087
▁stieg	-9.65123
▁Max	-9.65237
ino	-9.65259
inger	-9.65304
sberg	-9.65382
▁nieder	-9.65417
▁Programm	-9.6544
fe	-9.65482
▁Runde	-9.65497
▁Pan	-9.65516
▁Recht	-9.65561
▁Anzahl	-9.65565
ya	-9.65603
führung	-9.65613
▁Position	-9.65697
▁River	-9.65702
▁relativ	-9.65752
▁Politik	-9.65796
▁Wert	-9.65853
▁Staffel	-9.65854
▁Hochschule	-9.65856
▁einzelnen	-9.66084
wagen	-9.66107
betrieb	-9.66198
▁X	-9.66278
ou	-9.66302
ny	-9.66462
▁Hannover	-9.66518
▁Bach	-9.66541
▁vermutlich	-9.66607
▁übernommen	-9.66612
druck	-9.66631
▁Wein	-9.66736
▁beendete	-9.66748
sport	-9.66829
▁schwer	-9.66854
▁besten	-9.66864
stelle	-9.66893
X	-9.6707
ren	-9.67091
í	-9.67091
▁geworden	-9.67212
Veröffentlichung	-9.6724
▁lebte	-9.67395
▁1955	-9.67403
kel	-9.67437
▁Vereins	-9.67471
▁Ba	-9.67496
ring	-9.67631
gi	-9.67664
▁Gelände	-9.67682
▁bald	-9.67724
▁Ro	-9.67792
▁daraufhin	-9.67793
▁1934	-9.67856
▁Sa	-9.67871
▁Alexander	-9.67884
▁1953	-9.67885
tag	-9.67978
▁mussten	-9.67997
itz	-9.68128
▁folgten	-9.68187
▁William	-9.6822
▁Tätigkeit	-9.68222
▁Hauptstadt	-9.68241
▁Jo	-9.68263
ang	-9.68349
lauf	-9.68399
▁wuchs	-9.68414
ot	-9.68427
▁for	-9.68484
▁Auto	-9.68556
▁Ga	-9.68619
vo	-9.68741
▁1919	-9.68748
▁1957	-9.6881
▁Dresden	-9.68893
▁Sieg	-9.68903
don	-9.69037
▁Ta	-9.69088
▁Institut	-9.69138
▁keinen	-9.69214
▁Spielzeit	-9.6926
▁geprägt	-9.69281
▁1954	-9.69306
▁wiederum	-9.69321
▁Main	-9.69567
▁Sand	-9.69612
▁Kern	-9.6967
▁Zug	-9.69676
▁trägt	-9.69684
▁[	-9.69709
▁zwölf	-9.69881
▁ehemaliger	-9.70031
▁Städte	-9.70118
chi	-9.70199
▁indem	-9.70208
▁1947	-9.70292
▁Ad	-9.70324
▁durchgeführt	-9.70341
▁Verwendung	-9.70366
▁jeder	-9.705
▁Hermann	-9.70565
▁Stück	-9.7059
▁verließ	-9.70609
ey	-9.70707
▁Reise	-9.70782
we	-9.70801
▁ausschließlich	-9.70904
▁zusätzlich	-9.7092
▁größere	-9.70969
▁Zusammenhang	-9.71064
▁betrieben	-9.71069
▁1936	-9.71104
▁Lied	-9.71125
▁leitete	-9.7121
▁Rennen	-9.71233
▁erfolgt	-9.71237
▁1918	-9.71304
▁sogenannten	-9.71365
19	-9.71388
▁zerstört	-9.71456
▁regelmäßig	-9.71457
▁Verkehrs	-9.71514
▁Brand	-9.71529
▁zuletzt	-9.71561
▁Fa	-9.71579
▁Jazz	-9.7177
▁Wappen	-9.71953
▁Ehren	-9.7206
▁Union	-9.72087
holz	-9.72101
▁legte	-9.72106
▁Artikel	-9.72116
▁Zentral	-9.72163
▁Lager	-9.72232
▁Laut	-9.72252
▁fiel	-9.72254
▁Dom	-9.72316
lager	-9.72409
š	-9.72529
namen	-9.72543
▁Lehr	-9.72612
▁Anlage	-9.72625
▁kaum	-9.72701
▁galt	-9.72712
▁bietet	-9.72719
▁Autor	-9.7278
ven	-9.72787
▁öffentlichen	-9.72807
zer	-9.72897
lan	-9.72969
▁Pi	-9.73002
▁Lu	-9.73093
▁wirkte	-9.73173
up	-9.73179
Das	-9.7319
▁Rand	-9.73308
▁weltweit	-9.73331
▁End	-9.73346
▁heutige	-9.73393
▁Anna	-9.73536
vi	-9.73562
fest	-9.73571
▁gehörten	-9.73679
▁Herren	-9.73706
▁Graf	-9.73756
▁Division	-9.73764
▁lebt	-9.73765
▁George	-9.73774
▁Thema	-9.73781
▁1937	-9.73841
▁lebten	-9.73885
▁eingeführt	-9.73972
arbeit	-9.74074
▁Dazu	-9.74135
▁School	-9.7414
technik	-9.74154
▁Grab	-9.74202
▁1935	-9.74272
▁Opfer	-9.7433
▁entdeckt	-9.74365
▁Zusammen	-9.74497
▁Darüber	-9.74521
tel	-9.74522
schiff	-9.74569
▁entlang	-9.74612
▁gesamten	-9.74651
▁mindestens	-9.747
plan	-9.74734
mittel	-9.74766
▁Wagen	-9.74783
Er	-9.74883
▁bestehen	-9.74967
tri	-9.74999
▁Text	-9.75012
▁her	-9.75024
▁Ger	-9.75069
cher	-9.75146
ham	-9.7523
▁weitgehend	-9.7526
▁Umgebung	-9.75373
sur	-9.7543
▁Zusammenarbeit	-9.75436
▁früher	-9.7545
▁Har	-9.75461
▁1951	-9.75462
▁Nacht	-9.75683
gemeinschaft	-9.75706
po	-9.75861
▁Vergleich	-9.76032
ay	-9.7605
wand	-9.76103
▁Monate	-9.76241
▁heißt	-9.76302
uch	-9.76462
▁Schriftsteller	-9.76476
▁Juden	-9.7652
schlag	-9.7653
▁Motor	-9.76589
▁Do	-9.76593
▁Betriebs	-9.76628
ty	-9.76657
▁gemacht	-9.76734
▁Wohn	-9.76745
iger	-9.76756
if	-9.76794
bildung	-9.76837
fahrt	-9.76859
▁Einige	-9.77006
▁erbaut	-9.77032
▁alt	-9.77114
▁James	-9.7722
▁neuer	-9.77302
▁Verwaltung	-9.77376
ingen	-9.7743
▁vertreten	-9.77446
▁Département	-9.77473
60	-9.77579
gruppen	-9.77601
▁verkauft	-9.77688
▁genommen	-9.7783
▁Tri	-9.7797
fa	-9.78078
▁Jean	-9.78108
▁Su	-9.78112
gut	-9.78165
ini	-9.78189
Y	-9.78352
▁schnell	-9.7837
ju	-9.7837
▁Herbst	-9.78481
Al	-9.78499
▁Pflanzen	-9.78563
▁startete	-9.78566
21	-9.78704
▁du	-9.78704
▁nie	-9.78719
▁folgt	-9.78791
wissenschaft	-9.78819
▁Nr	-9.78838
▁sogenannte	-9.78929
ica	-9.78946
▁Radio	-9.79179
hm	-9.79199
▁Ländern	-9.79341
▁Wind	-9.79376
▁Doch	-9.794
▁großer	-9.79402
ag	-9.79429
▁Verlag	-9.79432
▁Y	-9.79477
gar	-9.79483
▁welcher	-9.79565
▁Lang	-9.79567
unternehmen	-9.79568
▁ausgetragen	-9.7958
▁Albert	-9.79592
▁Deutsch	-9.79708
lage	-9.79749
▁Baden	-9.7976
verband	-9.7979
▁Insgesamt	-9.79864
ap	-9.8001
▁gegeben	-9.80041
▁Daneben	-9.80159
▁fort	-9.80221
▁nimmt	-9.80296
▁Obwohl	-9.80317
▁80	-9.80367
sk	-9.80465
▁Vi	-9.80477
▁di	-9.80512
turm	-9.80542
▁Version	-9.80567
25	-9.8058
▁Abschnitt	-9.8059
▁Kind	-9.80596
ub	-9.80608
sitz	-9.80659
▁Punkt	-9.80691
▁Wild	-9.80869
▁Macht	-9.80949
▁Sp	-9.80961
▁Silber	-9.80972
▁deshalb	-9.81025
com	-9.81088
▁mehrfach	-9.81125
▁langen	-9.81167
▁Fernseh	-9.81252
film	-9.81272
▁Laufe	-9.81333
▁zeigen	-9.81352
▁Meisterschaft	-9.81358
▁Top	-9.81368
anlagen	-9.8138
lichkeit	-9.81448
Ein	-9.81594
▁Gu	-9.81623
kan	-9.81664
▁verliehen	-9.81682
▁Punkte	-9.8183
zahl	-9.81872
gericht	-9.81941
kt	-9.81981
▁Vier	-9.82006
▁Friedhof	-9.82035
▁1928	-9.82061
▁1914	-9.82069
▁bekam	-9.82223
▁Bern	-9.82234
▁Sonder	-9.82309
ano	-9.82324
len	-9.82328
▁Anteil	-9.82337
▁Königreich	-9.82405
ud	-9.82423
▁Mannschaften	-9.82429
spieler	-9.82469
▁1932	-9.82482
hi	-9.82556
pi	-9.8258
▁vorhanden	-9.82597
▁Zürich	-9.82641
▁Nordosten	-9.82773
▁1929	-9.82864
▁Not	-9.82869
▁Themen	-9.82899
▁bildete	-9.82907
▁erschienen	-9.83024
▁Fest	-9.8305
▁Song	-9.83094
▁gebildet	-9.83104
age	-9.83148
▁=	-9.83149
▁enthalten	-9.83165
österreichischen	-9.83169
tum	-9.83249
▁Heiligen	-9.83297
▁Russland	-9.83342
▁laut	-9.83374
▁Zeitschrift	-9.83378
ance	-9.83379
▁Ring	-9.83388
enburg	-9.83407
all	-9.83441
▁weiterer	-9.83464
23	-9.83475
▁Tier	-9.8355
que	-9.83625
▁Super	-9.837
▁seien	-9.83751
▁Val	-9.83753
ari	-9.8376
▁Feuer	-9.83807
▁Fenster	-9.83827
▁eingestellt	-9.83963
▁sodass	-9.83983
▁leben	-9.83995
▁Allerdings	-9.84148
markt	-9.84151
▁Los	-9.8418
wie	-9.84202
fach	-9.84226
ph	-9.84265
▁Walter	-9.84338
▁Minuten	-9.84378
▁stammen	-9.84455
▁Josef	-9.84507
▁Weise	-9.84531
▁Außen	-9.84556
▁selten	-9.8459
▁Verlauf	-9.84702
▁Schwester	-9.84766
verwaltung	-9.84814
hr	-9.84899
▁Mer	-9.849
▁Privat	-9.84907
▁Nicht	-9.84909
▁hergestellt	-9.84938
wert	-9.85072
▁gerade	-9.85156
80	-9.85159
▁südlichen	-9.85229
▁dritte	-9.85233
▁Spanien	-9.85244
▁Grafen	-9.85244
▁Darstellung	-9.85287
▁Stuttgart	-9.85304
mp	-9.85312
▁Mor	-9.85392
▁höchsten	-9.85399
arbeiten	-9.8555
▁Sal	-9.85597
bank	-9.85633
▁Marine	-9.85633
Ro	-9.85701
nd	-9.85728
▁Möglichkeit	-9.85766
▁Klasse	-9.85861
▁Papst	-9.85907
▁Großbritannien	-9.85913
and	-9.85937
siehe	-9.8598
▁1900	-9.85981
▁anderer	-9.85987
▁Organisation	-9.86028
verkehr	-9.86042
ment	-9.86089
leitung	-9.86146
▁historischen	-9.86157
ü	-9.86193
▁Charles	-9.8625
▁Selbst	-9.86257
▁Südwesten	-9.86272
unter	-9.8629
▁Nieder	-9.86308
▁Eis	-9.86314
▁2020	-9.86432
gebäude	-9.86537
▁Orte	-9.86595
▁verfügt	-9.86615
heute	-9.86616
val	-9.86657
tan	-9.86738
▁beschrieben	-9.86774
wirtschaft	-9.87002
igkeit	-9.87041
▁Bre	-9.871
▁Ortschaft	-9.87208
▁inzwischen	-9.87254
kraft	-9.87309
endorf	-9.87313
▁dient	-9.8732
▁beginnt	-9.87459
▁Philosophie	-9.87508
lä	-9.87584
▁Plan	-9.8766
bert	-9.87664
00	-9.87792
tin	-9.87803
▁Fort	-9.87826
▁Frage	-9.87941
pel	-9.87983
▁Führung	-9.8808
ob	-9.88126
ys	-9.88135
▁Frank	-9.88173
▁Zeitung	-9.88213
▁Siedlung	-9.88238
amerikanische	-9.88243
▁Tu	-9.88254
▁la	-9.88263
▁spielen	-9.88301
▁Rot	-9.88414
▁Gi	-9.88516
▁Herzog	-9.88527
▁Kraft	-9.88537
▁europäischen	-9.88636
fi	-9.88674
▁Mi	-9.88678
▁Beide	-9.88754
▁lief	-9.88787
seite	-9.88811
▁gebracht	-9.88837
▁Maler	-9.88849
▁Club	-9.8885
▁1925	-9.88854
▁größeren	-9.88976
▁70	-9.88985
▁Vom	-9.89075
ó	-9.89127
▁Schrift	-9.89144
▁Regional	-9.8916
▁Nordwesten	-9.89196
▁aufgelöst	-9.8926
leiter	-9.8929
▁Wirkung	-9.89356
▁Hafen	-9.89363
▁Größe	-9.89531
▁Bi	-9.89533
▁Stamm	-9.89776
▁jeweiligen	-9.89801
▁Stiftung	-9.89809
▁jährlich	-9.89849
▁Bur	-9.89868
▁wahrscheinlich	-9.89871
▁Minister	-9.89899
▁Unternehmens	-9.89934
programm	-9.89993
▁dagegen	-9.90003
Bo	-9.90039
▁Staat	-9.90084
lu	-9.90186
▁Schon	-9.9023
rand	-9.90339
▁Regie	-9.90351
nis	-9.9036
▁To	-9.90429
satz	-9.90508
▁Gas	-9.90539
▁Südosten	-9.90554
▁1924	-9.90576
▁Dach	-9.90591
▁Si	-9.90636
▁Schwarz	-9.90661
res	-9.90678
ec	-9.90695
▁500	-9.9072
▁eingerichtet	-9.90759
▁Fi	-9.9077
▁Sammlung	-9.90855
▁endete	-9.90944
reg	-9.90946
▁produziert	-9.90948
▁Stimmen	-9.90948
jährige	-9.91023
jährigen	-9.91066
▁berufen	-9.91073
▁nördlichen	-9.91077
▁oben	-9.91119
▁Halle	-9.9113
jo	-9.91225
▁American	-9.91235
▁Nur	-9.91292
fen	-9.91354
▁World	-9.91401
▁Weltkriegs	-9.91469
ok	-9.91501
uk	-9.91547
tu	-9.91609
▁Orts	-9.91623
▁Rock	-9.91658
▁Wal	-9.91786
▁Angaben	-9.91798
90	-9.91932
▁Bor	-9.91943
arten	-9.9196
▁Aufgaben	-9.91997
▁wichtige	-9.9202
ford	-9.92034
▁Chi	-9.92038
▁Studenten	-9.92056
▁Orgel	-9.92068
br	-9.92176
▁Ki	-9.92203
▁verlassen	-9.92209
▁Philipp	-9.92231
▁Schweden	-9.92472
▁arbeitet	-9.92474
das	-9.92486
24	-9.92534
▁früheren	-9.92534
▁italienischen	-9.92634
ah	-9.92636
▁Abteilung	-9.92652
▁1927	-9.92844
▁1910	-9.92868
▁Kapelle	-9.92872
▁Mon	-9.92953
▁Bauern	-9.92959
▁Meer	-9.93086
▁rechts	-9.93095
▁erstes	-9.931
zentrum	-9.93117
▁Arbeiter	-9.93185
Ha	-9.93218
▁groß	-9.93246
▁westlichen	-9.93249
ette	-9.93286
▁Ze	-9.93422
▁englischen	-9.93495
sh	-9.93573
iv	-9.93575
▁Bildung	-9.9361
National	-9.93615
brücke	-9.93713
▁bedeutet	-9.93723
tes	-9.93793
▁Krieges	-9.93806
cken	-9.93826
▁Tiere	-9.93838
versammlung	-9.93855
mel	-9.93876
▁Stunden	-9.93903
▁Ehefrau	-9.9391
▁Großen	-9.93913
stellung	-9.93995
▁Mu	-9.94136
▁Fahrzeug	-9.94176
▁Turnier	-9.94263
schrift	-9.94275
▁Forschung	-9.94389
▁gewinnen	-9.94429
▁trug	-9.94528
▁dargestellt	-9.94542
▁Garten	-9.94543
▁außerhalb	-9.94546
▁Ritter	-9.94571
Dollar	-9.9459
▁könnte	-9.94727
▁Anti	-9.94841
Bahn	-9.94867
35	-9.94896
ani	-9.94936
▁Par	-9.95043
▁Col	-9.95063
▁unterstützt	-9.95082
▁Sinne	-9.95108
▁Frühjahr	-9.95148
▁1921	-9.95174
▁umbenannt	-9.95191
▁darin	-9.95212
rang	-9.95292
▁Hall	-9.95384
tro	-9.95453
▁Bonn	-9.95473
▁gingen	-9.95529
▁trotz	-9.95567
▁Gast	-9.95588
▁russischen	-9.95677
▁höchste	-9.95724
▁Sam	-9.95726
▁35	-9.95757
▁Pu	-9.958
▁wäre	-9.95903
▁‚	-9.95963
▁Flügel	-9.95965
▁Mel	-9.96021
▁sah	-9.96035
▁Richter	-9.96088
▁Landwirtschaft	-9.96206
dt	-9.96232
▁Brücke	-9.96298
Ar	-9.96299
Ra	-9.96376
▁Leistung	-9.96696
▁Fuß	-9.96752
▁1931	-9.96759
▁Finanz	-9.96851
ordnung	-9.9687
▁hätte	-9.96885
linie	-9.96947
ll	-9.9698
uß	-9.96983
▁1923	-9.96985
▁Viele	-9.97025
dem	-9.97156
▁Front	-9.97214
▁Award	-9.97252
Mo	-9.97291
Se	-9.97346
▁hingegen	-9.9735
▁Münster	-9.97489
▁jungen	-9.97508
▁Quellen	-9.97575
halle	-9.97583
▁Single	-9.9772
park	-9.97725
▁1926	-9.97811
ität	-9.97913
▁verantwortlich	-9.97949
▁Typ	-9.97954
▁Bahnstrecke	-9.98006
▁erklärt	-9.9805
▁weist	-9.98063
ji	-9.98082
▁gleichnamigen	-9.98086
▁Kom	-9.98165
▁Kosten	-9.98213
▁Vorstand	-9.98312
▁Ergebnis	-9.9836
▁erweitert	-9.98378
▁unmittelbar	-9.98378
wo	-9.98435
reich	-9.98445
ola	-9.98664
▁Grundlage	-9.98723
han	-9.98739
▁gespielt	-9.98965
▁ähnlich	-9.98973
kow	-9.99002
▁Rudolf	-9.99041
▁Aufstieg	-9.99063
▁Can	-9.99065
▁Steuer	-9.991
▁internationale	-9.9912
▁1922	-9.99143
▁zählt	-9.99157
▁Tore	-9.99162
▁Nutzung	-9.99194
fläche	-9.99223
▁Material	-9.99244
▁Waffen	-9.99261
28	-9.99325
▁1912	-9.9934
▁Charakter	-9.99418
▁sieht	-9.99431
▁Baum	-9.99448
▁solche	-9.99582
▁Kur	-9.99714
▁Aufnahme	-9.99734
▁Washington	-9.99736
▁Bücher	-9.9975
▁Verfahren	-9.99813
45	-9.99865
▁angeboten	-9.99882
▁führten	-9.99907
▁offiziell	-9.99979
▁Interesse	-10.0003
▁Noch	-10.0004
og	-10.0027
rie	-10.0027
hu	-10.003
▁zunehmend	-10.003
▁gehen	-10.0031
»	-10.0034
▁Cup	-10.0042
▁Anton	-10.0043
alen	-10.0044
▁Mil	-10.0054
▁Kontakt	-10.0057
▁beschäftigt	-10.0059
▁Wolfgang	-10.0067
▁Gro	-10.007
kammer	-10.0073
▁Ti	-10.0073
▁versucht	-10.0076
▁macht	-10.0079
nitz	-10.0087
flug	-10.0088
spielen	-10.0093
▁amerikanischen	-10.0107
kar	-10.0108
▁zugleich	-10.0109
▁britische	-10.0116
▁Open	-10.0117
▁dahin	-10.0121
▁zählen	-10.0123
▁Ku	-10.0123
▁bestritt	-10.013
▁32	-10.0133
▁Transport	-10.0139
lang	-10.0142
▁Ke	-10.0145
▁geschlossen	-10.0147
lau	-10.0149
▁Blut	-10.0152
▁Fahrzeuge	-10.0155
▁früh	-10.0158
durchschnittlich	-10.0162
▁setzt	-10.0168
kreuz	-10.0171
bei	-10.0172
▁Island	-10.0173
▁obwohl	-10.0173
bad	-10.0182
forschung	-10.0184
▁Kategorie	-10.0185
▁geben	-10.0188
blatt	-10.019
netz	-10.0194
zy	-10.0195
▁Gar	-10.0195
▁Aufgabe	-10.0196
▁hinzu	-10.0205
▁Umwelt	-10.0211
wesen	-10.0212
27	-10.0213
Ab	-10.0221
▁Pfarrer	-10.0224
▁Objekte	-10.0229
▁Abitur	-10.0234
gl	-10.0237
▁nominiert	-10.0237
▁Bremen	-10.0237
▁Hessen	-10.0241
elle	-10.0244
▁Punkten	-10.0244
▁Vorgänger	-10.0244
▁versuchte	-10.0252
deutsch	-10.0254
▁Ber	-10.0254
▁Wahlkreis	-10.0257
kampf	-10.026
▁elf	-10.0266
▁Strom	-10.027
▁Medizin	-10.027
tter	-10.0271
oni	-10.0272
▁Eisen	-10.0272
▁Architekten	-10.0274
▁Parlament	-10.0278
▁neues	-10.0289
▁Linien	-10.029
▁Louis	-10.0296
▁Grand	-10.0296
!	-10.0302
▁Wegen	-10.0303
Lo	-10.0303
istischen	-10.0308
▁Regisseur	-10.0317
▁United	-10.0318
▁Zentimeter	-10.0318
▁Standort	-10.032
rot	-10.032
▁Alten	-10.0325
▁entspricht	-10.0326
▁verbreitet	-10.0335
▁Grenz	-10.0336
▁300	-10.0344
körper	-10.0344
tik	-10.0351
▁gezeigt	-10.0356
din	-10.0375
träger	-10.0376
▁wenigen	-10.0381
▁Fußballspieler	-10.0386
▁Air	-10.0392
ost	-10.0401
▁Gesetz	-10.0403
▁Original	-10.0406
▁standen	-10.0407
▁Erzbischof	-10.041
▁gehalten	-10.0415
▁begonnen	-10.0416
▁Aufbau	-10.0417
gon	-10.0418
▁Wieder	-10.0419
▁Fahr	-10.0421
▁Erd	-10.0427
con	-10.0428
▁Wechsel	-10.0429
▁gelegenen	-10.0434
kirchen	-10.044
bus	-10.0449
70	-10.045
▁Sowjetunion	-10.0455
▁breit	-10.0456
▁genannten	-10.0456
▁Cha	-10.0457
▁Glas	-10.0464
bauten	-10.0465
▁bestimmt	-10.0465
ong	-10.0465
▁Men	-10.0466
▁Düsseldorf	-10.0471
▁Mädchen	-10.0471
▁Distrikt	-10.0475
▁Lauf	-10.0476
26	-10.0491
▁Flughafen	-10.0503
▁geschrieben	-10.0506
▁junge	-10.0506
†	-10.0516
▁verlegt	-10.0518
▁Einführung	-10.0519
▁Pat	-10.052
44	-10.0521
▁Folgen	-10.0523
▁Regierungs	-10.0535
ris	-10.0536
▁Teilnehmer	-10.0536
38	-10.0537
kopf	-10.0537
pro	-10.0537
▁Wirtschaft	-10.0541
▁zeigte	-10.0543
▁War	-10.0553
politik	-10.0553
minister	-10.0554
▁Ski	-10.0556
beck	-10.0563
▁Rückkehr	-10.0563
▁Berufs	-10.0563
▁Person	-10.0567
▁Vaters	-10.057
▁van	-10.0571
▁Gründen	-10.0575
fabrik	-10.0587
▁wichtigsten	-10.0589
▁außer	-10.0592
▁Ufer	-10.0594
häuser	-10.0597
ity	-10.0599
wechsel	-10.0602
▁Kindern	-10.0603
▁Schulen	-10.0614
scher	-10.0615
Aus	-10.0616
▁Herz	-10.0618
▁Weltkrieges	-10.062
ip	-10.0622
cha	-10.0624
▁allein	-10.0628
▁Royal	-10.0633
▁Sänger	-10.0639
▁Australien	-10.0643
▁entsprechend	-10.0645
▁Tom	-10.0648
▁Ob	-10.065
36	-10.0654
▁Augen	-10.0664
▁gegründeten	-10.0669
▁150	-10.0674
▁aufgestellt	-10.0682
▁Stahl	-10.0683
▁Hinter	-10.0684
▁<	-10.0685
▁älteste	-10.0688
ā	-10.0689
▁halten	-10.069
▁90	-10.0693
horn	-10.0695
▁vierten	-10.0698
▁1913	-10.0699
▁Häuser	-10.07
▁Hu	-10.0704
22	-10.072
dis	-10.0723
▁Rest	-10.0724
flächen	-10.0726
▁Ö	-10.0743
reform	-10.0751
▁Hor	-10.0753
om	-10.0755
▁Hektar	-10.076
▁genau	-10.0767
▁Tradition	-10.0774
▁Öffentlichkeit	-10.0775
▁Schiffe	-10.0779
▁Schön	-10.0785
▁Autoren	-10.0791
▁Moskau	-10.0804
▁stellvertretend	-10.0805
▁Villa	-10.081
▁linken	-10.0814
▁erscheint	-10.0814
>	-10.0815
▁Musiker	-10.0816
▁Kritik	-10.0817
▁Konzert	-10.0826
garten	-10.0829
▁vorgesehen	-10.0835
▁Söhne	-10.0837
▁Besuch	-10.0844
▁SPD	-10.0849
▁Bezirks	-10.0849
ula	-10.0854
▁Müller	-10.0863
▁Durchmesser	-10.0868
▁per	-10.0878
▁IV	-10.0884
▁Adolf	-10.0898
▁bekannten	-10.091
tion	-10.091
▁besaß	-10.0912
▁nahmen	-10.0921
qui	-10.0924
▁Revolution	-10.0925
leistung	-10.0927
99	-10.0928
kunst	-10.093
▁übertragen	-10.0931
pol	-10.0932
▁wodurch	-10.0935
▁vertrat	-10.0936
ord	-10.0937
▁Prozess	-10.0939
▁zuerst	-10.0943
▁bekannte	-10.0944
▁ausgestattet	-10.095
▁Brandenburg	-10.095
sta	-10.0957
▁arbeiten	-10.0958
▁gewonnen	-10.0959
oder	-10.0959
ella	-10.0961
ther	-10.0961
low	-10.0966
bruch	-10.0972
öl	-10.0972
rin	-10.0976
▁Neubau	-10.0977
▁wesentlich	-10.0978
▁abgeschlossen	-10.0978
pen	-10.0982
etz	-10.0982
werke	-10.0982
ez	-10.0984
▁Bezug	-10.0984
▁oberen	-10.0988
▁Weiteren	-10.0998
gesetz	-10.1008
industrie	-10.101
▁Präsidenten	-10.1012
liga	-10.1017
theater	-10.1017
arm	-10.1019
lingen	-10.102
ai	-10.1024
▁kleiner	-10.1028
schau	-10.1029
▁getrennt	-10.1029
▁ganze	-10.1032
▁abge	-10.1033
▁nehmen	-10.104
77	-10.1042
höhe	-10.1046
▁Gericht	-10.1048
▁Station	-10.1048
ide	-10.1049
▁Eigen	-10.1049
tisch	-10.1051
ations	-10.1067
klasse	-10.1071
▁Kammer	-10.1082
ran	-10.1083
▁Trotz	-10.1088
▁Liebe	-10.1089
lü	-10.1091
▁kurze	-10.1095
▁1911	-10.1096
mont	-10.1097
▁Com	-10.1106
▁Chef	-10.1108
▁Gegner	-10.1109
▁Länder	-10.1109
grund	-10.1112
▁ehe	-10.1113
▁1000	-10.1113
▁Gott	-10.1115
▁Preußen	-10.1121
▁Kanada	-10.1124
▁mittels	-10.1125
gau	-10.1126
handel	-10.1132
▁Van	-10.1132
cker	-10.1133
▁angelegt	-10.114
▁schied	-10.1149
▁45	-10.115
▁verurteilt	-10.1152
isiert	-10.1156
▁betrachtet	-10.1158
züge	-10.1167
▁Ortes	-10.1177
75	-10.1192
▁Fe	-10.1194
▁ebenda	-10.1204
▁Jakob	-10.1207
▁Partner	-10.1208
▁Stellung	-10.1212
runde	-10.1225
▁400	-10.1229
▁Kra	-10.123
haft	-10.1232
El	-10.1233
▁Del	-10.1237
ssen	-10.1238
▁Öl	-10.124
▁Bundesliga	-10.1242
Pro	-10.1242
licht	-10.1245
kultur	-10.1253
mark	-10.1255
▁1905	-10.1267
▁erhielten	-10.1268
graben	-10.1268
sprache	-10.1269
32	-10.1271
rück	-10.1272
▁Ei	-10.1274
serie	-10.1276
▁Gymnasium	-10.1279
▁Records	-10.1279
▁Freund	-10.128
▁Sicht	-10.1281
▁Mont	-10.1281
mat	-10.1286
▁tragen	-10.1287
san	-10.1288
▁Is	-10.1288
▁Kiel	-10.1291
▁Metall	-10.1293
▁Anwendung	-10.1302
gt	-10.1306
▁belegt	-10.1306
ps	-10.1308
eb	-10.1311
▁Gen	-10.1316
▁Fakultät	-10.1321
nahme	-10.1322
▁Festival	-10.1332
▁1917	-10.1336
▁römisch	-10.1339
▁deutsch	-10.1341
▁Bilder	-10.1344
▁Untersuchung	-10.135
name	-10.1355
gas	-10.1366
▁weiteres	-10.1375
▁beste	-10.1376
▁Kongress	-10.1382
▁geschaffen	-10.1383
van	-10.1385
West	-10.1389
▁Internet	-10.139
▁Wenn	-10.1393
▁Heim	-10.1404
▁angegeben	-10.1404
las	-10.1406
▁zugeordnet	-10.1409
als	-10.1409
ete	-10.1413
▁Min	-10.1414
▁links	-10.1421
av	-10.1422
ting	-10.1426
▁Netz	-10.1428
▁Inter	-10.1429
▁Presse	-10.1429
▁bestimmte	-10.1429
▁Andreas	-10.1431
▁Wand	-10.1447
37	-10.1447
▁Za	-10.1453
vers	-10.1454
▁Fritz	-10.1455
46	-10.1457
har	-10.1459
▁kg	-10.1459
▁Maschinen	-10.1468
▁Sprach	-10.147
ate	-10.1473
▁1908	-10.1475
č	-10.1476
ts	-10.1477
▁völlig	-10.1486
▁zweimal	-10.1491
wahl	-10.15
▁aufgeführt	-10.1501
projekt	-10.1529
▁Halb	-10.153
▁erstreckt	-10.1533
dar	-10.1533
▁öffentliche	-10.1534
▁Vo	-10.1535
bra	-10.1537
ō	-10.1537
nes	-10.1538
88	-10.1538
gehen	-10.1538
▁Zeichen	-10.1542
mühle	-10.1544
▁Daniel	-10.1545
▁1907	-10.156
47	-10.1561
▁stellen	-10.1563
▁fließt	-10.157
▁historische	-10.1571
▁Afrika	-10.1573
pass	-10.1574
▁mündet	-10.1575
▁Ag	-10.1576
▁südwestlich	-10.1576
bin	-10.1581
▁Br	-10.159
▁östlichen	-10.1591
▁Wall	-10.1591
▁Ungarn	-10.1592
jahr	-10.1594
▁Bronze	-10.1595
▁Ra	-10.1601
anstalt	-10.1603
▁werde	-10.1605
▁Bewohner	-10.1608
lose	-10.1609
titel	-10.1614
▁Renn	-10.1615
▁Kol	-10.1615
stoff	-10.162
55	-10.1621
▁Heidelberg	-10.1624
enstein	-10.1635
▁Lieder	-10.1636
ara	-10.1638
kommen	-10.164
▁Mac	-10.1641
78	-10.1648
▁namens	-10.165
▁Hotel	-10.1651
▁gelten	-10.1654
▁bestimmten	-10.1654
▁traf	-10.1655
▁Sieger	-10.1657
▁bleiben	-10.1662
▁Don	-10.1668
▁südöstlich	-10.1671
cht	-10.1677
▁erklärte	-10.1677
▁Teilen	-10.1679
▁besitzen	-10.1679
deutschen	-10.1685
▁rechten	-10.1686
▁benutzt	-10.1686
▁verfasste	-10.1688
▁Zustand	-10.1691
▁Ju	-10.1693
▁Alfred	-10.1693
▁versehen	-10.1696
geschäft	-10.1697
▁EU	-10.1697
witz	-10.1698
▁dienen	-10.1701
▁Herstellung	-10.1703
▁erinnert	-10.1704
74	-10.1705
▁Ausnahme	-10.1706
▁Junioren	-10.1707
▁angesehen	-10.1707
weise	-10.171
▁Europäischen	-10.1713
▁Ebene	-10.1717
▁Architektur	-10.1718
▁Bu	-10.172
Kreis	-10.1721
row	-10.1722
▁Salz	-10.1723
500	-10.173
▁Technik	-10.1734
ku	-10.1735
Co	-10.1739
abteilung	-10.1745
elli	-10.1746
▁Hamburger	-10.1749
_2	-10.1752
ata	-10.1753
ging	-10.1754
▁blieben	-10.1755
▁Angriff	-10.1755
▁Erb	-10.1755
▁Tat	-10.1756
only	-10.1757
Film	-10.1758
▁Tages	-10.176
▁Geschäfts	-10.1765
ör	-10.177
▁Debüt	-10.1774
▁Schwerpunkt	-10.1774
ding	-10.1775
▁jede	-10.1778
▁Auflösung	-10.1778
33	-10.1785
▁Pre	-10.1787
▁Wettbewerb	-10.1791
not	-10.1796
▁Herkunft	-10.18
▁Angeles	-10.1802
▁errichtete	-10.1802
direktor	-10.1804
Sieg	-10.1806
▁stets	-10.1818
▁französischer	-10.1822
▁Red	-10.1825
reihe	-10.1829
▁jüdischen	-10.1837
gemeinde	-10.1841
▁Gre	-10.1842
▁Weiter	-10.1843
fo	-10.1852
bu	-10.1859
hilfe	-10.1863
▁Ferdinand	-10.1867
▁landwirtschaft	-10.1869
musik	-10.1872
Jahren	-10.1876
stätte	-10.1876
▁Ruf	-10.1878
▁besondere	-10.1879
▁erhoben	-10.188
kapelle	-10.1883
System	-10.1886
▁1906	-10.1891
organisation	-10.1892
>*	-10.1895
▁nordwestlich	-10.1897
one	-10.1902
▁Israel	-10.1908
cy	-10.1911
▁Fernsehen	-10.1913
98	-10.1919
▁Ch	-10.192
Band	-10.1922
cho	-10.1924
▁parallel	-10.1936
▁Mehrheit	-10.1936
include	-10.1943
▁Konzept	-10.1945
▁nordöstlich	-10.1951
Ta	-10.1951
▁We	-10.1963
▁grenzt	-10.1976
station	-10.1978
▁Elisabeth	-10.198
▁daran	-10.1981
Gruppe	-10.1998
▁Schauspielerin	-10.1999
▁Gustav	-10.2
ita	-10.2003
Land	-10.2005
▁aufgebaut	-10.2006
▁Company	-10.2015
95	-10.2019
▁bleibt	-10.2023
▁Panzer	-10.2025
65	-10.203
▁°	-10.2032
▁entschied	-10.2033
ministerium	-10.2038
▁Formel	-10.2038
▁Klima	-10.2041
▁State	-10.2044
▁einfach	-10.2048
▁Bay	-10.2052
▁Mat	-10.2061
tier	-10.2063
▁Spitze	-10.2069
86	-10.2071
▁Probleme	-10.2076
▁Strecken	-10.2078
▁Pass	-10.2079
▁Ball	-10.2082
▁schuf	-10.2084
▁Sprachen	-10.209
gan	-10.2093
Vi	-10.2099
▁vorher	-10.21
▁Informationen	-10.2101
87	-10.2102
Württemberg	-10.2105
off	-10.2107
geschwindigkeit	-10.211
▁En	-10.2111
▁Fisch	-10.2111
▁Mag	-10.2111
Westfalen	-10.2113
▁Dadurch	-10.2116
gu	-10.2121
▁bringen	-10.2122
ug	-10.2122
▁Altar	-10.2128
öll	-10.2134
94	-10.2137
79	-10.2137
▁Theologie	-10.2137
▁Straf	-10.2137
eth	-10.2138
▁Brüder	-10.2139
▁Besitzer	-10.2145
lat	-10.2145
▁Klavier	-10.2146
▁Bewegung	-10.2151
setzt	-10.2152
enz	-10.2153
gg	-10.2158
▁Kor	-10.2164
▁Freiburg	-10.2166
▁Hockey	-10.2171
▁Erde	-10.2173
▁hält	-10.2173
▁Nachfolge	-10.2174
els	-10.2174
reise	-10.2175
Stadt	-10.2177
▁Klaus	-10.2178
ney	-10.2183
ı	-10.2186
▁Au	-10.2189
▁Cor	-10.219
are	-10.219
mäßig	-10.2192
▁Formen	-10.2193
▁erkennen	-10.2195
▁Werner	-10.2195
▁My	-10.2201
▁Figuren	-10.2209
▁Bildungs	-10.2214
He	-10.2219
ator	-10.2219
▁Gründer	-10.2219
vin	-10.222
car	-10.2221
▁verstarb	-10.2221
▁Standard	-10.2222
setzung	-10.2231
▁Situation	-10.2235
Am	-10.2235
Preis	-10.2239
▁Fo	-10.2248
▁Bill	-10.2249
▁Video	-10.2251
▁Teilnahme	-10.2254
▁katholischen	-10.2255
▁befördert	-10.2259
strom	-10.2265
strecke	-10.2268
▁Arrondissement	-10.2271
▁nahezu	-10.2273
ru	-10.2274
▁Rund	-10.2276
ré	-10.2292
Me	-10.2293
istische	-10.2297
▁Ed	-10.2298
▁South	-10.2307
▁Blatt	-10.2309
▁seitdem	-10.2312
berger	-10.2312
Süd	-10.2312
▁Mittelalter	-10.2315
▁Amts	-10.2316
▁würden	-10.2316
ins	-10.2317
▁komplett	-10.2318
▁Landtag	-10.2321
▁Versuch	-10.2322
▁bezeichnete	-10.2325
▁Paar	-10.233
▁Vorbild	-10.2333
▁Gemeindegebiet	-10.2336
hen	-10.2338
ans	-10.2339
cke	-10.2339
▁zuständig	-10.2343
▁Denkmal	-10.2349
flügel	-10.2351
ep	-10.2353
illa	-10.2359
▁mittlerweile	-10.2361
▁kleinere	-10.2364
ama	-10.2365
Auf	-10.2366
▁Güter	-10.2366
▁verkaufte	-10.2367
Institut	-10.2377
▁unterhalb	-10.2386
▁Laufbahn	-10.2394
▁1909	-10.2398
Ma	-10.2398
▁Besatzung	-10.24
▁NS	-10.2402
▁Ak	-10.2408
▁verbrachte	-10.2413
▁Tode	-10.242
säure	-10.2422
▁polnischen	-10.2422
▁jetzt	-10.2423
▁berichtet	-10.2425
bewegung	-10.2426
▁gegründete	-10.2429
=	-10.2431
legen	-10.2431
▁Ordnung	-10.2435
▁fertiggestellt	-10.2435
baum	-10.2439
stück	-10.2439
ial	-10.2446
▁SS	-10.2446
ew	-10.2452
▁North	-10.2455
zel	-10.2457
▁Wil	-10.2458
76	-10.2459
▁Hintergrund	-10.2463
▁Mad	-10.2464
▁weiß	-10.2466
▁Prag	-10.2468
frei	-10.2468
Serie	-10.247
▁Fern	-10.247
schnitt	-10.2472
54	-10.2476
Ober	-10.2476
▁Abs	-10.2477
▁Millimeter	-10.2482
▁Flugzeug	-10.2484
▁Stern	-10.2493
lar	-10.2494
▁Essen	-10.2495
▁«	-10.2496
▁1904	-10.2503
▁römischen	-10.2508
▁besser	-10.2509
▁Leistungen	-10.2509
▁Arzt	-10.251
▁besetzt	-10.2513
▁1915	-10.2514
ning	-10.2515
bare	-10.2515
▁entweder	-10.2516
Ö	-10.2518
▁Zuschauer	-10.252
▁Abend	-10.2522
▁Fahrer	-10.2532
▁Brief	-10.2533
▁preußischen	-10.2534
last	-10.2538
▁Indien	-10.2545
▁Gemälde	-10.2546
▁Zugang	-10.2548
▁Besetzung	-10.2551
▁Bel	-10.256
▁Henry	-10.2563
▁Braunschweig	-10.2564
ea	-10.2565
▁Bord	-10.2578
▁Tr	-10.2583
▁nationalen	-10.2584
▁Sicherheits	-10.2585
▁Hersteller	-10.2596
▁Bühnen	-10.2596
scheid	-10.2601
bro	-10.2602
▁Grafschaft	-10.2603
▁PS	-10.2605
▁baute	-10.2627
▁Mexiko	-10.2629
▁einge	-10.2629
▁Landschafts	-10.263
▁Rechte	-10.2633
Ch	-10.2638
▁ausge	-10.2642
ive	-10.2647
bot	-10.2653
▁Ergebnisse	-10.2653
bund	-10.2655
▁übrigen	-10.2656
57	-10.2657
▁Einheit	-10.2663
zahlen	-10.2665
▁tritt	-10.2665
▁jedem	-10.2668
▁umfasste	-10.267
▁Produktions	-10.2684
▁Donau	-10.2685
▁Streit	-10.2687
▁Music	-10.2689
Sp	-10.2692
▁Mess	-10.2694
▁Struktur	-10.2694
▁modernen	-10.2698
Jahre	-10.2708
▁ungefähr	-10.271
▁Bra	-10.271
▁gesetzt	-10.271
nde	-10.2715
▁Tra	-10.2718
Na	-10.272
krieg	-10.2724
fahren	-10.2724
way	-10.2726
▁Christoph	-10.2727
▁Einwohnerzahl	-10.2729
Di	-10.2732
wissenschaftler	-10.2733
▁Pol	-10.2733
▁Auseinandersetz	-10.2734
hang	-10.2736
▁Unabhängigkeit	-10.2737
▁kennen	-10.2738
▁geplant	-10.2739
▁Inseln	-10.2739
tat	-10.2742
▁Bundesstaat	-10.2744
▁Zi	-10.2753
▁Qualifikation	-10.2754
▁Nor	-10.2756
?	-10.2759
91	-10.2761
▁Widerstand	-10.2762
mb	-10.2767
spe	-10.2769
halten	-10.2771
▁Chemie	-10.2772
▁Ordens	-10.2777
ky	-10.278
nom	-10.278
▁Satz	-10.2782
rich	-10.2783
▁Voll	-10.2787
hin	-10.2789
▁Fürsten	-10.2794
▁SC	-10.2806
ib	-10.2807
▁Zunächst	-10.2808
▁gelegene	-10.2809
▁Fischer	-10.2809
▁Pfarrkirche	-10.2812
▁Gegend	-10.2815
▁Grün	-10.2817
▁spielten	-10.2819
sheim	-10.2824
▁Films	-10.2826
modell	-10.283
▁vorwiegend	-10.283
▁klar	-10.2838
thal	-10.2839
stedt	-10.2842
voll	-10.2843
nie	-10.2844
acht	-10.2844
Li	-10.2845
▁begrenzt	-10.285
43	-10.2852
▁Internationalen	-10.2855
▁Verhältnis	-10.2857
▁Entscheidung	-10.2863
59	-10.2863
▁TV	-10.2865
▁Wolf	-10.2866
▁Mio	-10.2869
▁Wo	-10.2869
wer	-10.2877
eln	-10.2878
▁gestaltet	-10.288
▁jedes	-10.288
▁Port	-10.2881
▁Nürnberg	-10.2882
▁Simon	-10.2884
39	-10.2885
Straße	-10.2891
▁1916	-10.2892
▁Ol	-10.2896
▁Teams	-10.2906
34	-10.2907
▁Prä	-10.2915
▁Ausland	-10.2917
▁Theodor	-10.2922
old	-10.2922
▁Bus	-10.2925
▁einzelne	-10.2927
▁Zweck	-10.2929
▁Parteien	-10.2932
▁wir	-10.2934
▁eigentlich	-10.2935
▁Städten	-10.2938
▁Historiker	-10.2938
ball	-10.2946
▁hätten	-10.2949
arbeiter	-10.2952
länge	-10.2952
▁Priester	-10.2957
▁Beziehungen	-10.2957
▁Grad	-10.2959
port	-10.296
▁geriet	-10.2963
▁Society	-10.2963
▁ermöglicht	-10.2971
Pa	-10.2974
29	-10.2974
▁Gleichzeitig	-10.2975
92	-10.2976
▁ursprünglichen	-10.2978
▁Ass	-10.2979
Ri	-10.2986
▁Blüten	-10.2987
▁halb	-10.2992
▁Ausgabe	-10.2995
mus	-10.2997
struktur	-10.2997
qua	-10.2997
str	-10.2999
▁Eu	-10.3
97	-10.3003
▁dortigen	-10.3003
▁allgemein	-10.3004
▁Daher	-10.3008
▁Ausstellung	-10.3008
▁japanischen	-10.3008
▁Gewinn	-10.3013
▁Vogel	-10.3015
ska	-10.3015
án	-10.3019
▁Dis	-10.3019
▁bislang	-10.3019
richter	-10.302
produktion	-10.3021
▁abzu	-10.3025
tar	-10.3025
▁Nummer	-10.3026
▁Einrichtung	-10.3037
▁Amtszeit	-10.3041
▁Tempel	-10.3042
▁House	-10.3046
▁Mc	-10.3047
wettbewerb	-10.3049
▁eröffnete	-10.3051
▁gelegentlich	-10.3056
▁Interessen	-10.3057
hand	-10.3058
▁Autobahn	-10.3061
▁späten	-10.3067
▁älteren	-10.307
▁Alpen	-10.307
89	-10.3074
▁Live	-10.3075
▁Kalifornien	-10.3077
typ	-10.3078
▁gute	-10.3078
▁1903	-10.3083
setzen	-10.3084
▁Schluss	-10.3086
schutzgebiet	-10.3087
Klasse	-10.309
ě	-10.3091
▁verpflichtet	-10.3093
▁1890	-10.3098
ges	-10.3098
▁erhält	-10.3098
vel	-10.3099
41	-10.3101
▁einzigen	-10.3104
▁Gebiete	-10.3104
Neu	-10.3106
▁Behandlung	-10.311
▁Erfolge	-10.311
▁urkundlich	-10.3112
▁tatsächlich	-10.3117
▁Komponist	-10.3122
zo	-10.3126
84	-10.3127
▁Massen	-10.3134
mut	-10.3138
▁Handel	-10.3145
verfahren	-10.3152
96	-10.3158
▁zählte	-10.3161
macht	-10.3163
▁spricht	-10.3168
▁Ausdruck	-10.3171
▁×	-10.3171
räume	-10.3172
85	-10.3177
▁33	-10.3179
▁Hart	-10.3182
▁Mauer	-10.3185
▁Cal	-10.3188
▁Jagd	-10.3192
enbach	-10.3194
▁Test	-10.3195
▁verschiedener	-10.3195
▁Freiheit	-10.3198
▁Wer	-10.3203
ž	-10.3204
ada	-10.3204
▁auszu	-10.3207
▁Gewalt	-10.3208
▁Volk	-10.3211
▁Marien	-10.3212
▁Star	-10.3215
▁Lehre	-10.3215
losen	-10.3216
▁Weiß	-10.3219
▁Dar	-10.3219
ppen	-10.3222
licher	-10.3222
herr	-10.3225
▁Ä	-10.3226
par	-10.3226
▁Gau	-10.3229
▁Mur	-10.323
31	-10.3234
▁Ebenfalls	-10.3235
▁Sankt	-10.3239
▁Naturschutz	-10.3242
ick	-10.3242
▁Halbfinale	-10.3243
▁Förderung	-10.3245
tischen	-10.3246
▁Beziehung	-10.3252
▁Bio	-10.3254
▁Bal	-10.3256
▁Rundfunk	-10.3259
▁Em	-10.3259
gewicht	-10.3263
▁entlassen	-10.3264
▁gesehen	-10.3264
▁vergeben	-10.3264
▁gemeinsame	-10.3269
win	-10.3277
▁Beruf	-10.3278
▁Tagen	-10.328
▁zweiter	-10.328
▁ausgeführt	-10.3281
hart	-10.3287
qu	-10.3292
▁Dichter	-10.3295
▁Zeitraum	-10.3306
▁Bildhauer	-10.3306
▁Pferde	-10.3306
▁Forst	-10.3307
tic	-10.3312
stern	-10.3319
▁gemeinsamen	-10.3319
▁Flucht	-10.3321
▁Krankenhaus	-10.3322
▁Tonnen	-10.3322
▁Para	-10.3322
▁Studio	-10.3324
▁Pflege	-10.3324
▁1902	-10.3325
statt	-10.3325
▁Sub	-10.3327
▁65	-10.3337
▁Figur	-10.3337
▁WM	-10.3342
▁Museums	-10.3343
▁lernte	-10.3343
▁bestätigt	-10.3346
▁Daraufhin	-10.3356
▁Tanz	-10.3359
▁Orchester	-10.3361
folge	-10.3361
▁starke	-10.3363
eng	-10.3363
▁schlug	-10.3366
mas	-10.3374
▁Basel	-10.3378
▁definiert	-10.3383
▁Ausbau	-10.3385
my	-10.3386
Holstein	-10.3394
dan	-10.3399
▁Marie	-10.3401
▁beschreibt	-10.3404
post	-10.3405
ary	-10.3406
schicht	-10.3407
▁Tre	-10.3412
▁Hal	-10.3413
04	-10.3419
▁beziehungsweise	-10.3428
93	-10.3428
spiele	-10.3429
grad	-10.343
▁Filme	-10.343
▁Pf	-10.3431
tur	-10.3432
▁damalige	-10.3437
entwicklung	-10.3443
q	-10.3444
05	-10.3446
▁Ingenieur	-10.3446
▁Heer	-10.3447
▁löste	-10.3449
▁Auswahl	-10.3451
▁unterscheiden	-10.3455
▁spanischen	-10.3457
ram	-10.3462
▁Breite	-10.3463
▁Assistent	-10.3464
▁Chicago	-10.3472
Mar	-10.348
▁erlangte	-10.348
ria	-10.3483
bas	-10.3484
▁Hohen	-10.3484
▁Tro	-10.3486
ill	-10.3487
▁Bibliothek	-10.3487
fort	-10.3489
▁CD	-10.3489
▁Höhen	-10.3496
▁Küsten	-10.3496
▁international	-10.3496
▁Verfassung	-10.3498
sson	-10.3499
▁Char	-10.35
▁ausgebaut	-10.3501
▁kurzen	-10.3501
▁Kamera	-10.3505
▁reicht	-10.3508
wirtschaftlichen	-10.3512
▁unbe	-10.3512
▁behandelt	-10.3513
▁Mitgliedern	-10.3516
▁Bestandteil	-10.3519
▁Vereinigung	-10.3521
fahr	-10.3521
bogen	-10.3523
▁Rheinland	-10.3523
▁öffentlich	-10.353
▁Fragen	-10.353
▁umgeben	-10.3531
ebene	-10.3534
iden	-10.3537
▁Pop	-10.3542
hl	-10.3542
▁Küste	-10.3543
familie	-10.3548
field	-10.3548
▁Großteil	-10.3551
▁Matt	-10.3558
66	-10.3564
▁Deutschlands	-10.3566
▁Untersuchungen	-10.3571
österreichischer	-10.358
einheit	-10.3584
▁Einheiten	-10.3585
prä	-10.3587
▁Sach	-10.3591
jan	-10.3592
▁geweiht	-10.3594
▁Eck	-10.3597
▁Morgen	-10.3599
▁Gottes	-10.3604
fried	-10.3606
▁Kommission	-10.3606
▁1901	-10.3613
▁Lake	-10.3615
▁Weibchen	-10.3615
▁Kurt	-10.3615
AS	-10.3619
ative	-10.3619
sort	-10.362
▁begannen	-10.3622
hol	-10.3622
sburg	-10.3624
42	-10.3625
▁Ci	-10.363
erei	-10.3634
▁36	-10.3634
▁Wa	-10.3635
dig	-10.3636
▁Dann	-10.3638
pu	-10.3639
▁Profi	-10.3644
▁hoher	-10.3646
Or	-10.3647
dor	-10.3652
▁erworben	-10.3656
▁Verbreitung	-10.3661
▁Schiffs	-10.3669
▁Initiative	-10.3673
▁Dänemark	-10.3673
83	-10.3674
▁unabhängig	-10.3677
▁griechischen	-10.3678
partei	-10.3679
▁Han	-10.3679
zeichen	-10.3683
▁versetzt	-10.3686
▁starken	-10.3686
▁Gipfel	-10.369
▁Sender	-10.369
tische	-10.3692
▁Nu	-10.3693
rit	-10.3696
51	-10.3697
▁erzählt	-10.3698
nt	-10.3701
▁1880	-10.3711
▁Wissenschaft	-10.3712
▁High	-10.3719
▁CDU	-10.372
richtung	-10.3721
▁Black	-10.3723
▁Verband	-10.3725
▁nannte	-10.3726
ras	-10.3726
ón	-10.3729
tiv	-10.3731
▁Institute	-10.3737
▁vorbei	-10.3739
dach	-10.3741
▁fuhr	-10.3742
▁Haut	-10.3743
▁deutschsprachig	-10.3754
▁Pra	-10.3757
▁Aber	-10.3759
▁Etwa	-10.3766
fl	-10.3776
▁Hilfs	-10.3777
63	-10.378
Vor	-10.3785
▁Trans	-10.3786
bon	-10.3788
sam	-10.3795
▁Stand	-10.3796
erin	-10.3798
▁Les	-10.3798
▁Bernhard	-10.3798
▁1848	-10.3799
motor	-10.38
▁wollen	-10.3804
▁teils	-10.3804
▁voll	-10.3805
▁1899	-10.3808
▁Hill	-10.3816
▁Brasilien	-10.3819
▁Sonnen	-10.3819
theorie	-10.3819
▁Fabrik	-10.382
▁Ul	-10.3824
ersdorf	-10.3824
▁Farb	-10.3825
neu	-10.3826
▁Cu	-10.3827
▁Abgeordneter	-10.3828
▁angenommen	-10.3828
▁Errichtung	-10.3828
▁Bundesrepublik	-10.3832
teile	-10.384
gleich	-10.3841
▁Label	-10.3846
pan	-10.3847
born	-10.3848
▁könne	-10.385
▁promovierte	-10.385
▁Kal	-10.3851
nummer	-10.3858
grün	-10.3858
▁Amateur	-10.386
▁Quelle	-10.386
67	-10.386
tt	-10.3866
All	-10.3867
▁Besucher	-10.3869
spor	-10.3871
ath	-10.3874
▁umgebaut	-10.3877
auer	-10.3878
anz	-10.3882
48	-10.3882
▁Santa	-10.3885
ahn	-10.3891
▁Mainz	-10.3894
▁1870	-10.3895
ī	-10.3898
▁unten	-10.3899
_1	-10.3899
▁1898	-10.3907
▁Pfarrei	-10.3915
▁ältesten	-10.3917
ł	-10.392
lis	-10.3926
idae	-10.3929
▁Angebot	-10.3932
▁Gerichts	-10.3932
out	-10.3933
▁Problem	-10.3938
Nachbargemeinden	-10.3939
log	-10.3941
▁Computer	-10.3941
58	-10.3944
▁verteilt	-10.3957
▁leitet	-10.3958
▁endgültig	-10.3962
eine	-10.3962
▁Idee	-10.3965
▁integriert	-10.3966
dal	-10.3972
▁Status	-10.3973
part	-10.3976
kin	-10.3978
53	-10.3983
▁hieß	-10.3987
▁Kauf	-10.3989
schul	-10.399
+	-10.3994
laden	-10.4001
▁Elemente	-10.4005
▁Züge	-10.4006
▁Pr	-10.4007
▁Portugal	-10.4008
▁SV	-10.4011
81	-10.4011
staat	-10.4013
saal	-10.4014
cia	-10.4015
▁getötet	-10.402
▁schaffte	-10.4022
az	-10.4025
▁Innen	-10.4029
▁Fällen	-10.4032
▁nennt	-10.4032
▁entgegen	-10.4035
▁Roten	-10.4037
▁Ersatz	-10.4048
Po	-10.4052
of	-10.4053
▁schweren	-10.4067
▁Oper	-10.4069
ura	-10.4072
nau	-10.4072
▁Wissenschaften	-10.4075
museum	-10.4077
▁Monaten	-10.4081
anten	-10.4086
▁For	-10.4087
▁Personal	-10.4091
▁Texte	-10.4092
lon	-10.4092
▁Dor	-10.4095
Wi	-10.4097
▁ange	-10.4101
▁Rücken	-10.4102
▁Patienten	-10.4113
ero	-10.4115
ø	-10.4117
▁Erste	-10.4117
▁festgelegt	-10.4118
▁näher	-10.4118
▁Gouverneur	-10.4119
▁Hügel	-10.412
ios	-10.4123
rennen	-10.413
64	-10.4134
°	-10.4142
▁1850	-10.4143
▁gekommen	-10.4146
▁Schriften	-10.4148
tet	-10.4153
▁verstärkt	-10.4153
ationen	-10.4153
▁überliefert	-10.4154
top	-10.4157
▁Kontrolle	-10.4163
szeit	-10.4165
Ne	-10.4165
Bi	-10.4167
▁zeitweise	-10.4168
▁Gestaltung	-10.4174
▁miteinander	-10.4178
Gesellschaft	-10.4179
ros	-10.4182
bibliothek	-10.4193
▁nächste	-10.4193
gal	-10.4198
▁Weltcup	-10.4199
▁Belgien	-10.4202
▁ausgebildet	-10.4205
▁nichts	-10.4207
▁Arm	-10.4213
lle	-10.4215
Sa	-10.4218
▁Flächen	-10.4225
▁Solo	-10.4227
▁Association	-10.4228
▁fällt	-10.4229
teilen	-10.423
▁Praxis	-10.4233
▁entsteht	-10.4233
▁Leit	-10.4235
▁Aufnahmen	-10.4237
ú	-10.4243
material	-10.4251
▁verbindet	-10.4254
▁Kunden	-10.4257
▁Erweiterung	-10.4259
▁120	-10.4262
fälle	-10.4263
▁Türkei	-10.4265
▁Stra	-10.4265
barkeit	-10.4269
gasse	-10.427
▁Ya	-10.4277
▁Friedens	-10.4282
ban	-10.4283
▁Klub	-10.4289
▁möglicherweise	-10.4289
▁Academy	-10.429
lagen	-10.4293
Zeit	-10.4294
▁Firmen	-10.4295
Con	-10.4297
▁Meinung	-10.4302
▁Horn	-10.4303
unterricht	-10.4304
ona	-10.4313
lehrer	-10.4317
▁Volkszählung	-10.4318
dia	-10.4319
ast	-10.4319
ala	-10.432
▁darf	-10.4321
well	-10.4321
haltung	-10.4321
▁Schleswig	-10.4322
▁Mord	-10.4328
▁34	-10.4329
fern	-10.4333
▁Koch	-10.4335
Kon	-10.4336
▁Gemeinschaft	-10.4337
▁Serien	-10.434
maß	-10.4345
▁Sturm	-10.435
▁existiert	-10.4351
lös	-10.436
▁eigenes	-10.4364
▁Theorie	-10.4365
▁Kommando	-10.4365
▁anfangs	-10.4366
▁Wetter	-10.4367
llen	-10.4373
rei	-10.4374
tage	-10.4375
▁Kriegsende	-10.4383
▁Cap	-10.4384
▁außen	-10.4386
▁spätere	-10.4387
▁höher	-10.4387
siedlung	-10.4391
▁Blick	-10.4392
▁mittleren	-10.4394
▁endet	-10.4396
SV	-10.4397
Ost	-10.44
▁Königin	-10.4402
▁ernannte	-10.4405
▁Rein	-10.4407
tte	-10.4409
▁1895	-10.4411
gänge	-10.4418
▁bot	-10.4419
▁widmete	-10.442
▁Gal	-10.4421
▁Nordrhein	-10.4433
▁eigenständige	-10.4434
▁Ph	-10.4435
liste	-10.4436
▁errichten	-10.4443
▁Sar	-10.4444
af	-10.4444
kom	-10.4446
Meter	-10.445
▁Graz	-10.4454
▁Kino	-10.4456
einander	-10.4461
▁sprach	-10.4463
▁Jung	-10.4464
▁Schauspiel	-10.447
▁Salzburg	-10.4473
▁Landschaft	-10.4475
69	-10.448
spitze	-10.4487
pper	-10.4489
ng	-10.4489
▁Eduard	-10.4491
Ko	-10.4491
ev	-10.4492
▁verhindern	-10.4493
▁Neuen	-10.4494
▁Mineral	-10.4495
▁versch	-10.4497
▁Entwurf	-10.4499
01	-10.4501
▁mehrerer	-10.4503
▁Jacob	-10.4505
▁Alb	-10.4505
▁ganzen	-10.4508
▁Bayerischen	-10.4512
▁Glocken	-10.4512
▁feierte	-10.4513
IS	-10.4514
09	-10.4515
▁Zusätzlich	-10.4518
▁zugänglich	-10.4518
▁Träger	-10.452
schw	-10.4523
farben	-10.4523
▁offizielle	-10.4523
▁1896	-10.4524
▁Große	-10.4524
▁offen	-10.4525
▁nationale	-10.4526
▁Namens	-10.453
▁Sel	-10.4534
▁ich	-10.4538
▁entstehen	-10.454
▁Bronzemedaille	-10.4541
wan	-10.4546
su	-10.4547
▁Klosters	-10.4549
plätze	-10.4551
▁erhöht	-10.4551
▁Mond	-10.4553
▁sofort	-10.4554
49	-10.456
▁Zukunft	-10.4561
ves	-10.4565
▁katholische	-10.4566
zz	-10.457
▁Reg	-10.4581
▁unterlag	-10.4582
▁notwendig	-10.4591
gestellt	-10.4592
gesellschaftlich	-10.4595
▁Festung	-10.4597
▁promoviert	-10.4599
▁1871	-10.4601
ika	-10.4605
ons	-10.4605
bl	-10.4606
kunde	-10.4607
Car	-10.4608
07	-10.4611
dra	-10.4611
▁1897	-10.4612
▁benachbarten	-10.4613
Unter	-10.4615
▁Göttingen	-10.4618
lach	-10.4618
zig	-10.4619
▁Show	-10.462
Man	-10.462
▁angeblich	-10.4623
▁national	-10.4623
▁kaufte	-10.4624
▁Dampf	-10.4624
08	-10.4626
▁schwarz	-10.4628
▁Klassen	-10.4629
▁benannte	-10.4633
▁Geschwindigkeit	-10.4634
stil	-10.4635
▁May	-10.4638
▁existieren	-10.4638
elt	-10.464
▁Universitäten	-10.464
Groß	-10.4645
▁Entfernung	-10.4647
fenster	-10.465
▁langsam	-10.4651
▁Dan	-10.4652
▁Mensch	-10.4657
▁befanden	-10.4659
▁schwedischen	-10.466
funktion	-10.4663
▁länger	-10.4663
rechts	-10.4667
▁eng	-10.4669
▁Niederlage	-10.4672
äl	-10.4675
▁Töchter	-10.4675
56	-10.4676
▁Werken	-10.4678
▁Stadion	-10.4681
▁angebracht	-10.4682
reisen	-10.4687
turnier	-10.469
▁Objekt	-10.4696
▁Kabinett	-10.4697
▁Quer	-10.4697
eten	-10.4698
▁Tunnel	-10.4701
▁Nachrichten	-10.4701
▁handelte	-10.4704
▁traten	-10.4707
▁klassischen	-10.4708
▁untergebracht	-10.4709
▁weder	-10.4713
position	-10.4715
▁dennoch	-10.4716
▁Handlung	-10.4721
weiß	-10.4725
▁österreichische	-10.4725
▁Sicherheit	-10.4727
▁großes	-10.4727
▁Besonders	-10.4729
▁Frieden	-10.4731
▁bisherigen	-10.4733
ado	-10.4733
tätigkeit	-10.4734
▁Büro	-10.4734
▁Sinn	-10.4737
▁Mehr	-10.4739
▁Software	-10.4741
ür	-10.4749
▁Ste	-10.4751
▁alles	-10.4756
▁Edward	-10.4759
unterschiedliche	-10.4764
▁Woche	-10.4765
vis	-10.4766
▁stärker	-10.4767
kern	-10.4767
▁Mathematik	-10.4769
▁scheiterte	-10.4771
ziehen	-10.4775
baren	-10.4775
▁Produkt	-10.4779
▁Schließlich	-10.4781
ora	-10.4782
▁stammte	-10.4783
hauses	-10.4784
▁Rollen	-10.4785
chel	-10.4785
war	-10.4787
▁vermutet	-10.4789
▁bedeutende	-10.4789
mauer	-10.4794
▁Regionen	-10.4794
▁Maßnahmen	-10.4796
gebiete	-10.4796
▁Poly	-10.48
▁bestanden	-10.4802
ight	-10.4803
▁Damen	-10.4809
▁1860	-10.481
▁Publikum	-10.4812
▁Bericht	-10.4816
▁Stellen	-10.4818
▁Archiv	-10.482
och	-10.482
pt	-10.482
Ru	-10.4822
▁Reaktion	-10.4824
▁angeschlossen	-10.4825
▁Athen	-10.4832
Europa	-10.4833
▁Schmidt	-10.4834
▁Denkmalschutz	-10.4841
▁Bistum	-10.4844
ellen	-10.4848
100	-10.485
▁beschädigt	-10.4855
durch	-10.4856
OS	-10.486
uri	-10.4861
▁Wahlen	-10.4864
▁Green	-10.4867
▁Schild	-10.4867
▁Gerhard	-10.4867
▁Kap	-10.4869
▁Pin	-10.487
▁Elektro	-10.4871
▁ergibt	-10.4875
bezeichnung	-10.4876
▁nachgewiesen	-10.4876
▁Verkehr	-10.4877
▁Spieltag	-10.4877
▁Fels	-10.4883
stra	-10.4884
▁Gang	-10.4884
71	-10.4889
Schw	-10.489
▁englische	-10.4893
▁Songs	-10.4894
▁Ser	-10.4896
▁scheint	-10.4896
▁Stefan	-10.4897
Q	-10.49
förmig	-10.49
▁Baron	-10.4903
▁erreichten	-10.4905
▁Weiterhin	-10.4911
▁Entwicklungs	-10.4912
▁Viertel	-10.4914
▁Männchen	-10.4915
New	-10.492
studium	-10.492
▁italienische	-10.492
▁Kirch	-10.4921
schloss	-10.4923
▁250	-10.4923
▁Ursprünglich	-10.4928
▁gemäß	-10.4937
sehen	-10.4939
▁Oberst	-10.494
▁Route	-10.4945
nden	-10.4952
▁Konrad	-10.4952
▁Nachwuchs	-10.4961
▁politisch	-10.4962
▁daraus	-10.4963
▁bestehenden	-10.4967
▁Gemeinsam	-10.4968
▁kleineren	-10.4969
▁ha	-10.4974
▁Wunsch	-10.4975
▁Diplom	-10.4976
▁beschlossen	-10.4981
bb	-10.4981
ida	-10.4982
▁bereit	-10.4983
▁bestehende	-10.4985
▁Ren	-10.4987
▁Entstehung	-10.4988
▁Umbau	-10.4995
▁As	-10.4996
▁1,5	-10.4999
our	-10.5004
▁Herr	-10.5007
▁Ve	-10.501
▁ergänzt	-10.5013
▁verhaftet	-10.5021
nicht	-10.5023
▁Geburt	-10.5024
▁Sta	-10.5024
▁Ulrich	-10.5036
Nord	-10.5036
▁geborene	-10.5039
▁basiert	-10.504
▁Norwegen	-10.5043
var	-10.5046
So	-10.5049
vier	-10.505
grenze	-10.5053
▁Party	-10.5056
national	-10.5058
_3	-10.5058
Anhalt	-10.5059
viertel	-10.506
Alt	-10.5064
▁Herausgeber	-10.5064
68	-10.5068
net	-10.5069
▁Funk	-10.5072
hoff	-10.5074
▁38	-10.5074
trieb	-10.5076
tre	-10.5087
tritt	-10.5088
▁Kas	-10.5091
▁zufolge	-10.5093
stieg	-10.5094
sie	-10.5095
▁Papier	-10.5096
red	-10.5097
führen	-10.5097
▁beobachtet	-10.5099
vertrag	-10.5099
▁fünften	-10.5107
schl	-10.5108
▁Lösung	-10.5109
sky	-10.5109
zone	-10.5118
tis	-10.5119
▁Wehr	-10.5119
eg	-10.5121
schein	-10.5122
▁beendet	-10.5123
No	-10.5125
xi	-10.5125
▁fungierte	-10.5126
▁Register	-10.5127
▁Parallel	-10.5133
ral	-10.5136
▁verboten	-10.5138
oc	-10.5145
▁ursprüngliche	-10.5145
arzt	-10.5146
ise	-10.5147
▁ermittelt	-10.5151
zell	-10.5153
kor	-10.5157
▁Gefängnis	-10.5159
▁Kat	-10.5164
▁Eröffnung	-10.5168
bezirk	-10.517
dauer	-10.5174
▁Bestand	-10.5174
▁jeden	-10.5174
▁gelangte	-10.5177
stätten	-10.5177
▁sowjetischen	-10.5179
▁inne	-10.5179
yn	-10.5185
▁Smith	-10.519
▁Ortschaften	-10.5194
▁Vielzahl	-10.5201
fassung	-10.5202
Star	-10.5202
▁Il	-10.521
▁Keller	-10.5211
▁Anlagen	-10.5213
pat	-10.5215
punkte	-10.5219
▁britischer	-10.522
uck	-10.5223
▁Gleich	-10.5226
▁produzierte	-10.5229
▁Führer	-10.5231
ktion	-10.5232
bal	-10.5234
ender	-10.5234
▁Bauwerk	-10.5236
▁überhaupt	-10.5236
▁Jack	-10.5237
▁einschließlich	-10.5237
oli	-10.5242
▁Rio	-10.5245
▁zumeist	-10.5248
Ka	-10.5249
line	-10.525
▁moderne	-10.5253
▁Sir	-10.5253
▁Blau	-10.5253
▁Monat	-10.5259
▁russische	-10.5261
▁Cho	-10.5264
ziel	-10.5264
▁Michel	-10.5266
lam	-10.5266
å	-10.5268
▁organisiert	-10.5268
mes	-10.5271
▁Schwe	-10.5272
reichen	-10.5272
▁zumindest	-10.5274
73	-10.5275
62	-10.5276
&	-10.5279
▁Kombination	-10.5283
▁Kanal	-10.5286
trag	-10.5288
▁oberhalb	-10.5289
rt	-10.5292
▁Rekord	-10.5293
▁Schau	-10.5297
52	-10.5298
▁ausgestrahlt	-10.5301
▁maximal	-10.5305
▁geb	-10.5306
▁maßgeblich	-10.5308
▁Rede	-10.5312
olo	-10.5316
▁manchmal	-10.5319
zellen	-10.532
▁Mannschafts	-10.532
fahrer	-10.5323
bü	-10.5324
▁Hauses	-10.5328
ith	-10.5331
Her	-10.5333
uff	-10.5336
jew	-10.5336
▁Bekannt	-10.5343
▁Straßenbahn	-10.5344
liberal	-10.5347
▁Förder	-10.5351
gelände	-10.5353
▁erzeugt	-10.5353
▁Offizier	-10.5357
▁Group	-10.5359
▁gedreht	-10.5364
kur	-10.5364
litz	-10.5365
▁Master	-10.5365
▁Spielklasse	-10.5366
▁holte	-10.5367
▁Infanterie	-10.5371
▁mittlere	-10.5372
▁entsprechenden	-10.5373
heimer	-10.5374
▁Beschreibung	-10.5375
kanal	-10.5377
▁Tar	-10.5381
Haus	-10.5386
▁sozialen	-10.5387
▁Menge	-10.5397
▁Dennoch	-10.5398
paar	-10.5399
▁Architekt	-10.54
länder	-10.5405
geführt	-10.5409
rü	-10.5412
▁erscheinen	-10.5417
▁Ebenso	-10.5419
▁Erhebung	-10.5419
▁Ros	-10.542
▁Reste	-10.5422
▁Dorfes	-10.5423
ish	-10.5423
▁Universitäts	-10.5423
▁Wege	-10.5427
▁einzu	-10.5429
▁Auflage	-10.5429
▁Spitzen	-10.543
▁Wehrmacht	-10.5432
▁to	-10.5432
▁einiger	-10.5432
▁del	-10.5437
▁ausgewiesen	-10.544
▁Erwähnung	-10.5441
▁Kn	-10.5442
▁Center	-10.5443
boden	-10.5452
▁Kölner	-10.5455
stock	-10.5455
▁derzeit	-10.5459
Si	-10.546
▁Sei	-10.5468
▁Künste	-10.5476
▁Franken	-10.5476
▁abgerissen	-10.5477
▁Dreh	-10.5477
▁Gewicht	-10.548
▁NSDAP	-10.5486
▁Reserve	-10.5486
maschinen	-10.5489
▁vorgestellt	-10.5489
▁ausgewählt	-10.5494
non	-10.5498
▁Einrichtungen	-10.5498
▁1892	-10.5498
▁Science	-10.5499
▁Herrscher	-10.55
stift	-10.5501
AG	-10.5504
▁höheren	-10.5504
sozialismus	-10.5505
kos	-10.5507
▁entsprechende	-10.5508
▁debütierte	-10.5509
▁Automobil	-10.5513
▁Und	-10.5513
leg	-10.5513
▁Anders	-10.5515
▁unterschrieb	-10.5519
lag	-10.5525
▁brach	-10.5526
ull	-10.5529
ox	-10.553
▁British	-10.5531
▁Bedingungen	-10.5532
▁Vel	-10.5533
▁guten	-10.5535
▁Sendung	-10.5535
greifen	-10.5535
ön	-10.5536
▁Hin	-10.5536
gol	-10.5536
owski	-10.5536
via	-10.5537
ativ	-10.5547
▁Online	-10.5551
▁weshalb	-10.5556
▁Vereine	-10.5556
▁Oberliga	-10.5558
▁höhere	-10.5559
▁Street	-10.5559
▁kon	-10.556
▁Mecklenburg	-10.5564
▁intensiv	-10.5564
06	-10.5567
▁klein	-10.5567
▁Reform	-10.5568
▁tief	-10.557
▁zentrale	-10.5572
▁Mari	-10.5574
ico	-10.5574
▁Far	-10.5575
▁Andere	-10.5577
pre	-10.5577
▁Verhalten	-10.558
▁Fraktion	-10.558
ruf	-10.5581
▁weisen	-10.5583
Tri	-10.5586
▁1893	-10.5586
▁Design	-10.5595
▁Ukraine	-10.5597
▁geblieben	-10.56
▁beigesetzt	-10.56
arch	-10.5601
▁Anwesen	-10.5604
▁Konstruktion	-10.5605
▁beeinflusst	-10.5605
▁Dörfer	-10.5606
une	-10.5607
iten	-10.5608
▁dürfen	-10.5609
▁Woiwodschaft	-10.5609
zin	-10.5609
▁Konflikt	-10.5609
▁Mühle	-10.5613
▁Eishockey	-10.5615
▁Feder	-10.5616
schließen	-10.5616
▁Vorder	-10.5618
▁Befehl	-10.5619
▁Heinz	-10.562
ober	-10.5621
▁anders	-10.5629
macher	-10.5629
Kirche	-10.5632
felder	-10.5634
▁Julius	-10.5637
▁75	-10.5638
▁desselben	-10.564
team	-10.5641
steuer	-10.5642
▁heiligen	-10.5647
▁Kommandeur	-10.5647
▁Inhalt	-10.5649
region	-10.5651
▁verzeichnet	-10.5651
▁genannte	-10.5656
▁Dauer	-10.5657
▁Generation	-10.5657
▁Mündung	-10.5658
▁Behörden	-10.5659
▁Adam	-10.5659
kul	-10.566
▁Rosen	-10.566
▁Stadtgebiet	-10.5664
wertung	-10.5668
legung	-10.5668
▁Ker	-10.5672
è	-10.5675
sieg	-10.5675
mun	-10.5681
▁Kre	-10.5681
▁Sprecher	-10.5683
Pfalz	-10.5683
▁Engel	-10.5684
▁verändert	-10.5687
ement	-10.5689
samt	-10.5703
▁Drittel	-10.5707
▁Trag	-10.5709
kl	-10.5709
▁Stock	-10.571
▁beschäftigte	-10.5713
▁verlängert	-10.5715
adi	-10.5717
verbindung	-10.5718
▁anerkannt	-10.5722
gabe	-10.5724
aw	-10.5726
▁Zoll	-10.5731
kosten	-10.5733
ax	-10.5734
▁Fünf	-10.5738
chor	-10.5738
▁Scho	-10.574
▁Unterschied	-10.5741
theoretisch	-10.5742
▁Alben	-10.5744
wen	-10.5745
Da	-10.5746
▁gefertigt	-10.5748
▁Anerkennung	-10.5748
figur	-10.5753
▁At	-10.5754
▁offiziellen	-10.5757
ois	-10.5758
▁trifft	-10.5759
▁Zahlen	-10.5759
istik	-10.5759
formen	-10.5761
▁Höchst	-10.5763
▁Amsterdam	-10.5763
▁kW	-10.5772
▁Malerei	-10.5774
▁Spezial	-10.5774
▁Kantons	-10.5774
▁nutzen	-10.5777
▁Bevölkerungs	-10.5777
▁Ban	-10.5779
▁1885	-10.5779
▁Ali	-10.578
▁lehrte	-10.578
▁Heil	-10.5781
▁Beteiligung	-10.5783
▁wiederholt	-10.5783
▁Gebrauch	-10.5784
▁Abgeordneten	-10.5784
▁600	-10.5786
▁Übersetzung	-10.5787
▁größer	-10.579
BA	-10.5791
tzen	-10.5792
▁Gebieten	-10.5798
▁Kapitel	-10.5798
▁Kooperation	-10.58
mond	-10.5801
▁rot	-10.5806
▁Bogen	-10.5807
▁Informations	-10.581
▁Karten	-10.581
▁herausgegeben	-10.5811
▁Amerika	-10.5811
gue	-10.5812
▁Prüfung	-10.5813
▁Abt	-10.5815
▁Expedition	-10.582
▁Feuerwehr	-10.5822
rum	-10.5824
genommen	-10.5833
▁Aktivitäten	-10.5835
▁Veranstaltungen	-10.5835
weit	-10.5838
▁Botschafter	-10.5843
schluss	-10.5845
regierung	-10.5845
▁42	-10.5852
insel	-10.5858
▁Verkauf	-10.5865
▁Sun	-10.5868
▁Kardinal	-10.5868
▁Physik	-10.5873
▁Stab	-10.5881
▁zentralen	-10.5885
▁Bon	-10.5886
▁Unternehmer	-10.5889
erweise	-10.5896
▁Farben	-10.5901
ori	-10.5903
nik	-10.5904
▁Lebensmittel	-10.5904
▁Farbe	-10.5904
niederländischen	-10.5905
▁siegte	-10.5907
▁vierte	-10.591
▁Fri	-10.5911
▁eingegliedert	-10.5911
▁1888	-10.5912
▁geleitet	-10.5913
▁Leopold	-10.5913
▁Qualität	-10.5919
▁begleitet	-10.5919
▁Boot	-10.592
ausbildung	-10.5921
TV	-10.5922
▁unterstützte	-10.5924
▁Signal	-10.5924
▁Pri	-10.5927
▁schwere	-10.5931
wort	-10.5932
oxid	-10.5933
▁rein	-10.5936
▁Brücken	-10.5938
▁Leistungs	-10.5943
lock	-10.5944
▁Major	-10.5946
▁Hel	-10.5946
▁Übernahme	-10.5948
eur	-10.5949
est	-10.5949
▁Suche	-10.5951
teilung	-10.5956
alität	-10.5957
▁Hard	-10.5958
▁Nachbar	-10.5958
ova	-10.5958
▁Toten	-10.596
▁Roll	-10.5962
▁erlaubt	-10.5963
▁Arts	-10.5967
▁Produkte	-10.5968
▁Dortmund	-10.597
Motor	-10.5972
tern	-10.5973
▁Will	-10.5975
lands	-10.5976
▁Funktionen	-10.5979
itsch	-10.598
▁erforderlich	-10.598
As	-10.5983
▁Wende	-10.5984
▁umstritten	-10.5985
▁schreibt	-10.5986
▁Vergangenheit	-10.5986
▁Griechenland	-10.5991
▁speziell	-10.5993
▁Urteil	-10.5994
▁Beiträge	-10.5995
ade	-10.5996
▁Weil	-10.5997
▁1894	-10.5999
▁States	-10.6
cz	-10.6003
▁Bol	-10.6004
▁Schnee	-10.6005
▁Premierminister	-10.601
hersteller	-10.6015
à	-10.6015
▁Gesundheits	-10.6017
dos	-10.6018
▁eingetragen	-10.602
▁üblich	-10.6025
▁Lin	-10.6026
ies	-10.6028
▁sagte	-10.6033
▁bedient	-10.6033
▁womit	-10.6035
▁letzter	-10.6036
▁besiedelt	-10.6037
▁nämlich	-10.6039
▁militärischen	-10.6043
▁Rod	-10.6044
ane	-10.6046
▁schließt	-10.6049
▁erheblich	-10.6049
▁Gor	-10.605
version	-10.605
▁bieten	-10.6053
isches	-10.6057
▁Sprint	-10.6062
Au	-10.6063
▁Mission	-10.6063
ati	-10.6063
▁unterscheidet	-10.6065
lehre	-10.6068
▁unterstellt	-10.6072
bringen	-10.6074
▁chinesischen	-10.6077
▁eingeweiht	-10.6081
bestand	-10.6082
▁privaten	-10.6085
weiler	-10.6086
sing	-10.6088
▁Anspruch	-10.609
▁bildeten	-10.6092
▁Fund	-10.6098
kal	-10.6099
▁Insbesondere	-10.6099
▁reiste	-10.61
kov	-10.61
anlässlich	-10.6102
▁1889	-10.6104
▁Mannheim	-10.6105
zeug	-10.6106
Pi	-10.6109
▁Zeiten	-10.6111
▁jüdische	-10.6112
▁engagierte	-10.6113
▁Bund	-10.6113
▁Münchner	-10.6113
▁Bereichen	-10.6113
▁verwendete	-10.6114
▁Ter	-10.6115
▁ermöglichen	-10.612
▁zusätzliche	-10.6121
▁1500	-10.6122
▁Rathaus	-10.6123
▁anhand	-10.6126
▁Frankfurter	-10.6129
<	-10.6132
▁Phase	-10.6137
▁täglich	-10.6137
steigen	-10.6138
▁Unfall	-10.614
press	-10.614
▁Altstadt	-10.6141
▁Rechtsanwalt	-10.6143
ckel	-10.6143
▁Erfahrungen	-10.6144
▁fortan	-10.6148
▁Francisco	-10.6149
▁verfügte	-10.6151
linien	-10.6154
▁Abstieg	-10.6155
transport	-10.6159
▁1874	-10.6161
bor	-10.6162
akademie	-10.6163
▁Asien	-10.6164
▁Weiler	-10.6165
▁sichtbar	-10.6166
stimmen	-10.6168
▁beschloss	-10.6169
▁Grenzen	-10.617
atur	-10.617
▁Tübingen	-10.6171
Bu	-10.6171
inus	-10.6172
▁Ham	-10.6175
▁1891	-10.6178
▁verwandt	-10.6178
sverfahren	-10.6179
▁Wohnung	-10.618
▁Eigenschaften	-10.6182
▁Emil	-10.6191
▁Waren	-10.6196
stell	-10.6199
▁wichtigen	-10.6202
bürgermeister	-10.6203
▁eigener	-10.6204
▁Arthur	-10.6206
tr	-10.6207
▁Hitler	-10.621
brand	-10.6211
▁seither	-10.6211
haupt	-10.6212
▁Zell	-10.6215
▁beliebt	-10.6216
verbandes	-10.6218
sor	-10.6219
▁Geschäftsführer	-10.6221
▁Reiches	-10.6222
istisch	-10.6222
▁Nar	-10.6224
▁Kron	-10.6225
winkel	-10.6226
▁Freiherr	-10.6226
▁Südafrika	-10.6228
▁Lee	-10.6228
▁Eigentümer	-10.6228
lein	-10.6231
▁Vorbereitung	-10.6233
Art	-10.6233
▁solchen	-10.6235
englisch	-10.6235
zar	-10.6238
▁dicht	-10.6239
▁Temperatur	-10.6239
tig	-10.6245
▁hierbei	-10.6251
SC	-10.6252
▁Landgemeinde	-10.6252
gh	-10.6253
▁ermordet	-10.6254
▁Promotion	-10.6254
lie	-10.6258
▁gar	-10.6261
dern	-10.6262
▁37	-10.6263
▁Regen	-10.6264
▁eingebaut	-10.6266
rechte	-10.6268
▁Rö	-10.627
seit	-10.6271
▁Würzburg	-10.6271
▁Freien	-10.6272
nischen	-10.6272
▁schwach	-10.6275
▁untersucht	-10.6275
ls	-10.6277
▁Brown	-10.6284
▁Höhepunkt	-10.6286
institut	-10.6287
▁streng	-10.6291
▁Gemeinderat	-10.6293
▁Gestalt	-10.6293
▁Bass	-10.6294
▁Real	-10.6294
nas	-10.6294
▁Abstand	-10.6298
▁Rostock	-10.6299
▁lokalen	-10.63
▁jener	-10.63
▁Löwen	-10.6303
▁Verlust	-10.6303
▁1866	-10.6304
alter	-10.6304
▁Mol	-10.6305
▁Stücke	-10.6308
▁Erscheinung	-10.631
▁Lan	-10.631
Spiel	-10.6318
▁Ägypten	-10.6321
wehr	-10.6322
▁Kö	-10.6323
▁Früh	-10.6326
▁Posten	-10.6328
▁Orden	-10.6329
▁Yu	-10.6334
Ho	-10.6336
wood	-10.6336
▁Aachen	-10.6336
▁Kassel	-10.6339
▁Monte	-10.634
let	-10.6341
falls	-10.6342
▁Schi	-10.6346
▁800	-10.635
▁Justiz	-10.6352
kloster	-10.6353
▁populär	-10.6357
▁Braun	-10.6361
weil	-10.6362
▁Hol	-10.6369
▁Sat	-10.637
blick	-10.6372
Im	-10.6373
gezogen	-10.6374
wall	-10.6379
▁Bruch	-10.6379
▁Lau	-10.6379
▁Bühne	-10.6383
▁Magdeburg	-10.6383
itu	-10.6386
▁entwickeln	-10.639
▁soziale	-10.6392
einheiten	-10.6395
▁Wissenschaftler	-10.6395
▁Jurist	-10.6397
▁Zerstörung	-10.6399
▁wichtigste	-10.6402
▁ausgerichtet	-10.6403
karriere	-10.6404
▁geändert	-10.6406
hofen	-10.6406
▁bezieht	-10.6409
▁Journalist	-10.6409
03	-10.6414
▁Heck	-10.6415
dom	-10.6416
chs	-10.6417
▁Schritt	-10.6419
▁Gefahr	-10.6423
sbach	-10.6423
ction	-10.643
vereins	-10.6431
bundes	-10.6432
ique	-10.6434
ander	-10.644
fel	-10.6443
▁Anhänger	-10.6444
▁Th	-10.6448
▁Jena	-10.6448
▁Pläne	-10.645
▁Brut	-10.6456
▁Wesentlichen	-10.6461
▁Fu	-10.6464
▁Hauptrolle	-10.6465
▁Kupfer	-10.647
▁lautet	-10.647
▁Hause	-10.647
▁Ruhestand	-10.6472
▁durfte	-10.6472
▁liegenden	-10.6474
▁Drehbuch	-10.6475
▁änderte	-10.6479
▁Albrecht	-10.6485
trainer	-10.6485
▁militärische	-10.6485
▁Fürst	-10.6486
▁Ram	-10.6486
artig	-10.6486
▁Oscar	-10.6487
ile	-10.6489
Wa	-10.6492
Ba	-10.65
▁gefördert	-10.6501
▁vertrieben	-10.6501
ats	-10.6502
▁freien	-10.6504
ence	-10.6512
▁Football	-10.6515
▁Südwest	-10.6516
▁Lehrstuhl	-10.6523
iel	-10.6523
▁Auszeichnung	-10.6525
SG	-10.6527
▁darstellt	-10.6534
▁umfangreiche	-10.6535
dd	-10.6537
▁Witwe	-10.6537
hal	-10.654
▁1875	-10.6541
händler	-10.6542
▁Ven	-10.6542
▁Haft	-10.6545
owa	-10.6551
▁Aktien	-10.6559
▁Niederlanden	-10.6559
kauf	-10.6559
61	-10.6564
feuer	-10.6566
▁Engagement	-10.6568
▁sozial	-10.6572
▁solcher	-10.6572
▁39	-10.6576
▁möglichst	-10.6576
yr	-10.6576
ffer	-10.6578
ks	-10.6579
sion	-10.658
brechen	-10.6589
begriff	-10.6592
▁Miss	-10.6598
▁Back	-10.6599
deutsche	-10.66
wiesen	-10.6602
▁unbekannt	-10.6605
▁grundsätzlich	-10.6608
hafen	-10.6612
▁private	-10.6614
▁Bas	-10.6615
▁Werte	-10.6617
▁ließen	-10.6619
▁Gö	-10.6621
hör	-10.6622
▁Rumänien	-10.6622
▁Werbe	-10.6622
eu	-10.6623
▁einst	-10.6623
wi	-10.6624
▁Landgericht	-10.6633
▁Völker	-10.6635
bri	-10.6644
aria	-10.6644
▁verletzt	-10.6645
▁Kapitän	-10.6648
rus	-10.665
ül	-10.6656
▁Block	-10.6656
▁Thi	-10.6658
▁Senat	-10.6658
ose	-10.6662
schaften	-10.6662
fluss	-10.6662
prüfung	-10.6664
bücher	-10.6664
▁Witt	-10.6664
alt	-10.6665
gin	-10.6667
▁Verteidigungs	-10.667
▁Ly	-10.6672
▁Mary	-10.6674
ý	-10.6674
spekt	-10.6674
▁Breslau	-10.6674
▁bekanntesten	-10.6674
▁Zimmer	-10.668
▁Win	-10.6681
▁nötig	-10.6682
▁Erich	-10.6684
▁Jungen	-10.6685
▁forderte	-10.6685
▁Zer	-10.669
▁Irland	-10.669
rig	-10.6692
▁Englisch	-10.6697
getreten	-10.67
▁1879	-10.6701
temperatur	-10.6701
karten	-10.6702
▁Niedersachsen	-10.6703
▁Vize	-10.6703
▁Szene	-10.6703
▁Gewerbe	-10.6704
▁Hen	-10.6704
▁Eingang	-10.6705
sozialistischen	-10.6705
▁Variante	-10.6708
▁Halbinsel	-10.671
▁wirtschaftliche	-10.671
▁nord	-10.671
igt	-10.6712
partner	-10.6713
▁reduziert	-10.6714
▁eingemeindet	-10.6716
▁fallen	-10.672
▁Web	-10.6721
▁Niederlande	-10.6721
Repräsentantenha	-10.6723
▁Orten	-10.6725
▁Ausstattung	-10.6725
▁Roth	-10.6727
▁Pfarr	-10.6728
▁Wol	-10.673
▁Ten	-10.673
▁hinein	-10.6731
hard	-10.6732
treten	-10.6732
geht	-10.6732
dies	-10.6741
Ich	-10.6744
▁getragen	-10.6744
▁übernehmen	-10.6746
▁Franzosen	-10.6749
uf	-10.6752
ct	-10.6754
▁infolge	-10.676
Ni	-10.676
Berlin	-10.6761
wege	-10.6768
fin	-10.677
▁Thüringen	-10.6774
▁ausreichend	-10.6775
▁Tru	-10.678
▁Plätze	-10.6781
Un	-10.6781
▁Nationen	-10.6788
▁Aussage	-10.6789
Mi	-10.679
▁Tür	-10.6791
▁Lind	-10.6793
▁44	-10.68
Fl	-10.68
▁Zivil	-10.6801
spiegel	-10.6801
kas	-10.6805
▁Bö	-10.6805
▁Schach	-10.6805
polizei	-10.6806
▁zer	-10.6806
▁Arn	-10.6808
▁recht	-10.6809
ato	-10.6809
sal	-10.681
▁Ferner	-10.6811
wirkung	-10.6814
▁Pierre	-10.6816
▁offenen	-10.6816
▁breiten	-10.6817
▁Bob	-10.6817
▁Mus	-10.6823
luft	-10.6823
behörde	-10.6827
▁1887	-10.6828
▁weißen	-10.6828
▁Mode	-10.6832
▁Inschrift	-10.6836
nig	-10.6837
▁sämtliche	-10.6837
▁hören	-10.6838
▁Herbert	-10.6839
▁1867	-10.684
tas	-10.6842
▁treten	-10.6845
▁wandte	-10.6846
▁folgen	-10.6849
▁Joachim	-10.6853
smitglied	-10.6854
▁Existenz	-10.6854
▁anzu	-10.6856
geld	-10.6856
mol	-10.6857
kehr	-10.6858
▁Che	-10.6858
▁unterstützen	-10.6858
▁Sängerin	-10.6858
Hu	-10.6859
▁Foto	-10.686
burger	-10.6861
▁Op	-10.6868
▁gleiche	-10.6868
▁Hi	-10.687
▁Venedig	-10.6871
bald	-10.6872
▁rasch	-10.6873
Go	-10.6874
roman	-10.6875
▁Symbol	-10.6877
▁Eng	-10.6877
▁Tele	-10.6878
▁Funde	-10.6878
gelassen	-10.6879
fassen	-10.688
▁Komponisten	-10.688
▁Golf	-10.6881
▁Onkel	-10.6881
gegangen	-10.6881
kette	-10.6881
sammlung	-10.6882
gor	-10.6882
▁Allgemeinen	-10.6884
▁Pla	-10.6885
▁Sim	-10.6885
▁Botschaft	-10.6885
Schl	-10.6886
▁Stephan	-10.6887
▁Olympia	-10.6897
▁55	-10.6899
▁Gri	-10.6903
▁Force	-10.6905
can	-10.6906
▁aktiven	-10.6907
igung	-10.6909
▁64	-10.6909
▁ähnliche	-10.691
rau	-10.6911
▁ältere	-10.6911
ux	-10.6912
▁unternahm	-10.6917
▁Weltmeister	-10.6919
text	-10.692
▁Karlsruhe	-10.6923
treffen	-10.6927
DA	-10.6928
▁Römer	-10.693
stufe	-10.6931
▁sicherte	-10.6934
▁Verbindungen	-10.6936
ierenden	-10.6942
▁betreibt	-10.6943
sbereich	-10.6944
uz	-10.6944
▁Qui	-10.6947
▁1872	-10.6948
ets	-10.6948
▁Vizepräsident	-10.6949
könig	-10.6949
▁Silbermedaille	-10.695
▁Technischen	-10.6954
To	-10.696
ante	-10.6961
kam	-10.6961
Te	-10.6966
schi	-10.6967
▁Planung	-10.6969
▁Heeres	-10.6971
▁Staates	-10.6972
▁hundert	-10.6974
Bü	-10.6979
▁Bro	-10.6983
▁José	-10.6986
ult	-10.6987
tten	-10.6988
bilder	-10.6988
▁Marke	-10.6988
▁Bundesstraße	-10.699
mund	-10.6991
wart	-10.6992
▁zugelassen	-10.6996
▁Sekunden	-10.6998
Har	-10.6999
▁Veränderungen	-10.7
▁frühere	-10.7
▁Platten	-10.7001
▁zogen	-10.7005
▁evangelischen	-10.7007
▁traditionellen	-10.7008
systeme	-10.7009
▁gelegt	-10.7009
hütte	-10.701
eis	-10.7015
▁Milliarden	-10.7018
wärts	-10.7019
nder	-10.7022
bahnhof	-10.7023
ū	-10.7023
II	-10.7026
▁Schnitt	-10.7029
▁Magazin	-10.703
gerät	-10.7032
▁fein	-10.7032
▁Seminar	-10.7032
▁Fassung	-10.7034
ów	-10.7035
west	-10.7042
sozialisten	-10.7043
▁Islam	-10.7044
artigen	-10.7046
▁eindeutig	-10.7046
ward	-10.7048
▁mehrmals	-10.7048
▁Ast	-10.7049
▁Pl	-10.7049
▁Kü	-10.7054
▁1868	-10.7054
▁Spielfilm	-10.7054
iker	-10.7058
▁Internationale	-10.7069
able	-10.7069
▁datiert	-10.707
▁Instrument	-10.7073
bre	-10.7073
▁Religions	-10.7074
▁Gemarkung	-10.7077
▁gesprochen	-10.7077
chef	-10.7077
82	-10.708
Pokal	-10.7082
mil	-10.7083
▁Gleis	-10.7084
▁Sekretär	-10.7087
▁Komposition	-10.7088
Gymnasium	-10.7089
▁benötigt	-10.7089
▁Augsburg	-10.709
Es	-10.7096
▁King	-10.7102
mos	-10.7102
▁Gesang	-10.7103
▁Meisterschaften	-10.7105
shire	-10.7106
▁Hil	-10.7108
rath	-10.711
▁Schlüssel	-10.7112
stab	-10.7113
etwa	-10.7116
▁technischen	-10.7116
rohr	-10.7119
▁Va	-10.712
▁Regionalliga	-10.7123
bein	-10.7123
▁Management	-10.7124
▁48	-10.7126
onne	-10.7127
äng	-10.7128
▁breite	-10.7129
▁Helmut	-10.7131
[	-10.7133
▁Brust	-10.7134
ndorf	-10.7136
amp	-10.7139
gro	-10.7144
▁Zahn	-10.7146
▁Prinz	-10.7148
▁Os	-10.715
▁staatlichen	-10.7152
▁mittelalterlich	-10.7152
▁Mikro	-10.7154
MA	-10.7154
daten	-10.7159
Kl	-10.7171
griff	-10.7176
ite	-10.7177
Frei	-10.7178
fallen	-10.7179
Linie	-10.718
takt	-10.718
▁Krone	-10.718
▁Bri	-10.7185
now	-10.7186
▁Projekte	-10.7186
▁Verfassungs	-10.7187
ständig	-10.7196
▁Cre	-10.7197
autor	-10.7198
▁Kader	-10.72
▁Kandidaten	-10.7201
äre	-10.7203
▁1886	-10.7206
waren	-10.7208
Du	-10.721
▁Big	-10.721
▁verlief	-10.7212
ün	-10.7216
▁Hell	-10.7218
artige	-10.722
▁übersetzt	-10.7221
▁einfache	-10.7232
▁Ereignisse	-10.7236
shi	-10.7237
▁gefährdet	-10.7238
▁Erz	-10.724
▁Eigentum	-10.724
▁Lizenz	-10.7241
▁1884	-10.7243
wich	-10.7244
▁aufgegeben	-10.7245
▁gefärbt	-10.7245
ech	-10.7245
achse	-10.7245
▁Vis	-10.7249
Team	-10.725
richten	-10.7251
▁stattfand	-10.7256
▁Brunnen	-10.7259
▁1873	-10.7261
▁Bergbau	-10.7266
Boot	-10.7268
EG	-10.727
Stiftung	-10.7273
rö	-10.7274
gold	-10.7276
▁Metal	-10.7276
▁Umfang	-10.7278
ritz	-10.7279
ë	-10.7279
▁Rohr	-10.728
pur	-10.7281
▁Instituts	-10.7285
▁Exemplare	-10.7287
▁Nordamerika	-10.7287
▁Goldmedaille	-10.7289
▁spät	-10.7292
▁Scha	-10.7292
emann	-10.7293
▁unterteilt	-10.7296
messen	-10.7297
▁Auftritt	-10.7297
menge	-10.7298
▁bringt	-10.7299
▁Haar	-10.7299
▁1881	-10.73
▁schwierig	-10.7301
sätze	-10.7303
▁Organisationen	-10.7304
▁Fehler	-10.7305
▁Übergang	-10.7307
mission	-10.7309
FA	-10.7312
▁gefangen	-10.7314
tür	-10.7316
ref	-10.7317
▁erlebte	-10.7318
▁Dissertation	-10.732
▁Ky	-10.7324
▁Kara	-10.7324
für	-10.7326
▁Eich	-10.7328
motiv	-10.7329
zimmer	-10.7329
▁Regensburg	-10.7331
Ex	-10.7334
▁Oberfläche	-10.7339
▁Neue	-10.734
▁kritisiert	-10.7343
▁letztlich	-10.7344
ER	-10.7347
▁könnten	-10.7353
stehen	-10.7354
▁beschränkt	-10.7356
▁Unterricht	-10.7357
▁Reformation	-10.7357
▁entschieden	-10.7359
▁unterschieden	-10.7361
▁Hammer	-10.7365
▁Meeres	-10.7368
ographie	-10.7369
▁Doktor	-10.7372
cu	-10.7374
▁1815	-10.7375
▁Neustadt	-10.7381
▁Sche	-10.7381
sau	-10.7382
▁Fin	-10.7383
ç	-10.7384
▁Corps	-10.7385
tos	-10.7389
▁Verbesserung	-10.7391
▁Studie	-10.7395
▁wider	-10.7396
▁Play	-10.7396
Schule	-10.7399
▁tot	-10.7401
▁Jura	-10.7402
▁1882	-10.7405
▁1876	-10.7406
etti	-10.7409
landschaft	-10.741
sum	-10.7417
▁uns	-10.7419
ias	-10.7419
▁gelegen	-10.7419
isation	-10.742
▁zieht	-10.742
▁Cam	-10.7424
▁Anne	-10.7425
▁engagiert	-10.7425
spannung	-10.7425
▁errang	-10.7427
ij	-10.7428
▁Streitkräfte	-10.7429
straßen	-10.7429
▁entworfen	-10.7432
▁Heimatstadt	-10.7434
ille	-10.7436
▁übergeben	-10.7439
▁angeordnet	-10.7439
▁Deutscher	-10.7439
▁Basketball	-10.7442
▁Vol	-10.7442
▁Lokal	-10.7442
met	-10.7443
Bau	-10.7444
ical	-10.7445
essen	-10.7447
▁Wohl	-10.7447
▁Leichtathletik	-10.7449
fähigkeit	-10.7452
for	-10.7452
▁Spiegel	-10.7455
ink	-10.746
▁KZ	-10.7463
Pe	-10.7464
block	-10.7467
dol	-10.7469
▁Acker	-10.747
▁Methoden	-10.7472
Lu	-10.7473
▁Heide	-10.7474
Über	-10.7476
front	-10.7478
iat	-10.748
▁Sonne	-10.7481
▁Leo	-10.7484
▁§	-10.7485
▁East	-10.7486
▁wichtiger	-10.7488
▁verfügbar	-10.7488
▁Cat	-10.7489
▁sonst	-10.749
tain	-10.749
▁Bier	-10.7492
fragen	-10.7494
▁Siegen	-10.7498
▁Schlag	-10.7498
▁Geschichts	-10.75
▁staatliche	-10.7502
ore	-10.7502
▁Boston	-10.7503
▁Prinzip	-10.7503
isierte	-10.7507
Projekt	-10.7507
▁aufge	-10.7508
▁1840	-10.7508
▁Fer	-10.7509
tus	-10.751
ă	-10.7511
sand	-10.7519
Typ	-10.752
DS	-10.7527
▁Weber	-10.7527
▁Bundeswehr	-10.7528
Cup	-10.753
Zu	-10.7531
72	-10.7532
▁Linz	-10.7534
▁Innsbruck	-10.7538
▁Petersburg	-10.7539
leb	-10.7541
▁White	-10.7546
▁positiv	-10.7547
▁spezielle	-10.7548
stücke	-10.7554
▁Herzogtum	-10.7555
▁1869	-10.7555
▁Parlaments	-10.7557
verkehrs	-10.7558
▁Stimme	-10.7561
▁erfolgten	-10.7564
▁evangelische	-10.7564
Su	-10.7565
blätter	-10.7566
▁Hör	-10.7569
▁Trier	-10.7571
ase	-10.7572
▁Var	-10.7572
räumen	-10.7574
▁Wagner	-10.7574
▁Vas	-10.7575
CA	-10.7579
▁Operation	-10.7579
organ	-10.7581
▁erstellt	-10.7582
ionen	-10.7582
▁erfüllt	-10.7588
▁diverse	-10.759
Dr	-10.7593
▁Ansicht	-10.7596
künstler	-10.7597
▁Geburtstag	-10.7599
platten	-10.76
▁Netzwerk	-10.7601
▁Wärme	-10.7602
▁Kirchengemeinde	-10.7604
▁möchte	-10.7604
▁Madrid	-10.7609
▁geeignet	-10.7612
▁Hierbei	-10.7613
▁gezogen	-10.7614
nimmt	-10.7614
▁Service	-10.7614
aren	-10.7616
AC	-10.7618
▁Chan	-10.7619
▁Erklärung	-10.762
▁enthielt	-10.762
200	-10.7621
▁Schneider	-10.7623
▁Trennung	-10.7625
ici	-10.7627
▁Rektor	-10.7628
ock	-10.7631
▁aktuellen	-10.7633
▁beschrieb	-10.7634
rik	-10.7635
▁Sur	-10.7636
hat	-10.7636
▁1862	-10.7636
▁Somit	-10.7638
bat	-10.7655
ii	-10.7658
brach	-10.7663
pfen	-10.7663
bedingungen	-10.7667
▁Bachelor	-10.7668
▁sprechen	-10.767
streifen	-10.7671
▁gesichert	-10.7675
▁1883	-10.7676
▁Renaissance	-10.7677
▁erfolgen	-10.7679
▁Verhandlungen	-10.768
bio	-10.7681
▁Zweig	-10.7683
Version	-10.7684
▁Dozent	-10.7691
ello	-10.7692
▁1861	-10.7696
wang	-10.7697
Bre	-10.7699
leiten	-10.7699
hy	-10.7701
rechnung	-10.7704
verbot	-10.7704
aki	-10.7705
▁Hirsch	-10.7706
gesetzt	-10.771
▁Speicher	-10.7711
nahm	-10.7716
▁Einstellung	-10.7717
▁VI	-10.7718
▁Ross	-10.7721
▁1864	-10.7722
▁Anbau	-10.7726
put	-10.7726
isieren	-10.7731
▁Stoff	-10.7732
tha	-10.7735
▁Stadtrat	-10.7735
▁Säulen	-10.7738
▁Berater	-10.7738
▁Kredit	-10.774
zeiten	-10.774
Fr	-10.7741
▁Tourismus	-10.7741
▁italienischer	-10.7743
strich	-10.7745
▁doppelt	-10.7745
erfolg	-10.775
▁Road	-10.7751
oma	-10.7751
▁Gespräch	-10.7754
▁Texas	-10.7754
▁aktive	-10.7755
engl	-10.7756
▁Sol	-10.7756
mag	-10.7757
▁dänischen	-10.7759
▁Kohle	-10.776
wig	-10.7764
stärke	-10.7765
▁Camp	-10.7769
▁Wiesen	-10.777
▁stattdessen	-10.777
alis	-10.7771
bek	-10.7773
▁Saisonende	-10.7773
▁Maschine	-10.778
lem	-10.7782
rn	-10.7783
▁Sebastian	-10.7784
▁beherbergt	-10.7788
▁Meyer	-10.7789
▁Long	-10.7791
▁Innenstadt	-10.7791
anti	-10.7793
▁Beitrag	-10.7793
▁Verlängerung	-10.7795
▁Einer	-10.7795
dro	-10.7795
▁Erfurt	-10.7796
▁Atom	-10.7796
▁1878	-10.7802
▁stellten	-10.7802
Modell	-10.7802
uc	-10.7804
treu	-10.7804
versorgung	-10.7804
▁nutzte	-10.7807
▁verfolgt	-10.7807
▁freie	-10.7808
▁Ap	-10.7812
▁Gewässer	-10.7812
▁Zwar	-10.7815
▁Wahrscheinlich	-10.7816
▁beider	-10.7817
berechtigt	-10.7819
▁Filmen	-10.7822
förmige	-10.7824
▁Jürgen	-10.7826
▁Final	-10.7827
ms	-10.7829
▁Goethe	-10.783
▁Hugo	-10.783
▁errichteten	-10.783
▁Sha	-10.7832
▁allgemeinen	-10.7832
zum	-10.7835
▁offenbar	-10.7836
▁sang	-10.7841
▁Lehen	-10.7843
▁führenden	-10.7844
▁Verteidigung	-10.7846
geben	-10.7846
funk	-10.7848
▁realisiert	-10.7848
sweise	-10.7849
pl	-10.785
▁geringen	-10.7856
▁gewannen	-10.7857
gesch	-10.7858
▁erfolgreichen	-10.7858
▁Barcelona	-10.7858
▁erkennbar	-10.7858
▁Bell	-10.7863
trop	-10.7864
▁Beweis	-10.7864
akt	-10.7864
mobil	-10.7866
▁langer	-10.7868
egg	-10.7868
trat	-10.787
▁darstellen	-10.7871
dichte	-10.7876
▁Dick	-10.7878
gebracht	-10.788
▁Geräte	-10.7881
▁Labor	-10.7882
verhältnisse	-10.7884
_4	-10.7886
ds	-10.7888
▁Fleisch	-10.7889
▁Zo	-10.7889
▁diesmal	-10.7889
▁Pariser	-10.7892
systems	-10.7892
▁entwickelten	-10.7899
▁geringer	-10.79
▁saß	-10.7901
▁städtischen	-10.7903
▁Kraftwerk	-10.7903
▁Lübeck	-10.7906
▁1865	-10.7908
rats	-10.7908
▁besonderen	-10.791
ings	-10.7911
▁entsprach	-10.7912
▁Mittelpunkt	-10.7913
maschine	-10.7915
ions	-10.7916
▁Jedoch	-10.7917
Ga	-10.7918
decken	-10.7919
prozess	-10.7923
präsidenten	-10.7925
ure	-10.7926
FC	-10.7927
Fa	-10.7929
Jo	-10.7929
▁SA	-10.7929
▁dreimal	-10.7932
▁erfolglos	-10.7934
tiere	-10.7936
▁etc	-10.7936
aire	-10.7942
▁1849	-10.7943
▁Ehemann	-10.7944
▁dauerhaft	-10.7945
gelegt	-10.7945
▁andererseits	-10.7946
stehenden	-10.7947
▁Acht	-10.7949
▁technische	-10.7949
▁Barock	-10.7949
▁Rab	-10.7952
AP	-10.7955
▁2,5	-10.7963
▁Synagoge	-10.7964
▁Viertelfinale	-10.7966
▁Möglichkeiten	-10.7971
▁verwaltet	-10.7973
▁aufgeteilt	-10.7973
Innerhalb	-10.7973
aro	-10.7973
sicht	-10.7974
▁Kalk	-10.7977
▁Todes	-10.798
ric	-10.7981
▁bekommen	-10.7984
sinn	-10.7985
▁bedeutendsten	-10.7986
▁Marburg	-10.7986
reiche	-10.7987
▁Ganz	-10.7988
▁unteren	-10.799
loch	-10.799
▁Ideen	-10.7991
▁Modelle	-10.7993
▁größtenteils	-10.7995
▁1830	-10.7996
lied	-10.7997
sol	-10.7998
▁christlichen	-10.7998
kurs	-10.8001
▁Pont	-10.8005
lieb	-10.8005
star	-10.8008
▁Muster	-10.8011
▁kanadischen	-10.8011
sgebiet	-10.8011
platte	-10.8012
▁Freunde	-10.8013
Lö	-10.8015
▁nunmehr	-10.8019
Haupt	-10.802
▁Samen	-10.8025
▁Knochen	-10.8026
▁geschlagen	-10.8028
▁Technologie	-10.8029
▁einerseits	-10.8031
▁geschätzt	-10.8032
▁1877	-10.8033
▁Free	-10.8034
▁befestigt	-10.8036
▁Ensemble	-10.8041
abend	-10.8042
▁gelangen	-10.8044
US	-10.8046
▁beteiligte	-10.8047
▁Ausbruch	-10.8049
▁Hang	-10.8052
▁Eugen	-10.8052
▁Sandstein	-10.8055
▁Joe	-10.8055
▁Kurs	-10.8058
▁Kapital	-10.8062
kol	-10.8066
▁Treffer	-10.8066
▁extrem	-10.8066
wind	-10.8067
▁Schottland	-10.8069
▁Schnell	-10.8072
▁lehnte	-10.8073
▁Deshalb	-10.8076
ington	-10.8079
miss	-10.8081
▁Argentinien	-10.8081
▁Konzerte	-10.8081
▁Leon	-10.8088
▁erhältlich	-10.8088
▁Line	-10.8089
▁Hä	-10.809
brief	-10.8092
werte	-10.8092
▁Williams	-10.8093
▁Krankheit	-10.8097
02	-10.8099
▁Pen	-10.8099
▁Finnland	-10.8101
pflicht	-10.8103
▁Rü	-10.8105
EN	-10.8106
▁Rose	-10.8107
▁erfahren	-10.8108
geschlossen	-10.8114
herrschaft	-10.8119
▁Umsetzung	-10.812
boot	-10.812
▁gezählt	-10.8121
▁Gra	-10.8123
eisen	-10.8124
para	-10.8124
▁Arnold	-10.8129
▁umgewandelt	-10.8131
▁Hals	-10.8131
▁Lokomotiven	-10.8131
▁Sy	-10.8132
far	-10.8132
▁Spring	-10.8136
▁Mandat	-10.8136
▁Fusion	-10.8136
Agent	-10.8138
aufnahmen	-10.8139
▁Hochschul	-10.8139
ić	-10.814
▁Wiederaufbau	-10.8142
▁machten	-10.8142
▁Ziele	-10.8143
yo	-10.8148
▁stationiert	-10.8149
▁Glück	-10.8151
▁derselben	-10.8154
Berg	-10.8157
linger	-10.8161
rock	-10.8162
▁Helm	-10.8162
▁treffen	-10.8163
fuß	-10.8163
▁Schwimm	-10.8167
▁nennen	-10.8167
abschnitt	-10.8167
orden	-10.8169
town	-10.8171
▁Seitdem	-10.8172
▁amerikanische	-10.8173
▁Gedicht	-10.8174
▁Opposition	-10.8175
▁Rücktritt	-10.8177
fremd	-10.8178
▁Kilometern	-10.8179
▁Szenen	-10.8181
▁europäische	-10.8182
▁Fassade	-10.8183
sko	-10.8184
▁Methode	-10.8185
Kr	-10.8186
▁wahr	-10.8186
ali	-10.8191
▁Wel	-10.8191
▁Sammel	-10.8194
▁Konkurrenz	-10.8195
▁Versammlung	-10.8195
verlust	-10.8197
fällen	-10.8197
▁abgelöst	-10.8198
Rennen	-10.8199
ack	-10.8201
▁vereinigt	-10.8204
▁Box	-10.8206
▁Columbia	-10.8208
ár	-10.821
▁ausgestellt	-10.8212
▁Christi	-10.8212
schuss	-10.8213
Programm	-10.8217
tem	-10.8223
konzert	-10.8228
▁Jäger	-10.8228
▁1863	-10.8229
▁Partien	-10.8229
get	-10.8231
▁Brenn	-10.8232
▁bewegt	-10.8234
▁Erinnerung	-10.8234
▁Weißen	-10.8235
hor	-10.824
schlagen	-10.8244
verhalten	-10.8245
▁Christus	-10.8245
heil	-10.8249
▁Plänen	-10.8253
▁Jerusalem	-10.8254
▁Portal	-10.8254
▁einfachen	-10.8255
▁organisierte	-10.8258
eau	-10.8258
▁besucht	-10.8261
▁bewusst	-10.8262
becken	-10.8262
▁präsentiert	-10.8265
▁Tschechien	-10.827
▁Act	-10.8271
halt	-10.8272
▁Sz	-10.8276
▁örtlichen	-10.8278
por	-10.8278
▁Zeitschriften	-10.8278
▁jüngeren	-10.8281
friedhof	-10.8282
kau	-10.8283
deck	-10.8285
▁abgeleitet	-10.8286
▁Best	-10.8288
Weiß	-10.8288
▁Vertrags	-10.8289
▁Media	-10.8289
▁Artillerie	-10.829
▁Wander	-10.829
uren	-10.8291
▁ergeben	-10.8292
wal	-10.8293
▁erneuert	-10.8293
SS	-10.8295
▁auftreten	-10.8296
▁Fahrt	-10.8299
gr	-10.8301
wel	-10.8301
▁1800	-10.8303
▁Flotte	-10.8306
Turnier	-10.8307
volle	-10.8307
▁Veranstaltung	-10.8307
yer	-10.831
▁Earl	-10.8316
▁Mailand	-10.8322
▁Antonio	-10.8324
▁Dun	-10.8325
ér	-10.8326
▁Heirat	-10.8327
▁Kollegen	-10.8327
SD	-10.8328
wil	-10.8333
ars	-10.8335
stro	-10.8338
▁Tief	-10.8338
ome	-10.8338
ografie	-10.834
▁Nordwest	-10.834
zustand	-10.8344
rates	-10.8345
cal	-10.8347
ble	-10.8355
▁hell	-10.8357
▁Wissen	-10.8359
▁France	-10.8362
▁Sektion	-10.8368
awa	-10.8372
▁Wood	-10.8373
▁Kam	-10.8374
▁Lor	-10.8374
saison	-10.8374
mein	-10.8376
▁Schwer	-10.8379
▁Opern	-10.8379
odi	-10.8379
Album	-10.8382
▁Religion	-10.8386
▁reichen	-10.8391
▁Son	-10.8391
ira	-10.8392
▁eingezogen	-10.8393
▁Reiter	-10.8395
▁gründeten	-10.8395
▁App	-10.8395
▁Leib	-10.8399
▁Love	-10.8404
▁Gegenwart	-10.8405
manns	-10.8407
einsatz	-10.8407
dl	-10.8409
scha	-10.841
▁Ursprung	-10.8412
▁abhängig	-10.8412
icht	-10.8412
▁Nun	-10.8413
alle	-10.8414
▁Gefecht	-10.8414
ont	-10.8417
freiheit	-10.8418
▁Wach	-10.8421
▁restauriert	-10.8423
▁Alex	-10.8424
NA	-10.8424
dr	-10.8425
▁Jahrzehnten	-10.8426
▁identisch	-10.8427
▁getroffen	-10.8427
maler	-10.8429
▁Regiment	-10.843
▁unterrichtete	-10.843
til	-10.8431
▁schließen	-10.8433
abel	-10.8433
▁Mühl	-10.8439
▁Beck	-10.8441
wein	-10.8447
▁vorhandenen	-10.8453
▁Ernennung	-10.8454
güter	-10.8456
brunn	-10.8458
▁Dialog	-10.846
GB	-10.8463
▁Grünen	-10.8464
▁Cra	-10.8469
▁Roger	-10.8471
▁UN	-10.8473
portal	-10.8473
magazin	-10.8475
kommission	-10.8475
Mannschaft	-10.8476
▁schaffen	-10.848
▁Siedlungs	-10.8483
quelle	-10.8486
▁längere	-10.8488
▁stieß	-10.8489
Wo	-10.8489
rücken	-10.8495
▁wollten	-10.8495
▁Stockholm	-10.8495
▁Baureihe	-10.8497
▁fielen	-10.8497
Dynastie	-10.8497
▁Erstmals	-10.8499
ais	-10.8503
▁Mak	-10.8504
▁nochmals	-10.8507
▁geschickt	-10.8508
▁entspringt	-10.8508
▁Nikolaus	-10.851
▁Ir	-10.8511
▁voneinander	-10.8511
ester	-10.8514
▁Neuseeland	-10.8514
enau	-10.8516
läufer	-10.8518
best	-10.8518
laufen	-10.8518
▁Pal	-10.8518
▁Wu	-10.852
For	-10.8521
▁NHL	-10.8523
Quadratkilometer	-10.8526
stände	-10.8526
▁Sen	-10.8527
pend	-10.8527
rod	-10.8529
▁Christen	-10.8534
▁160	-10.8535
▁Roh	-10.8538
▁Anwalt	-10.8538
Rock	-10.8539
▁Glaubens	-10.8541
▁türkischen	-10.8542
armen	-10.8542
▁Darmstadt	-10.8543
kritik	-10.8543
▁ehemals	-10.8543
lösung	-10.8545
▁sorgte	-10.8546
▁Vorsitzende	-10.8547
ologischen	-10.8548
nia	-10.8548
▁japanische	-10.8549
▁Was	-10.855
▁Urkunde	-10.8551
ual	-10.8552
▁automatisch	-10.8554
Regierungsbezirk	-10.8554
▁Phil	-10.8554
schlüsse	-10.8554
▁Scott	-10.8554
▁Scher	-10.8554
▁direkte	-10.8555
Per	-10.8556
▁Winkel	-10.8557
rischen	-10.856
▁Qualifikations	-10.8562
ssystem	-10.8562
▁41	-10.8562
▁dokumentiert	-10.8565
▁Durchschnitts	-10.8565
▁Luther	-10.8567
▁voraus	-10.8568
▁Kugel	-10.8568
▁Fell	-10.857
▁Fremd	-10.8571
Nr	-10.8571
▁Barbara	-10.8572
▁vieler	-10.8572
gehalten	-10.8573
geb	-10.8574
▁Carolina	-10.8576
chow	-10.8576
▁Wei	-10.8579
▁richtete	-10.8582
▁Geist	-10.8583
▁hierfür	-10.8584
aut	-10.859
▁Tau	-10.8592
Meisterschaft	-10.8593
▁Patent	-10.8594
▁Dol	-10.8596
▁Bart	-10.8598
▁leistete	-10.8599
▁Mos	-10.8599
katholischen	-10.8599
IP	-10.86
▁Schaf	-10.8607
sprung	-10.8607
▁Bedarf	-10.861
▁Pet	-10.8611
ef	-10.8612
▁Protest	-10.8613
▁Potsdam	-10.8614
▁Budapest	-10.8619
▁Gebäudes	-10.862
▁Juan	-10.8621
▁Exil	-10.8621
▁Gabriel	-10.8623
Do	-10.8624
▁Epi	-10.8625
borg	-10.8625
▁Alters	-10.8625
fisch	-10.8628
stel	-10.8629
▁Grau	-10.8632
marsch	-10.8633
rest	-10.8636
speicher	-10.8636
▁Europas	-10.8641
▁schwarzen	-10.8646
▁Eroberung	-10.8646
▁Maß	-10.8647
▁heran	-10.8648
lass	-10.8649
▁Risiko	-10.8656
▁Hagen	-10.866
▁Hut	-10.8663
landes	-10.8663
▁Belagerung	-10.8666
▁Bull	-10.8666
▁43	-10.8667
Cl	-10.8667
▁Ausstellungen	-10.8669
▁Galerie	-10.8669
dler	-10.867
ín	-10.8676
Ur	-10.8678
▁usw	-10.8686
▁Zusatz	-10.8686
▁Sonntag	-10.8688
▁Adel	-10.8691
groß	-10.8692
▁möglichen	-10.8698
nacht	-10.8698
aten	-10.8703
▁Minute	-10.871
▁erwartet	-10.8712
▁lagen	-10.8713
▁Western	-10.8713
▁Versorgung	-10.8714
Regiment	-10.8715
einkommen	-10.8716
▁Reihen	-10.8724
stufen	-10.8726
▁Diplomat	-10.8728
energie	-10.8731
▁sechsten	-10.8732
▁geringe	-10.8733
▁berichtete	-10.8735
▁Wohnhaus	-10.8737
▁Matthias	-10.8739
phe	-10.8739
▁Erster	-10.8742
▁You	-10.8743
▁Flagge	-10.8745
▁Horst	-10.8745
▁schwarze	-10.8746
lob	-10.8746
▁wirklich	-10.8748
▁Lev	-10.8751
▁Runden	-10.8752
▁kurzzeitig	-10.8752
schwer	-10.8753
▁Pastor	-10.8754
▁Liter	-10.8755
▁Ausführung	-10.8758
▁Eier	-10.876
▁Research	-10.8762
hel	-10.8763
▁Inneren	-10.8763
▁gegliedert	-10.8765
Spi	-10.8765
▁Verfolgung	-10.8765
geordnet	-10.877
▁Schwierigkeiten	-10.8771
▁wirkt	-10.8772
▁Dienste	-10.8777
▁Tan	-10.8778
rolle	-10.8782
konzept	-10.8784
RS	-10.8785
▁finanziellen	-10.879
▁É	-10.8793
▁Seen	-10.8793
Bundesstaat	-10.8793
▁Abtei	-10.8793
▁zugunsten	-10.8793
▁Männern	-10.8795
▁Verdienste	-10.8795
▁Zuvor	-10.8797
▁kurzer	-10.8798
komplex	-10.8799
▁entdeckte	-10.8799
mä	-10.8801
▁Rajon	-10.8802
▁Schacht	-10.8804
aux	-10.8804
▁Sc	-10.8809
AB	-10.8809
ierende	-10.8814
▁Moor	-10.8815
▁Rie	-10.8816
▁Karte	-10.8817
▁Dia	-10.8818
▁eigentlichen	-10.8822
back	-10.8822
▁Gall	-10.8824
sfeld	-10.8825
▁bauen	-10.8825
▁äußerst	-10.8826
▁ständig	-10.8829
▁Chile	-10.8832
▁Ach	-10.8833
▁1806	-10.8835
pos	-10.8836
lot	-10.8838
▁Landkreises	-10.884
ecke	-10.884
▁Führungs	-10.8841
▁aufzu	-10.8842
tieren	-10.8848
▁Š	-10.8848
▁polnische	-10.8851
▁kämpfte	-10.8853
Verlag	-10.8854
▁Stift	-10.8856
▁Oldenburg	-10.8857
▁Navy	-10.8857
bericht	-10.8859
▁Kindheit	-10.8861
▁Sto	-10.8861
▁angepasst	-10.8862
glas	-10.8863
▁Bereiche	-10.8864
ES	-10.8865
▁Bald	-10.8866
▁Bla	-10.8874
▁Fortsetzung	-10.8875
▁bestehend	-10.8875
▁Rob	-10.8876
ima	-10.8877
▁52	-10.888
▁Tatsache	-10.8881
▁Schicksal	-10.8882
Cha	-10.8882
▁Lord	-10.8884
änd	-10.8886
▁DVD	-10.8886
▁Bischofs	-10.8887
▁Fra	-10.8888
▁Blätter	-10.8889
bedarf	-10.889
DP	-10.889
▁Becken	-10.8891
▁zusammengefasst	-10.8891
▁Spar	-10.8891
▁Luxemburg	-10.8893
mor	-10.8895
▁fertig	-10.8899
▁Aufenthalt	-10.8902
▁Grundstück	-10.8904
hardt	-10.8905
lor	-10.8905
▁anti	-10.8907
▁Kritiker	-10.8909
▁Alkohol	-10.8909
▁Pie	-10.8912
▁betroffen	-10.8912
▁Kreises	-10.8914
▁beruht	-10.8915
▁Kla	-10.8916
▁aktuelle	-10.8917
▁Oster	-10.8918
▁behielt	-10.8919
▁Kolonial	-10.8921
▁bayerischen	-10.8926
▁Istanbul	-10.8927
▁Kinos	-10.8929
▁typische	-10.893
verbände	-10.893
archiv	-10.8933
Ca	-10.8933
▁Redakteur	-10.8933
▁süd	-10.8933
Mon	-10.8934
▁Bauten	-10.8935
▁Est	-10.8936
dreh	-10.8937
▁Hoffnung	-10.8937
▁Henri	-10.8937
▁Bibel	-10.8937
▁Jones	-10.8939
▁Tim	-10.8939
lassen	-10.894
▁ost	-10.8942
▁gestaltete	-10.8944
▁gekennzeichnet	-10.8945
▁Christ	-10.8945
▁Segel	-10.8945
▁bedroht	-10.8947
cle	-10.8947
cus	-10.895
▁Dialekt	-10.8951
▁Musical	-10.8951
▁Anlass	-10.8953
▁Hinzu	-10.8955
▁Ortsteile	-10.8957
Musik	-10.8957
▁Ce	-10.8958
▁musikalische	-10.8961
▁bedeckt	-10.8963
▁verpasste	-10.8963
verlauf	-10.8963
▁Haltung	-10.8964
▁Iran	-10.8967
gest	-10.8968
▁Town	-10.8969
▁Südlich	-10.8972
Liga	-10.8972
▁Kräfte	-10.8974
▁Milch	-10.8975
handlung	-10.8977
▁geteilt	-10.8978
anda	-10.8979
400	-10.898
▁angesiedelt	-10.8981
▁gestorben	-10.8983
▁Marc	-10.8984
Gu	-10.8984
elf	-10.8986
dam	-10.8986
▁künstlerische	-10.8987
▁Hauptort	-10.8988
pin	-10.8989
▁geschützt	-10.8989
▁Beispiele	-10.899
▁bekleidete	-10.8991
En	-10.8995
▁gezwungen	-10.8996
▁restlichen	-10.8998
▁Mei	-10.8999
▁äußeren	-10.9001
▁Florida	-10.9003
muster	-10.9012
staaten	-10.9012
▁allgemeine	-10.9016
ografisch	-10.9016
tner	-10.9018
▁Akt	-10.9019
▁ziehen	-10.9019
▁abgebrochen	-10.902
gesellschaften	-10.902
▁vorgenommen	-10.9025
▁Blues	-10.9026
▁natur	-10.9027
iff	-10.9032
att	-10.9033
▁Kr	-10.9034
α	-10.9034
▁Spuren	-10.9037
Ad	-10.9037
▁Sk	-10.9038
▁praktisch	-10.9038
bol	-10.9039
▁1856	-10.9049
kriegs	-10.9053
feier	-10.9053
▁110	-10.9053
AR	-10.9054
▁Mühlen	-10.9054
▁durchsetzen	-10.9058
häusern	-10.9059
▁Hallen	-10.9059
▁Beton	-10.906
▁Gottfried	-10.9061
▁begründet	-10.9061
management	-10.9064
▁Luc	-10.9066
gli	-10.907
▁Mount	-10.9072
cer	-10.908
▁Cur	-10.9081
agne	-10.9081
▁dauerte	-10.9086
ili	-10.9087
▁Aufstand	-10.9088
klär	-10.9088
▁Heu	-10.909
▁Ford	-10.9092
anteil	-10.9094
▁Sin	-10.9095
▁grau	-10.9097
▁wählte	-10.9098
▁Schwanz	-10.9099
▁Ärzte	-10.9102
laut	-10.9108
era	-10.9109
SP	-10.911
▁elektrische	-10.9111
phase	-10.9111
uhr	-10.9116
▁dürfte	-10.9117
tags	-10.9119
öpf	-10.912
▁diskutiert	-10.9121
San	-10.9121
wirken	-10.9121
▁Tennis	-10.9123
▁She	-10.9124
▁Europäische	-10.9127
▁On	-10.9127
▁Geheim	-10.9129
iana	-10.913
▁Kri	-10.9132
▁Cro	-10.9135
Kar	-10.9137
Um	-10.9137
sti	-10.9138
ologe	-10.9139
mie	-10.9141
▁1803	-10.9141
▁Stich	-10.9144
eder	-10.9148
▁beauftragt	-10.915
▁1859	-10.915
▁Auffassung	-10.9151
▁Verlags	-10.9154
offizier	-10.9154
▁bevorzugt	-10.9155
▁Brun	-10.9157
▁Erfahrung	-10.9159
gemäß	-10.916
ute	-10.9168
stamm	-10.9169
▁Sh	-10.917
▁angebaut	-10.9173
▁Übertragung	-10.9176
▁qualifizierte	-10.918
▁Virginia	-10.918
▁Dollar	-10.9182
Sport	-10.9184
▁Einen	-10.9184
graph	-10.9185
karte	-10.9187
szene	-10.9187
▁traditionell	-10.9191
▁Leser	-10.9193
nor	-10.9193
▁Klinik	-10.9193
▁Aufmerksamkeit	-10.9194
▁betrieb	-10.9196
bett	-10.9197
größe	-10.9202
▁Bucht	-10.9202
ava	-10.9203
still	-10.9206
AT	-10.9206
schiffe	-10.9206
versuch	-10.9207
▁Haushalts	-10.9208
idi	-10.9209
Verein	-10.9211
▁begründete	-10.9212
weis	-10.9215
▁Willi	-10.9215
handels	-10.9215
walde	-10.922
▁Gebirgs	-10.9223
«	-10.9226
CD	-10.9227
▁Victoria	-10.9227
▁Tabelle	-10.9229
▁klassische	-10.9229
▁Regeln	-10.9229
▁Vin	-10.923
lö	-10.923
una	-10.923
▁erfolgreiche	-10.9233
▁abgelehnt	-10.9234
riss	-10.9236
▁installiert	-10.9237
▁Landtagswahl	-10.9237
ierbar	-10.9239
▁umgesetzt	-10.9241
start	-10.9241
▁direkten	-10.9243
beruf	-10.9243
▁eigentliche	-10.9245
vorstand	-10.9245
lé	-10.925
gelagert	-10.9252
aj	-10.9252
▁reichte	-10.9254
sto	-10.9257
pri	-10.9258
ʿ	-10.9259
grenzen	-10.9259
rick	-10.9259
auftritt	-10.9261
▁Aussagen	-10.9261
bur	-10.9265
▁Harry	-10.9265
▁Gil	-10.9267
▁Mund	-10.9267
gebrochen	-10.9268
▁Normal	-10.927
has	-10.9275
ente	-10.9278
▁beinhaltet	-10.9278
fels	-10.9279
▁Has	-10.9281
▁Shi	-10.9281
▁Gedichte	-10.9281
▁wächst	-10.9282
▁ermöglichte	-10.9282
▁natürliche	-10.9283
▁sub	-10.9287
▁Fred	-10.9289
▁Brüssel	-10.929
▁Sende	-10.929
sorg	-10.9291
▁genaue	-10.93
einrichtungen	-10.93
▁Falle	-10.9303
schön	-10.9304
▁Tur	-10.9306
▁Königsberg	-10.931
▁Typs	-10.9311
▁bedeutenden	-10.9312
▁Identität	-10.9312
sein	-10.9313
▁Definition	-10.9314
▁dominiert	-10.9316
wohn	-10.9318
и	-10.9322
▁Kau	-10.9325
▁markiert	-10.933
Rot	-10.9331
▁Produzent	-10.9332
sia	-10.9332
▁Falk	-10.9334
▁Ich	-10.9335
▁dienten	-10.9336
▁Gross	-10.9337
▁geplanten	-10.9337
▁Südamerika	-10.9339
▁Hy	-10.9342
▁persönlichen	-10.9343
firma	-10.9343
Buch	-10.9343
▁Charts	-10.9345
▁braun	-10.9346
▁Teich	-10.9349
▁Senator	-10.9349
▁Antrag	-10.9351
eli	-10.9351
▁Angel	-10.9353
▁kündigte	-10.9354
▁Sil	-10.9356
▁Organ	-10.9358
geräte	-10.9358
▁Dorn	-10.9359
▁fehlt	-10.936
förmigen	-10.936
stoß	-10.936
DR	-10.9362
▁gewidmet	-10.9364
medizin	-10.9364
▁Wy	-10.9365
See	-10.9368
▁Bürgerkrieg	-10.9369
▁Wales	-10.9372
▁Rau	-10.9375
▁Dietrich	-10.9378
▁Castle	-10.938
Division	-10.9382
Österreichischen	-10.9382
Min	-10.9382
▁Rückzug	-10.9383
Ti	-10.9385
fon	-10.9385
▁Fried	-10.9385
▁festgestellt	-10.9386
aya	-10.9387
würdig	-10.9392
▁Schwestern	-10.9393
▁übte	-10.9394
hem	-10.9394
kirch	-10.9395
▁Fernsehserie	-10.9395
▁berücksichtigt	-10.9397
▁Mut	-10.9397
▁Erhaltung	-10.9404
▁Kaufmann	-10.9405
enthal	-10.9406
gefährlich	-10.9407
Marathon	-10.9407
▁Fehl	-10.941
▁inneren	-10.941
srecht	-10.9412
▁australischen	-10.9412
sis	-10.9416
▁Rettungs	-10.9419
AD	-10.9423
kasse	-10.9427
▁antrat	-10.9428
▁Änderungen	-10.9429
▁Stärke	-10.9432
▁verwenden	-10.9432
raub	-10.9437
▁Zulassung	-10.9438
singen	-10.9439
▁Last	-10.944
bauer	-10.9443
Richtung	-10.9443
▁Kir	-10.9447
▁Einzug	-10.9447
▁Davis	-10.945
▁inter	-10.9451
liegenden	-10.9451
▁menschlichen	-10.9452
▁51	-10.9453
▁Flach	-10.9453
▁tun	-10.9456
▁anschließenden	-10.9457
verbindungen	-10.9457
▁Auftritte	-10.946
▁bezogen	-10.9461
hlen	-10.9462
▁46	-10.9467
▁Kopenhagen	-10.9468
ole	-10.9469
sicherheit	-10.9469
▁aufmerksam	-10.947
▁ex	-10.9472
spruch	-10.9473
▁1854	-10.9473
jähriger	-10.9476
▁Einkommen	-10.9477
▁Deck	-10.9477
▁Finanzierung	-10.9482
SA	-10.9482
▁erfährt	-10.9482
▁Enkel	-10.9484
shausen	-10.9485
▁Old	-10.9486
vil	-10.9487
▁Masse	-10.9491
strecken	-10.9492
ito	-10.9493
cor	-10.9496
rät	-10.9501
aktiv	-10.9504
▁Areal	-10.9505
▁1852	-10.9505
▁Leipziger	-10.9507
▁welchem	-10.9507
nische	-10.9508
straf	-10.9509
▁weiße	-10.951
▁Treffen	-10.9511
▁überraschend	-10.9511
ologische	-10.9513
▁Ist	-10.9513
▁roten	-10.9513
sender	-10.9514
▁49	-10.9515
fr	-10.9515
▁Fertigstellung	-10.9516
link	-10.9516
än	-10.9517
▁Jahrzehnte	-10.9519
▁freiwillig	-10.952
eo	-10.9521
▁Kommunikation	-10.9523
▁Tokio	-10.9524
kräfte	-10.9524
▁schützen	-10.9525
▁Krebs	-10.9525
▁Ausbildungs	-10.9526
▁Por	-10.9528
▁130	-10.9529
ange	-10.9529
▁Generalmajor	-10.9531
▁Testament	-10.9532
▁Francis	-10.9533
▁Talent	-10.9534
▁eingestuft	-10.9535
▁Umfeld	-10.9535
▁Albums	-10.9535
iano	-10.9537
▁3000	-10.9538
Kultur	-10.9542
▁Samuel	-10.9543
grenz	-10.9544
ensis	-10.9546
▁Nie	-10.9548
ario	-10.9551
laufend	-10.9552
▁Moritz	-10.9555
▁Durchbruch	-10.9557
▁Central	-10.9561
▁keiner	-10.9565
chten	-10.9568
fahrten	-10.9573
pflanzen	-10.9577
nu	-10.9577
▁Seinen	-10.9577
iti	-10.9579
cre	-10.9581
geschnitten	-10.9582
waffen	-10.9583
▁Jesus	-10.9584
kind	-10.9587
▁brachten	-10.9587
▁Gelegenheit	-10.9589
metall	-10.9594
▁Klang	-10.9595
club	-10.9595
▁vorübergehend	-10.9596
▁Spe	-10.9603
▁Premiere	-10.9606
▁Evangelischen	-10.9606
unt	-10.9607
stoffe	-10.9608
▁Tiefe	-10.9609
signal	-10.9609
aceae	-10.961
PS	-10.9611
sucht	-10.9612
▁umfassende	-10.9613
zeitschrift	-10.9613
▁1855	-10.9615
▁gewöhnlich	-10.9615
ulation	-10.9615
▁abgegeben	-10.9616
förderung	-10.9618
▁scharf	-10.962
owitsch	-10.9621
▁Grundschule	-10.9622
▁Stan	-10.9622
▁persönliche	-10.9625
▁Dreißigjährigen	-10.9625
▁Ott	-10.9626
▁aufgehoben	-10.9628
▁Konferenz	-10.9628
ht	-10.9629
▁Diözese	-10.963
ous	-10.963
▁Jackson	-10.9634
▁Schm	-10.9639
rak	-10.964
▁kulturelle	-10.964
▁Bett	-10.9642
▁Moment	-10.9642
▁setzen	-10.9642
▁Nah	-10.9642
gy	-10.9643
ê	-10.9645
▁beginnen	-10.9649
▁Auge	-10.9649
▁Drama	-10.9651
▁Freizeit	-10.9652
▁Warschau	-10.9654
▁Q	-10.9655
test	-10.9658
▁zweier	-10.9659
▁Pionier	-10.9662
stall	-10.9662
▁Maximilian	-10.9666
isierten	-10.9666
▁Telefon	-10.9666
Saint	-10.9668
▁herum	-10.9669
▁Früchte	-10.967
▁üblichen	-10.967
aba	-10.9672
ehn	-10.9673
▁englischer	-10.9673
▁ausgeschlossen	-10.9674
▁Bat	-10.9676
lt	-10.968
▁Analyse	-10.9681
▁Komödie	-10.9681
▁Lange	-10.9682
▁Mü	-10.9683
tiert	-10.9683
▁Verbot	-10.9685
ila	-10.9686
▁Anforderungen	-10.9687
▁Langen	-10.9689
cin	-10.9689
▁Reisen	-10.969
▁Mas	-10.9692
▁liegende	-10.9693
▁Highway	-10.9694
▁Verantwortung	-10.9696
▁antiken	-10.9698
gott	-10.9698
▁Schwert	-10.9701
▁Bir	-10.9703
▁offene	-10.9707
▁Amtsgericht	-10.9711
▁Hat	-10.9712
eller	-10.9718
▁Law	-10.9719
chin	-10.9719
▁Annahme	-10.9719
fu	-10.9721
▁Nördlich	-10.9721
pal	-10.9721
▁Entdeckung	-10.9724
rey	-10.9724
▁Mittelmeer	-10.9726
olf	-10.9726
▁frühe	-10.9728
schritt	-10.9728
▁Hein	-10.9735
▁Volksschule	-10.9736
ua	-10.9737
spar	-10.9737
▁Betriebe	-10.9738
gna	-10.9738
upp	-10.9738
▁Cer	-10.9739
gestalt	-10.974
omi	-10.974
air	-10.9742
▁Council	-10.9743
Cor	-10.9743
▁1857	-10.9745
▁unge	-10.9748
▁Versuche	-10.9749
▁Berge	-10.9753
▁Ulm	-10.9753
lit	-10.9754
▁Folgezeit	-10.9754
▁Siedlungen	-10.9759
trakt	-10.9761
▁Schlaf	-10.9761
▁Charlotte	-10.9762
▁Johnson	-10.9766
mir	-10.9766
▁Hinweis	-10.9768
▁Oblast	-10.9773
üb	-10.9775
wachsen	-10.9777
▁stillgelegt	-10.9777
aga	-10.9777
lekt	-10.978
▁Ruhr	-10.978
▁Tha	-10.9782
▁erfasst	-10.9782
stal	-10.9783
_5	-10.9783
▁Bahnhofs	-10.9785
▁Messe	-10.9786
▁Ausgaben	-10.979
▁unver	-10.979
breitungsgebiet	-10.9792
katholische	-10.9795
usch	-10.9795
▁evangelisch	-10.9797
pra	-10.9798
sprachen	-10.9799
▁Vorstellung	-10.98
▁Schäden	-10.9801
runden	-10.9802
▁regionalen	-10.9803
▁Ry	-10.9803
▁Ähnlich	-10.9807
▁Austausch	-10.981
▁Indianer	-10.981
grab	-10.9812
▁Bündnis	-10.9812
▁Studiums	-10.9812
▁Geo	-10.9813
▁Rou	-10.9814
▁Fan	-10.9815
▁Hay	-10.9817
▁Tournee	-10.9819
blau	-10.982
▁erinnern	-10.9823
tl	-10.9828
mand	-10.9831
Fi	-10.9831
vertretung	-10.9836
hagen	-10.9836
▁Lü	-10.9837
▁Mengen	-10.9838
▁Episoden	-10.984
rk	-10.984
tau	-10.984
▁Häusern	-10.984
▁Kim	-10.984
▁Mars	-10.984
▁Wellen	-10.9841
▁Infrastruktur	-10.9841
▁Flusses	-10.9842
▁Vorsitzenden	-10.9843
▁47	-10.9843
▁Gesetzes	-10.9843
▁Pennsylvania	-10.9846
kus	-10.9847
träge	-10.9849
▁Stationen	-10.985
▁Werft	-10.9851
▁veranstaltet	-10.9852
more	-10.9853
▁verstorbenen	-10.9857
▁Gran	-10.9857
▁Briten	-10.9862
▁erbaute	-10.9866
▁Manager	-10.9866
▁It	-10.9866
▁Glauben	-10.9868
kant	-10.9869
▁lokale	-10.9869
ssel	-10.9873
▁niedriger	-10.9878
verhältnis	-10.9879
▁Politisch	-10.988
▁Streifen	-10.9883
▁Änderung	-10.9887
seits	-10.9887
MS	-10.9888
▁weibliche	-10.9895
▁Cas	-10.9895
Bra	-10.9902
▁Räume	-10.9902
▁Stadtbezirk	-10.9903
▁Meistertitel	-10.9907
▁Adler	-10.9908
▁diversen	-10.991
▁Straßburg	-10.9912
▁Abstammung	-10.9914
▁gelingt	-10.9914
▁Ozean	-10.9916
Theater	-10.9917
▁Flur	-10.9917
▁Diskussion	-10.9918
▁kleines	-10.9919
weichen	-10.9919
▁Fast	-10.992
▁Provinzen	-10.9921
▁Ämter	-10.9922
Ent	-10.9922
▁1858	-10.9926
▁daneben	-10.9926
▁Grundriss	-10.9927
▁Duisburg	-10.9931
vir	-10.9932
DE	-10.9933
▁Geschlecht	-10.9933
vermögen	-10.9933
▁Strukturen	-10.9934
kamera	-10.9937
stru	-10.9938
▁Dafür	-10.9942
▁ergab	-10.9944
▁läuft	-10.9947
▁Forscher	-10.9948
▁Vorteil	-10.9949
wei	-10.9949
SPD	-10.995
instrument	-10.9952
med	-10.9956
▁mögliche	-10.9959
gehoben	-10.9959
▁Bade	-10.996
▁woraufhin	-10.9962
Op	-10.9963
krat	-10.9963
▁Ruder	-10.9965
▁Legende	-10.9966
braun	-10.9966
Klein	-10.9966
▁Million	-10.9966
▁Lebensjahr	-10.997
ain	-10.9974
▁Katharina	-10.9975
▁durchaus	-10.9975
▁Inhaber	-10.9978
Pol	-10.9978
▁Folgende	-10.9978
▁Felsen	-10.9981
▁Spo	-10.9982
hafte	-10.9984
▁erfuhr	-10.9985
rische	-10.9985
▁Frucht	-10.9985
▁spanische	-10.9986
▁Felix	-10.9987
show	-10.9991
geschlagen	-10.9992
EC	-10.9994
planung	-10.9995
fra	-10.9996
▁Peters	-10.9997
▁Tafel	-10.9998
sey	-11
▁Eva	-11
bie	-11
eira	-11.0001
Tschechoslowakei	-11.0002
ständige	-11.0002
regen	-11.0002
PA	-11.0006
sin	-11.0006
▁Summe	-11.0007
▁1813	-11.0008
brücken	-11.001
cio	-11.001
▁Graben	-11.0012
basis	-11.0016
onia	-11.002
jung	-11.002
weisen	-11.0021
▁Bochum	-11.0021
▁Brauerei	-11.0022
oy	-11.0023
▁vielfach	-11.0026
iller	-11.0027
▁Zusammenschluss	-11.0029
▁Drogen	-11.0032
gre	-11.0035
ström	-11.0035
▁ferner	-11.0037
▁sammelte	-11.004
▁außerordentlich	-11.004
stehende	-11.0041
▁Direkt	-11.0043
hä	-11.0043
gebirge	-11.0044
nah	-11.0046
▁Gesicht	-11.0049
mächtig	-11.0049
SE	-11.005
ray	-11.005
▁verhindert	-11.0055
▁Blumen	-11.0058
uv	-11.006
▁Pseudonym	-11.006
ufer	-11.006
▁bewohnt	-11.0061
▁Yo	-11.0063
▁Ple	-11.0064
▁zeichnete	-11.0065
▁fahren	-11.0068
▁ZDF	-11.0069
oren	-11.0069
▁Französisch	-11.007
▁Sprung	-11.0071
▁Turn	-11.0072
sagen	-11.0072
bühne	-11.0073
kühl	-11.0074
gab	-11.0075
ère	-11.0076
ries	-11.0076
▁Gäste	-11.0079
▁Miet	-11.008
nit	-11.008
ão	-11.0082
▁gering	-11.0082
▁Sowohl	-11.0084
tanz	-11.0085
▁Tabellen	-11.0085
tiefe	-11.0085
box	-11.0089
Metal	-11.0091
▁1816	-11.0092
armee	-11.0092
sicherung	-11.0095
gie	-11.0096
kenn	-11.0098
vereinigung	-11.01
▁Blas	-11.0103
iko	-11.0104
▁lieferte	-11.0105
▁Fachwerk	-11.0107
▁Kenn	-11.0108
▁Verleihung	-11.011
▁Ihm	-11.0112
▁Palm	-11.0113
leit	-11.0115
LP	-11.0116
sprechen	-11.0117
▁silberne	-11.0118
▁Ari	-11.0118
ausschuss	-11.0119
▁tiefer	-11.012
weih	-11.0121
▁Mitbegründer	-11.0121
typen	-11.0121
$	-11.0126
Mark	-11.0126
▁700	-11.0127
lagerung	-11.0128
▁Hö	-11.0128
▁befasste	-11.0133
▁Hochzeit	-11.0133
ration	-11.0133
▁Laub	-11.0135
schreibung	-11.0138
▁Sau	-11.0139
gehalt	-11.014
▁Täter	-11.0142
zeitung	-11.0142
dit	-11.0142
▁Ziegel	-11.0147
▁Strand	-11.0148
▁Redaktion	-11.0149
charakteristisch	-11.015
▁Wahrheit	-11.015
▁Oxford	-11.015
▁erzielt	-11.0151
legt	-11.0153
▁Bruno	-11.0155
hab	-11.0155
War	-11.0157
▁Einzugsgebiet	-11.0159
▁Wiesbaden	-11.0159
▁Siedler	-11.016
▁Pul	-11.0163
▁Mike	-11.0169
▁André	-11.0171
▁1851	-11.0171
▁Bundestag	-11.0173
fertig	-11.0177
▁Lok	-11.0177
▁Einsätze	-11.0178
▁1845	-11.0179
▁Lar	-11.0183
▁Himmel	-11.0183
▁Wähler	-11.0184
gio	-11.0184
▁Gedanken	-11.0185
▁Sho	-11.0186
▁lebenden	-11.0189
▁alter	-11.0192
▁Geschäft	-11.0195
▁bezüglich	-11.0201
König	-11.0202
rup	-11.0202
▁Giovanni	-11.0204
Tour	-11.0204
▁plötzlich	-11.0206
▁verwendeten	-11.0207
ple	-11.0208
▁Verbindungs	-11.0209
▁Korn	-11.021
▁sank	-11.021
Hoch	-11.021
▁Toren	-11.0211
fre	-11.0214
▁German	-11.0214
▁natürlichen	-11.0215
▁geplante	-11.0216
streit	-11.0217
wände	-11.0218
▁trafen	-11.022
▁Freundschaft	-11.0222
tour	-11.0223
▁geöffnet	-11.0224
▁Langhaus	-11.0225
nel	-11.0227
▁Jar	-11.0227
▁manchen	-11.0227
▁Weihnachts	-11.0229
bacher	-11.0229
▁Einsätzen	-11.0229
▁Massachusetts	-11.0234
isse	-11.0235
rio	-11.0236
▁Bergen	-11.0243
hai	-11.0244
▁römische	-11.0244
▁schlecht	-11.0244
SO	-11.0247
▁Gla	-11.0247
▁Bergwerk	-11.0249
lus	-11.0252
▁Kandidat	-11.0254
о	-11.0256
wild	-11.0257
▁Bert	-11.0258
▁Integration	-11.0263
AN	-11.0265
▁Böhmen	-11.0265
wappen	-11.0269
▁Umgang	-11.0269
▁Frequenz	-11.0271
▁Sing	-11.0271
▁hinten	-11.0272
▁Kommunalwahl	-11.0276
▁Kle	-11.0279
▁Sea	-11.0279
steine	-11.0279
▁verlieh	-11.028
ausgabe	-11.0281
▁Demokratischen	-11.0284
▁westliche	-11.0284
äh	-11.0285
▁Flo	-11.0286
Platz	-11.0287
zügen	-11.0289
▁Hund	-11.0292
▁Jen	-11.0294
▁Verhältnisse	-11.0294
▁zweites	-11.0294
▁Bou	-11.0298
▁Spielzeiten	-11.0299
▁Loch	-11.0303
sgesetz	-11.0303
▁1847	-11.0304
▁Beamten	-11.0304
▁Vir	-11.0305
▁Württemberg	-11.0305
icus	-11.0306
zent	-11.0308
▁Kranken	-11.0309
▁Erdgeschoss	-11.0311
tagen	-11.0311
▁Eberhard	-11.0312
▁Getreide	-11.0313
tom	-11.0316
▁Code	-11.0318
International	-11.032
zio	-11.032
▁Sound	-11.0321
▁Abbau	-11.0323
▁Erbe	-11.0324
▁Nachkommen	-11.0324
▁abschloss	-11.0324
▁rückte	-11.0327
▁Künstlern	-11.0332
▁Kult	-11.0334
Bar	-11.0338
▁Werkstatt	-11.0338
Mor	-11.0347
▁Verteidiger	-11.0347
▁Bernard	-11.0347
▁Schaden	-11.0348
Th	-11.0348
RA	-11.0348
▁Schülern	-11.0349
Qu	-11.0349
▁Keramik	-11.0355
ühl	-11.0357
dé	-11.0358
▁Datum	-11.0359
▁ausgerüstet	-11.036
mu	-11.0361
▁gewisse	-11.0362
Bl	-11.0363
▁Ray	-11.0364
▁entscheiden	-11.0365
▁formal	-11.0365
cks	-11.0367
gerechnet	-11.0368
nov	-11.037
▁Positionen	-11.0374
▁Bestimmung	-11.0376
▁überzeugt	-11.0377
zweig	-11.0379
pokal	-11.0381
MP	-11.0381
wegen	-11.0381
▁Stunde	-11.0383
effekt	-11.0385
▁Dresdner	-11.0386
▁Landrat	-11.0387
det	-11.0388
▁Río	-11.039
stor	-11.0391
▁Wesen	-11.0392
▁Prinzessin	-11.0392
▁Publikationen	-11.0394
▁Sitzung	-11.04
tums	-11.04
AM	-11.0401
vent	-11.0401
▁hängt	-11.0403
▁schottischen	-11.0407
▁abgebaut	-11.0407
▁Schuld	-11.0409
erie	-11.0409
figuren	-11.0411
▁Jugendliche	-11.0411
▁Run	-11.0411
serv	-11.0412
▁traditionelle	-11.0413
▁Eb	-11.0413
▁Kontakte	-11.0414
▁Sechs	-11.0415
onnen	-11.0416
stellt	-11.0417
▁entschloss	-11.0419
▁Darstellungen	-11.0419
Tal	-11.0421
▁dank	-11.0422
▁voran	-11.0425
frau	-11.0428
▁Motoren	-11.0431
▁Jury	-11.0432
▁Hollywood	-11.0434
▁Philosoph	-11.0434
▁gaben	-11.0436
▁1846	-11.0436
Museum	-11.0437
▁Point	-11.0439
▁registriert	-11.0441
lings	-11.0443
▁Dank	-11.0446
gerecht	-11.0446
hauptstadt	-11.0447
assi	-11.0448
▁Dokumentation	-11.0449
▁Rechnung	-11.045
▁finanzielle	-11.0451
Persönlichkeiten	-11.0454
▁Ministerium	-11.0456
▁all	-11.0462
dik	-11.0464
▁entwarf	-11.0464
Gra	-11.0465
▁dünn	-11.0465
▁meistens	-11.0466
▁aktuell	-11.0467
▁setzten	-11.0467
▁Awards	-11.047
▁versorgt	-11.0471
lokal	-11.0472
▁Vit	-11.0474
▁besiegte	-11.0474
ske	-11.0474
▁Varianten	-11.0474
▁Kriegsgefangen	-11.0477
▁Giebel	-11.0478
▁gleicher	-11.048
▁Vorrunde	-11.048
aufnahme	-11.048
▁Österreichs	-11.0482
▁Flu	-11.0486
▁Vulkan	-11.0487
▁Kanzel	-11.0487
▁Ursache	-11.0489
▁Porträt	-11.049
ligen	-11.0491
▁Durchführung	-11.0493
ami	-11.0493
▁Thron	-11.0494
▁verfügen	-11.0495
”	-11.0498
▁Blei	-11.0499
▁Systems	-11.0503
▁Sanierung	-11.0503
▁NGC	-11.0504
▁God	-11.0506
▁breiter	-11.0506
▁Committee	-11.0507
▁Hau	-11.0507
▁schlossen	-11.0508
▁Victor	-11.0509
▁Überreste	-11.0514
vögel	-11.0514
▁Unterscheidung	-11.0515
▁stehenden	-11.0516
bul	-11.0519
▁Chris	-11.0519
Sal	-11.052
▁Ruhe	-11.052
▁Dieter	-11.0521
kins	-11.0521
▁verstanden	-11.0522
▁endlich	-11.0525
marke	-11.0525
▁trugen	-11.0533
▁teilnehmen	-11.0534
▁1814	-11.0537
Weltmeister	-11.0538
▁konzipiert	-11.0538
▁Freundin	-11.0538
▁gefallen	-11.0539
sar	-11.054
▁religiösen	-11.054
hut	-11.0541
lei	-11.0541
▁bewegen	-11.0544
sy	-11.0544
300	-11.0545
stunden	-11.0548
eus	-11.0556
▁unterbrochen	-11.0556
herren	-11.0569
tron	-11.0569
▁Gras	-11.0569
hü	-11.0571
bereiche	-11.0571
▁Eber	-11.0573
▁Karls	-11.0573
▁südliche	-11.0573
▁Buchstaben	-11.0575
▁Glo	-11.0576
störung	-11.0576
leid	-11.0578
▁Kathedrale	-11.0579
▁Toronto	-11.0582
▁Young	-11.0583
▁Bamberg	-11.0585
▁persönlich	-11.0587
rechtlich	-11.0587
▁Interview	-11.0589
DI	-11.0589
▁Att	-11.0589
zahn	-11.059
▁Meta	-11.059
Don	-11.0592
seh	-11.0597
Werk	-11.0597
pflege	-11.0598
▁Dokumentarfilm	-11.0598
▁Tam	-11.0598
nat	-11.0599
ät	-11.06
hus	-11.0601
zeichnen	-11.0601
gesagt	-11.0601
▁betreut	-11.0602
▁Gesundheit	-11.0602
▁Preise	-11.0603
▁Berufung	-11.0604
!“	-11.0605
▁Großvater	-11.0606
kro	-11.0609
▁verarbeitet	-11.061
▁Vorläufer	-11.0611
▁1818	-11.0611
▁Vermögen	-11.0612
haften	-11.0614
▁Osnabrück	-11.0615
▁Koalition	-11.0615
bürger	-11.0615
Tra	-11.0619
▁Beschluss	-11.062
▁Institutionen	-11.0622
Russ	-11.0622
▁140	-11.0623
▁flach	-11.0623
kop	-11.0625
hängen	-11.0625
freie	-11.0625
illy	-11.0627
▁Historic	-11.0627
Comm	-11.0628
▁erreichbar	-11.0629
▁zahlreicher	-11.0629
ohn	-11.0632
Best	-11.0634
▁teilte	-11.0634
▁Sitze	-11.0635
▁Linden	-11.0636
zucht	-11.0636
▁Sieben	-11.0637
▁Territorium	-11.0641
ären	-11.0645
▁Ana	-11.0648
Wert	-11.0648
▁Willen	-11.0648
▁1853	-11.0648
▁Zehn	-11.065
▁DM	-11.065
ule	-11.065
wendung	-11.065
rechtlichen	-11.0652
ders	-11.0653
▁erschienenen	-11.0653
▁Schall	-11.0654
▁darauffolgenden	-11.0655
▁Eindruck	-11.0655
▁Auswirkungen	-11.0655
gebieten	-11.0657
▁Day	-11.0658
▁Jesu	-11.0659
politischen	-11.0662
Niederösterreich	-11.0663
ional	-11.0664
▁Mir	-11.0664
▁Tsche	-11.0664
▁Kolonie	-11.0669
▁habilitierte	-11.0669
Wü	-11.0669
▁gleichnamige	-11.0672
vgl	-11.0674
▁Fellow	-11.0674
▁gearbeitet	-11.0678
▁Armen	-11.068
cul	-11.0683
▁freier	-11.0683
▁komponierte	-11.0688
▁Ausschuss	-11.069
▁Verwaltungssitz	-11.0691
▁Saal	-11.0691
▁Lud	-11.0694
▁befasst	-11.0694
▁Dog	-11.0697
▁Systeme	-11.0698
alismus	-11.07
▁leer	-11.0701
kü	-11.0702
▁EM	-11.0702
AL	-11.0703
▁erhöhte	-11.0703
General	-11.0703
▁Gru	-11.0704
king	-11.0705
gemischt	-11.0705
▁Uraufführung	-11.0709
▁Junior	-11.071
rollen	-11.0712
helm	-11.0714
▁Vorschlag	-11.0714
wor	-11.0714
And	-11.0716
▁Andrew	-11.0718
▁USD	-11.0718
▁durchgehend	-11.0719
▁Genf	-11.072
▁Schlosses	-11.0721
Reihe	-11.0726
▁schneller	-11.0728
wünscht	-11.0728
▁Zustimmung	-11.0729
▁Grafik	-11.073
▁Ostpreußen	-11.073
▁Flugzeuge	-11.0731
▁Professur	-11.0731
▁Hauptmann	-11.0731
gewinn	-11.0734
е	-11.0737
▁Trocken	-11.0737
häu	-11.0738
▁führende	-11.0741
â	-11.0744
elemente	-11.0748
▁königlichen	-11.0748
▁mittel	-11.0749
schulen	-11.0749
▁Alte	-11.075
▁entstandenen	-11.0751
▁bisherige	-11.0752
▁Kristall	-11.0754
▁Öffnung	-11.0754
▁Ohio	-11.0754
▁vermittelt	-11.0754
▁Peking	-11.0755
▁suchte	-11.0756
▁verfasst	-11.0757
▁Ostsee	-11.0761
ace	-11.0761
wohl	-11.0761
▁Army	-11.0762
oth	-11.0763
▁oftmals	-11.0764
▁sächsischen	-11.0766
▁bewertet	-11.0768
Präsident	-11.0769
▁Obergeschoss	-11.0769
▁Stimm	-11.0771
ogen	-11.0771
▁Pokal	-11.0774
lett	-11.0775
▁Tirol	-11.0779
▁Anordnung	-11.0779
▁Stattdessen	-11.078
üng	-11.0783
▁Distanz	-11.0785
gibt	-11.0785
format	-11.0786
▁Schn	-11.0791
▁nördliche	-11.0791
orchester	-11.0792
▁Links	-11.0793
▁unterrichtet	-11.0795
blas	-11.0795
öhr	-11.0797
demokratischen	-11.0797
gelb	-11.08
osa	-11.08
aka	-11.08
werfen	-11.0801
▁Č	-11.0802
▁Längs	-11.0802
▁Gon	-11.0803
▁Dur	-11.0803
▁Angst	-11.0805
▁Präfektur	-11.0805
HL	-11.0805
küste	-11.0805
gründen	-11.0806
▁Kai	-11.0807
nutz	-11.081
bell	-11.081
▁Taylor	-11.0811
▁Heilbronn	-11.0811
▁Journalisten	-11.0813
kapital	-11.0814
intern	-11.0814
SM	-11.0815
ehr	-11.0815
springen	-11.0816
hain	-11.0817
▁Arbeitgeber	-11.0817
▁Hus	-11.0818
▁Psychologie	-11.0818
▁Fal	-11.0821
gard	-11.0821
▁zwanzig	-11.0823
therapie	-11.0824
anischen	-11.0824
▁Hochschullehrer	-11.0825
▁Insekten	-11.0825
lli	-11.0828
▁kürzer	-11.083
Familie	-11.0832
real	-11.0832
geist	-11.0833
Meister	-11.0837
Tor	-11.0838
▁Orchestra	-11.084
schaffen	-11.0842
▁Wilson	-11.0844
▁Bit	-11.0849
▁Water	-11.0849
▁Lein	-11.085
nar	-11.0851
Benz	-11.0852
▁Adels	-11.0852
▁Vieh	-11.0853
▁Besiedlung	-11.0855
fuhr	-11.0855
quellen	-11.0856
▁ausgesetzt	-11.0859
▁Sportler	-11.0861
kk	-11.0861
fassade	-11.0862
inisterpräsident	-11.0863
▁Gesangs	-11.0863
▁Preußischen	-11.0864
ison	-11.0865
▁Such	-11.0866
▁Kaisers	-11.0866
▁Aktion	-11.0869
Mont	-11.0869
itt	-11.087
gesteuert	-11.087
mak	-11.0873
▁Windows	-11.0874
▁Sophie	-11.0875
▁Schreiben	-11.0877
▁Jugoslawien	-11.0878
lern	-11.0879
utz	-11.0879
malerei	-11.0882
▁Fähigkeiten	-11.0882
stau	-11.0883
▁Schuss	-11.0884
▁Gab	-11.0885
sil	-11.0885
court	-11.0886
linge	-11.0894
Mer	-11.0896
▁Fürstentum	-11.0896
▁besetzten	-11.0896
▁vergleichbar	-11.0897
▁sucht	-11.09
▁Az	-11.0902
▁Clark	-11.0903
posten	-11.0905
▁Bands	-11.0905
▁François	-11.0908
Kolleg	-11.0909
▁Flüchtlinge	-11.0909
▁jüngere	-11.0911
professor	-11.0911
rede	-11.0913
ness	-11.0913
▁Zeitungen	-11.0913
Inter	-11.0914
konstruktion	-11.0915
▁Sperr	-11.0919
▁Handball	-11.0921
▁Restaurierung	-11.0926
ih	-11.0927
▁By	-11.093
DC	-11.0931
▁Manfred	-11.0932
▁verblieb	-11.0935
▁Therapie	-11.0938
▁Abkürzung	-11.0939
▁Ansatz	-11.0939
▁Berechnung	-11.094
dre	-11.0941
▁umliegenden	-11.0943
ę	-11.0943
seitig	-11.0944
▁Rosa	-11.0944
▁Sydney	-11.0946
▁Kapazität	-11.0948
▁Drehbuchautor	-11.0948
bit	-11.095
▁Prix	-11.095
▁Dal	-11.0951
pul	-11.0953
vet	-11.0953
zugeben	-11.0953
▁Antike	-11.0954
Wir	-11.0955
▁unterstand	-11.0956
▁Statistik	-11.0956
mitglieder	-11.0959
▁Merkmale	-11.0959
▁Misch	-11.096
▁Fil	-11.096
▁Nationalpark	-11.0966
▁Kan	-11.0967
▁bessere	-11.0968
▁Corporation	-11.097
▁schwedische	-11.0972
wärme	-11.0972
▁Gegenstand	-11.0974
▁angehörte	-11.0975
▁Med	-11.0977
▁Sig	-11.0978
▁Boy	-11.0978
wuchs	-11.0978
mis	-11.0978
▁Hey	-11.0979
▁Haushalte	-11.0979
▁Nahrung	-11.0979
any	-11.098
▁bekannteste	-11.0983
issen	-11.0986
frage	-11.0986
▁wichtig	-11.0986
▁gefeiert	-11.0989
▁verursacht	-11.099
▁Latein	-11.099
▁bezog	-11.0992
▁spezialisiert	-11.0993
▁Champions	-11.0996
SI	-11.0996
▁sagt	-11.0998
ching	-11.0998
zog	-11.0999
▁Kühl	-11.1
zustellen	-11.1
▁regionale	-11.1002
▁Pas	-11.1004
beginn	-11.1004
▁versteht	-11.1007
▁Sul	-11.1009
IC	-11.1012
ohne	-11.1013
studien	-11.1017
▁Überlieferung	-11.1017
▁Mitteleuropa	-11.102
▁+	-11.102
▁Pest	-11.1022
gegen	-11.1026
▁Gießen	-11.1026
▁Spielern	-11.1026
rund	-11.1028
▁Volksrepublik	-11.1029
▁85	-11.1031
fiel	-11.1032
leih	-11.1035
▁Ok	-11.1036
▁Motiv	-11.1037
▁Gregor	-11.1037
NS	-11.1037
▁gegenseitig	-11.1038
ija	-11.104
▁qualifizierten	-11.104
Bild	-11.1041
▁Ried	-11.1043
debüt	-11.1043
▁befindlichen	-11.1045
▁Bauch	-11.1048
▁Lieb	-11.1048
fil	-11.1049
▁Blue	-11.105
▁geregelt	-11.105
▁Las	-11.1052
katholischer	-11.1054
liegende	-11.1055
▁São	-11.1059
▁kontinuierlich	-11.1059
▁Championship	-11.1059
stellte	-11.1059
▁Sor	-11.106
mü	-11.106
▁Schützen	-11.106
rä	-11.1063
▁stammende	-11.1064
▁erzielen	-11.1064
▁erhaltenen	-11.1065
▁Auslands	-11.1066
▁helfen	-11.1066
kes	-11.1067
▁vielleicht	-11.1068
▁müsse	-11.1068
▁Letztere	-11.1068
Ju	-11.1068
▁Produzenten	-11.1069
▁One	-11.1069
Gemeinde	-11.1072
▁ähnelt	-11.1072
zuführen	-11.1073
▁historisch	-11.1079
▁Münz	-11.1079
▁künftig	-11.108
▁Besonderheit	-11.1082
▁Seg	-11.1082
▁Geschichten	-11.1084
tori	-11.1084
▁Saar	-11.1086
▁1820	-11.1087
heben	-11.1088
betriebe	-11.109
▁Mes	-11.1092
col	-11.1092
▁Markus	-11.1092
sarbeiten	-11.1093
▁Schienen	-11.1093
Hel	-11.1094
▁Elbe	-11.1097
RE	-11.1097
ingenieur	-11.1098
ough	-11.11
Ja	-11.1101
▁Befreiung	-11.1102
wellen	-11.1103
▁Vers	-11.1104
▁verbesserte	-11.1104
▁musikalischen	-11.1105
▁künstlerischen	-11.1106
LA	-11.1107
▁meine	-11.1112
▁männlichen	-11.1112
holt	-11.1112
▁sowjetische	-11.1113
ausschusses	-11.1113
uro	-11.1114
vogel	-11.1116
▁56	-11.1118
liches	-11.1122
▁Nordost	-11.1123
▁vermehrt	-11.1127
ikan	-11.1129
▁begleitete	-11.1131
▁1843	-11.1131
leiden	-11.1133
▁Knoten	-11.1139
▁1832	-11.114
▁Kunststoff	-11.114
▁Busch	-11.114
▁weiblichen	-11.1143
▁Partie	-11.1143
▁Kel	-11.1144
gezeichnet	-11.1145
haut	-11.1145
▁Ay	-11.1147
angebot	-11.1149
▁schreiben	-11.115
▁Einflüsse	-11.1152
▁1810	-11.1152
▁gesammelt	-11.1154
TA	-11.1155
▁Schar	-11.1155
▁erlitt	-11.1158
▁Spät	-11.1159
▁Hauptbahnhof	-11.1159
maßnahmen	-11.116
▁Schwarzen	-11.1161
▁Schicht	-11.1162
km	-11.1162
▁Geschäfte	-11.1163
siedel	-11.1164
ringen	-11.1164
▁Zellen	-11.1166
öhn	-11.1169
▁verstehen	-11.1172
▁Sklaven	-11.1173
▁gerichtet	-11.1174
▁Bewertung	-11.1174
▁Steve	-11.1174
Code	-11.1174
▁Kirchspiel	-11.1178
▁dick	-11.1178
mini	-11.1181
▁Sciences	-11.1181
▁drehte	-11.1181
ländischen	-11.1182
verteilung	-11.1182
▁auseinander	-11.1186
▁Philadelphia	-11.1186
▁Demo	-11.1188
Bundes	-11.1189
▁bestimmen	-11.1189
ret	-11.119
▁Jersey	-11.1191
öck	-11.1193
Club	-11.1194
▁verbessert	-11.1196
▁Bulgarien	-11.1196
reihen	-11.1197
▁gemessen	-11.1197
klinik	-11.1199
Georg	-11.1199
▁Residenz	-11.1202
besitzer	-11.1204
▁Gebäuden	-11.1209
zan	-11.1209
▁Dra	-11.121
▁gefolgt	-11.1211
Herr	-11.1211
▁Kommunikations	-11.1211
bevölkerung	-11.1214
▁Ny	-11.1214
▁Danzig	-11.1216
gewächse	-11.1218
Is	-11.1219
▁befreit	-11.1221
▁Himmels	-11.1229
nisch	-11.1229
▁1835	-11.123
▁Cambridge	-11.1231
▁Palast	-11.1231
Can	-11.1232
▁Feind	-11.1236
▁Atelier	-11.1239
▁Kurzfilm	-11.1243
pon	-11.1244
geladen	-11.1247
▁Mill	-11.1247
▁Unterschiede	-11.1248
▁vorzeitig	-11.1248
geschaltet	-11.1252
▁kritisch	-11.1253
▁Illinois	-11.1253
▁stehende	-11.1257
▁Verletzung	-11.1257
▁genug	-11.1259
▁Versicherungs	-11.1259
CH	-11.1259
▁Erzählung	-11.126
ierungen	-11.126
▁Nebenfluss	-11.1261
_6	-11.1262
tia	-11.1262
▁Eintritt	-11.1263
fang	-11.1269
▁quer	-11.127
swert	-11.1272
führte	-11.1274
▁Prim	-11.128
▁Railway	-11.1281
nica	-11.1285
▁Betreiber	-11.1286
▁seinerzeit	-11.1289
▁Kin	-11.1289
cent	-11.1291
zeig	-11.1292
RC	-11.1295
▁Bridge	-11.1296
russisch	-11.1296
ym	-11.1301
▁Protein	-11.1302
SB	-11.1303
lenk	-11.1304
▁hinsichtlich	-11.1306
▁Aufsichtsrat	-11.1306
flugzeug	-11.1306
▁Cross	-11.1307
schriften	-11.1307
führt	-11.1308
▁Ablauf	-11.131
▁qualifizieren	-11.1311
hilf	-11.1311
Av	-11.1312
▁Lim	-11.1312
house	-11.1314
▁Douglas	-11.1316
▁Anfangs	-11.1319
hält	-11.1323
▁rief	-11.1323
wunder	-11.1324
kat	-11.1324
▁Endspiel	-11.1325
▁Sex	-11.1326
masse	-11.1328
ister	-11.133
▁Human	-11.1332
▁Schreibweise	-11.1334
▁Antwort	-11.1336
▁Mehrere	-11.1336
Vorpommern	-11.1341
▁gehörenden	-11.1342
lung	-11.1344
▁Tel	-11.1347
horst	-11.1348
▁Gegenstände	-11.1348
trau	-11.1349
ñ	-11.135
IN	-11.135
▁Beförderung	-11.1352
▁FDP	-11.1352
▁Township	-11.1354
▁Allein	-11.1358
stiftung	-11.1359
▁Stände	-11.1359
pot	-11.1362
▁häufiger	-11.1362
nutzung	-11.1363
mannschaften	-11.1363
iers	-11.1365
▁Nachweis	-11.1365
▁Bes	-11.1366
denkmal	-11.1368
welle	-11.1368
▁ungarischen	-11.137
tler	-11.1371
CC	-11.1372
tek	-11.1373
geboren	-11.1374
▁Hinweise	-11.1375
▁Uni	-11.1376
▁Marcel	-11.1379
▁California	-11.138
▁enge	-11.138
▁norwegischen	-11.1381
quartier	-11.1382
gründung	-11.1384
▁beziehen	-11.1385
binden	-11.1386
▁leisten	-11.1386
EB	-11.1386
aktion	-11.1387
brück	-11.1388
Matri	-11.1388
später	-11.1388
▁Kreuzung	-11.1389
▁Len	-11.139
sc	-11.1391
▁Wuppertal	-11.1394
▁verzichtete	-11.1395
▁UEFA	-11.1399
▁Zuschauern	-11.1402
▁verbliebenen	-11.1403
▁Marx	-11.1404
etta	-11.1406
SF	-11.1406
▁typischen	-11.1407
▁Nau	-11.1407
▁kontrolliert	-11.1411
▁Quell	-11.1413
stuhl	-11.1413
▁Hü	-11.1417
sekretär	-11.1417
▁Mah	-11.1417
▁Probe	-11.1418
Titel	-11.1418
▁Ron	-11.142
rott	-11.142
▁stetig	-11.142
▁Verständnis	-11.1422
▁Prozesse	-11.1425
▁erklären	-11.1426
▁Mannes	-11.1426
▁religiöse	-11.1427
▁erhaltene	-11.1428
rol	-11.1428
▁Prototyp	-11.143
ladung	-11.143
▁Ges	-11.143
▁Gene	-11.1432
▁Alternative	-11.1433
rlei	-11.1437
chem	-11.1437
▁glatt	-11.1438
▁Lewis	-11.1439
▁Mindest	-11.144
polnisch	-11.1441
▁Ausstellungs	-11.1446
hir	-11.1447
▁Mach	-11.1447
▁Luftwaffe	-11.1448
▁Kessel	-11.145
zwischenzeitlich	-11.1452
etten	-11.1454
ehrt	-11.1456
Pu	-11.1457
▁Wir	-11.1457
klub	-11.1459
iga	-11.1459
losigkeit	-11.1461
▁Versionen	-11.1462
▁Marken	-11.1462
▁Wissenschafts	-11.1464
asse	-11.1465
▁begraben	-11.1467
skirche	-11.1468
▁Verleger	-11.1469
uli	-11.147
bes	-11.147
orum	-11.1472
▁meldete	-11.1473
Staffel	-11.1473
ue	-11.1475
▁regulären	-11.1478
stark	-11.148
▁Vizemeister	-11.1482
Bundesliga	-11.1482
▁Tieren	-11.1482
▁Kuba	-11.1483
ave	-11.1484
▁Allen	-11.1487
▁Weser	-11.1489
▁ausgelegt	-11.149
▁beteiligten	-11.149
günstig	-11.1491
äus	-11.1491
behörden	-11.1492
▁Disziplin	-11.1493
▁verlegte	-11.1493
seiten	-11.1495
rien	-11.1495
▁belgischen	-11.1495
situation	-11.1496
▁siebten	-11.1497
▁Schatten	-11.1497
▁Halt	-11.1502
▁wohnte	-11.1503
▁Lade	-11.1505
▁suchen	-11.1508
igne	-11.1509
▁Angelegenheiten	-11.151
▁jene	-11.1515
PO	-11.1516
▁1844	-11.1517
▁Hon	-11.1518
lik	-11.1519
kret	-11.152
Mu	-11.1522
lehr	-11.1522
▁Traum	-11.1524
▁Rauch	-11.1525
▁Grundlagen	-11.1526
▁Londoner	-11.1528
▁Life	-11.1528
literatur	-11.1528
▁Günther	-11.1531
▁Mathematiker	-11.1538
cum	-11.154
▁Luis	-11.1543
▁Pilz	-11.1544
bindung	-11.1546
▁starben	-11.1548
▁1837	-11.155
rac	-11.1551
ST	-11.1552
▁Gallen	-11.1552
▁Carr	-11.1553
pha	-11.1554
▁fehlen	-11.1554
▁Spreng	-11.1558
▁floh	-11.1559
Wer	-11.1559
steiger	-11.1559
▁Leute	-11.1561
BC	-11.1561
▁gebunden	-11.1561
kurz	-11.1561
▁erweiterte	-11.1564
CS	-11.1565
Fu	-11.1566
▁54	-11.1568
▁Stellvertreter	-11.1569
▁1842	-11.1569
bern	-11.1571
rahmen	-11.1571
dale	-11.1572
▁Gerät	-11.1574
▁indischen	-11.1575
oid	-11.1575
sha	-11.1576
▁portugiesischen	-11.1578
abschluss	-11.1579
chy	-11.158
gleis	-11.1582
▁Qu	-11.1583
Fo	-11.1585
▁Kontext	-11.1585
TC	-11.1586
▁selber	-11.1586
▁Bahnsteig	-11.1589
▁Plattform	-11.159
▁Materialien	-11.159
pil	-11.1592
▁Trainings	-11.1592
▁Tageszeitung	-11.1594
▁Neckar	-11.1594
▁EP	-11.1595
rechtliche	-11.1598
▁Mönch	-11.1599
▁Ecke	-11.16
▁ungewöhnlich	-11.1601
▁Hinsicht	-11.1601
▁Stor	-11.1602
▁zugeschrieben	-11.1602
▁Games	-11.1602
800	-11.1602
▁Kaiserreich	-11.1603
▁empfing	-11.1604
organisationen	-11.1605
▁Termin	-11.1606
▁Beobachtung	-11.1607
▁Debütalbum	-11.1607
▁Woll	-11.1607
Jugend	-11.1608
▁äußerte	-11.1608
▁genehmigt	-11.1609
▁politischer	-11.161
gast	-11.1611
▁53	-11.1612
dri	-11.1613
▁transportiert	-11.1613
▁üblicherweise	-11.1614
▁Pho	-11.1616
▁Weimarer	-11.1616
▁Cel	-11.1616
▁Harz	-11.1616
▁Patrick	-11.1617
▁Konstanz	-11.1619
meyer	-11.1619
▁bedingt	-11.1621
▁angewandt	-11.1621
▁Bistums	-11.1622
▁Begegnung	-11.1623
▁Zerstörer	-11.1624
hon	-11.1625
▁1838	-11.1626
sprozess	-11.1627
▁Schlagzeuger	-11.1627
Wei	-11.1628
▁Power	-11.1631
▁Element	-11.1633
▁Korea	-11.1634
weite	-11.1634
▁Verkaufs	-11.1635
▁Gebiets	-11.1636
▁bekannter	-11.1636
▁erhebt	-11.1638
▁Nest	-11.1638
analyse	-11.1638
tief	-11.1639
▁goldene	-11.164
▁seltener	-11.1641
Gen	-11.1643
▁Gy	-11.1647
▁Edel	-11.1647
▁Bataillon	-11.1648
▁primär	-11.1648
mittelalterliche	-11.1649
oberfläche	-11.1653
getrieben	-11.1654
▁männliche	-11.1655
Lauf	-11.1656
▁Church	-11.1656
▁ersetzte	-11.1657
600	-11.1657
▁Spa	-11.1658
▁Rumpf	-11.1658
▁jüngste	-11.1658
▁statistisch	-11.166
Hop	-11.166
bahnen	-11.1661
▁sichern	-11.1661
kräftig	-11.1662
▁Aufführung	-11.1662
besitz	-11.1663
▁1200	-11.1665
salz	-11.1667
Ku	-11.1667
wahr	-11.1669
▁vermeiden	-11.1671
▁Cy	-11.1673
▁Bremer	-11.1673
▁Jeder	-11.1675
▁Südseite	-11.1677
▁Vorsprung	-11.1677
nehmen	-11.168
▁Finger	-11.1683
tätig	-11.1684
▁retten	-11.1687
Bri	-11.1688
nos	-11.1688
▁Stufen	-11.1691
tica	-11.1693
▁DJ	-11.1694
▁entsprechen	-11.1695
▁Tisch	-11.1697
▁entstammte	-11.1701
äm	-11.1702
eil	-11.1703
▁Lob	-11.1703
▁Ausrichtung	-11.1705
▁Kategorien	-11.1706
▁Lou	-11.1711
gern	-11.1714
▁Innere	-11.1714
räte	-11.1715
▁Petr	-11.1715
▁elektrischen	-11.1717
gangs	-11.1717
▁aufweisen	-11.1718
▁Schlesien	-11.1719
phi	-11.1719
▁5000	-11.1721
vollen	-11.1721
▁Bekanntheit	-11.1722
formation	-11.1722
tze	-11.1723
▁Jacques	-11.1725
geschrieben	-11.1726
▁renoviert	-11.1726
▁Elb	-11.1726
enheim	-11.1727
▁Strömung	-11.1728
▁Darsteller	-11.1729
treiben	-11.1729
▁Zugehörigkeit	-11.1729
▁Reis	-11.1731
zunehmen	-11.1732
▁Tony	-11.1732
physik	-11.1733
▁Pod	-11.1736
▁verbinden	-11.1738
▁Hütte	-11.174
politische	-11.1742
▁Jänner	-11.1744
▁Renovierung	-11.1744
▁Steine	-11.1744
dringen	-11.1746
ovice	-11.1746
▁beheimatet	-11.1749
▁Studios	-11.1749
▁angrenzenden	-11.175
iro	-11.175
▁Soldat	-11.175
▁Ortsname	-11.1751
▁Geschlechts	-11.1751
▁Zauber	-11.1752
▁Aluminium	-11.1752
gemein	-11.1752
▁jährliche	-11.1753
altar	-11.1754
aku	-11.1756
Gebiet	-11.1757
▁unklar	-11.1758
lia	-11.1759
▁Wettkampf	-11.176
▁Stre	-11.1762
▁publizierte	-11.1764
▁1836	-11.1766
▁Hur	-11.1767
▁gezielt	-11.1768
▁Besitzungen	-11.1771
▁Wurzeln	-11.1773
▁Demokratie	-11.1773
▁Raub	-11.1773
fries	-11.1776
▁Gründe	-11.1777
▁Pala	-11.1778
europa	-11.1778
vid	-11.1779
decke	-11.178
▁Kro	-11.178
▁Zusammensetzung	-11.178
▁existierte	-11.1782
path	-11.1783
pläne	-11.1785
werks	-11.1785
ffel	-11.1786
ausstellung	-11.1787
kle	-11.1788
kult	-11.1788
▁IC	-11.179
konferenz	-11.1793
Super	-11.1796
Val	-11.1797
▁Fuchs	-11.1797
▁Claus	-11.1798
▁Verluste	-11.18
Ki	-11.1802
lebens	-11.1803
▁bestellt	-11.1804
▁Hamm	-11.1805
▁Amtes	-11.1806
▁anfänglich	-11.1807
▁Gletscher	-11.1807
▁Eg	-11.1808
▁Naturpark	-11.1808
▁Carlos	-11.181
▁Hit	-11.1812
▁Offiziere	-11.1816
halter	-11.1816
▁Werks	-11.182
▁Speise	-11.1822
▁erkannte	-11.1822
▁Abwehr	-11.1823
▁Trio	-11.1823
spur	-11.1823
▁Brems	-11.1823
▁verkehren	-11.1824
▁Weimar	-11.1825
▁seitlich	-11.1826
▁Fortschritt	-11.1827
▁bester	-11.1827
▁Sab	-11.1832
▁finanziert	-11.1833
▁First	-11.1834
Pf	-11.1834
▁stammten	-11.1836
projekte	-11.1836
▁Koblenz	-11.1836
meter	-11.1845
atom	-11.1846
sprachlich	-11.1847
ş	-11.1848
▁Neapel	-11.185
▁vergleichsweise	-11.185
▁Interpretation	-11.185
Verband	-11.185
deut	-11.1855
qualität	-11.1856
cc	-11.1857
▁eingeladen	-11.186
läufe	-11.186
▁Herrn	-11.1863
halb	-11.1863
sz	-11.1865
▁Frankreichs	-11.1866
▁Mischung	-11.1866
▁Grube	-11.1867
ähr	-11.1869
rose	-11.187
▁Zwerg	-11.187
▁Herrenhaus	-11.1872
üß	-11.1873
My	-11.1875
▁eingeschränkt	-11.1876
zylinder	-11.1877
verlag	-11.188
▁fördern	-11.1882
▁Eichen	-11.1885
lig	-11.1885
▁Lehn	-11.1886
ía	-11.1888
▁Manga	-11.1891
bricht	-11.1892
räder	-11.1892
roll	-11.1894
▁steigt	-11.1894
▁Schreib	-11.1895
▁verstorben	-11.1895
FF	-11.1895
ela	-11.1898
▁Mä	-11.1898
#	-11.19
▁gebräuchlich	-11.1903
▁Vorort	-11.1905
▁Training	-11.1905
gymnasium	-11.1905
▁angekündigt	-11.1905
▁niederländische	-11.1906
▁Verordnung	-11.1907
▁1841	-11.1907
▁Stephen	-11.1908
▁Gruben	-11.1909
▁Court	-11.1913
▁blau	-11.1918
▁Stone	-11.1919
ott	-11.192
ée	-11.1922
board	-11.1926
▁circa	-11.1927
doppel	-11.1929
▁Oliver	-11.1934
▁Out	-11.1934
Ac	-11.1934
▁Sturz	-11.1935
▁Sauerstoff	-11.1935
schild	-11.1937
▁hinweg	-11.1937
▁Außer	-11.1939
▁Hunde	-11.194
▁wesentliche	-11.194
▁Sultan	-11.1941
▁Jim	-11.1942
▁Vögel	-11.1942
rhein	-11.1943
bli	-11.1945
avi	-11.1947
klassig	-11.1947
▁Kriminal	-11.1948
nier	-11.1948
bs	-11.1948
▁kritisierte	-11.195
▁Vorstellungen	-11.1953
▁menschliche	-11.1953
▁Schmuck	-11.1955
bury	-11.1955
AF	-11.1956
▁Bug	-11.1956
▁Ai	-11.1958
gewalt	-11.1958
oi	-11.1959
▁Untergrund	-11.1959
▁1839	-11.1964
▁350	-11.1964
▁Peru	-11.1964
▁darum	-11.1964
▁wirken	-11.1964
▁durften	-11.1965
laub	-11.1967
▁Hoffmann	-11.1967
kran	-11.1967
▁Angehörigen	-11.1969
iens	-11.1969
▁erkannt	-11.197
▁Berichte	-11.1971
▁schwerer	-11.1972
▁Irak	-11.1974
▁vollendet	-11.1975
vie	-11.1975
brunnen	-11.1976
phon	-11.1979
▁anstelle	-11.198
▁Genehmigung	-11.198
zweck	-11.1984
▁Länderspiel	-11.1986
▁Kart	-11.1986
vas	-11.1987
▁reine	-11.1987
▁Flugplatz	-11.1989
▁mich	-11.1989
anische	-11.199
tsu	-11.1992
ior	-11.1992
holen	-11.1997
ire	-11.1999
Com	-11.2001
▁Qua	-11.2001
disch	-11.2004
Eishockeyspieler	-11.2004
▁Phänomen	-11.2005
spann	-11.2006
mod	-11.2007
▁Florenz	-11.2007
schuldig	-11.2008
▁gliedert	-11.2008
uel	-11.2008
Hi	-11.2009
▁Erstligisten	-11.2013
Saison	-11.2014
schuld	-11.2015
damm	-11.2015
ð	-11.2015
zusammen	-11.2016
▁gedacht	-11.2017
städte	-11.2019
▁überführt	-11.2023
▁entstandene	-11.2026
▁Instrumente	-11.2027
▁Restaurant	-11.2028
▁zentral	-11.2029
album	-11.203
geh	-11.2033
stationen	-11.2033
tä	-11.2034
▁Mö	-11.2035
zentren	-11.2035
standort	-11.2035
▁Comic	-11.2037
▁dieselbe	-11.2037
▁Trieb	-11.2037
▁Eric	-11.2038
produkt	-11.204
▁Lebensraum	-11.204
▁These	-11.2042
▁Epoche	-11.2043
Hei	-11.2044
▁befreundet	-11.2045
▁legt	-11.2045
▁Binnen	-11.2046
▁Holl	-11.205
Fla	-11.205
▁separat	-11.205
▁Game	-11.2053
▁Bauarbeiten	-11.2054
ová	-11.2055
▁Persönlichkeit	-11.2056
▁Verpflichtung	-11.2059
▁Information	-11.2059
▁Premier	-11.2061
▁Ernährung	-11.2061
geschehen	-11.2061
immer	-11.2061
▁Leder	-11.2063
Les	-11.2064
▁liefert	-11.2064
kra	-11.2066
▁Leucht	-11.2067
klassen	-11.2068
▁Gelb	-11.2068
7,5	-11.2072
▁vereinzelt	-11.2075
▁Hahn	-11.2075
▁kulturellen	-11.2076
vert	-11.2077
▁leichter	-11.2077
▁natürlich	-11.208
ele	-11.208
▁Bielefeld	-11.208
stag	-11.2081
▁Kli	-11.2081
▁Bäume	-11.2081
▁Kant	-11.2086
▁Manuel	-11.2087
▁Theo	-11.2087
▁achten	-11.2088
Il	-11.2088
▁Okres	-11.2089
tta	-11.209
▁Zahlreiche	-11.2091
▁Marmor	-11.2092
fal	-11.2094
▁Bru	-11.2094
▁Trotzdem	-11.2098
▁Entlassung	-11.21
▁Bischöfe	-11.2102
▁Passagier	-11.2102
kö	-11.2103
▁manche	-11.2103
then	-11.2104
▁einziger	-11.2105
▁Melodie	-11.2105
flüge	-11.2107
▁Tank	-11.2108
▁Stämme	-11.2109
▁Reit	-11.211
▁internationaler	-11.211
▁Fälle	-11.2113
▁Stau	-11.2114
zt	-11.2117
Sc	-11.2118
streben	-11.2119
act	-11.212
▁Effekt	-11.2121
а	-11.2122
▁interpretiert	-11.2122
▁positive	-11.2126
fehler	-11.2126
▁Aufhebung	-11.2126
hom	-11.2127
schar	-11.2128
tch	-11.2129
kh	-11.2129
revolution	-11.2131
side	-11.2133
studio	-11.2137
▁Kali	-11.214
▁Hände	-11.2141
ikal	-11.2142
▁Weich	-11.2142
szentrum	-11.2143
jäger	-11.2144
ș	-11.2144
▁Erforschung	-11.2146
ná	-11.2146
▁erfolgreichsten	-11.2147
▁bestätigte	-11.2148
ried	-11.2148
▁Spenden	-11.2148
▁mag	-11.2149
▁Centre	-11.2149
ücht	-11.2149
▁fünfte	-11.2149
ches	-11.2151
▁Ann	-11.2156
▁Korps	-11.2157
▁Series	-11.2158
dio	-11.2159
Mal	-11.216
▁russischer	-11.216
▁[]	-11.2161
Grün	-11.2161
illo	-11.2161
▁Zeichnungen	-11.2161
▁Dinge	-11.2161
▁Kurfürsten	-11.2164
▁unterzeichnete	-11.2164
▁obere	-11.2165
▁1808	-11.2167
▁Chemnitz	-11.2167
▁Chance	-11.2168
freien	-11.2169
▁Zweitligisten	-11.217
▁allmählich	-11.217
demokratische	-11.217
▁rote	-11.2171
▁Höhlen	-11.2172
▁Mid	-11.2173
stärkste	-11.2174
▁Hospital	-11.2178
lum	-11.2178
ämter	-11.2179
▁Winterspielen	-11.218
thi	-11.2181
▁versuchten	-11.2181
▁Umsatz	-11.2182
▁erschossen	-11.2184
Volks	-11.2185
▁1834	-11.2186
Stein	-11.2188
▁Powiat	-11.2189
▁generell	-11.219
▁Mun	-11.2192
truppen	-11.2193
eta	-11.2195
▁Piloten	-11.2197
fehl	-11.2197
▁weite	-11.2197
▁Wohnhäuser	-11.2197
▁Vorjahr	-11.2198
▁Museen	-11.22
▁Bet	-11.2203
▁fährt	-11.2203
oul	-11.2204
iki	-11.2205
zuhalten	-11.2206
▁gewährt	-11.2206
▁kostenlos	-11.2206
nick	-11.221
▁erkennt	-11.221
▁Lediglich	-11.2214
▁Duo	-11.2214
▁Fertigung	-11.2216
▁Bos	-11.2218
ffe	-11.2219
▁Export	-11.2221
▁mal	-11.2222
antrieb	-11.2224
▁verkaufen	-11.2224
▁Haag	-11.2226
Zi	-11.2226
▁Touristen	-11.2228
aud	-11.223
amo	-11.2231
▁worauf	-11.2233
▁nachhaltig	-11.2233
Krieg	-11.2233
schel	-11.2234
▁konstruiert	-11.2236
▁Cousin	-11.2236
▁Kommandant	-11.2237
fla	-11.2238
▁Nerven	-11.2238
▁Pur	-11.2238
▁Ken	-11.2239
gran	-11.2239
▁Str	-11.2241
▁Beach	-11.2243
▁identifiziert	-11.2247
Amerikanische	-11.2249
▁preußische	-11.225
▁landete	-11.2252
▁Great	-11.2253
schreiber	-11.2255
Charts	-11.2256
▁Zweite	-11.2258
iges	-11.2258
▁Turin	-11.2262
▁Flam	-11.2262
hoch	-11.2264
▁Kreisstadt	-11.2264
breite	-11.2266
moor	-11.2266
▁Gulden	-11.2266
▁Schalt	-11.2267
▁Mitarbeitern	-11.2269
We	-11.227
▁Monats	-11.2271
▁Over	-11.2273
▁Lat	-11.2276
▁Lyon	-11.2277
▁Bundesregierung	-11.2277
Kanal	-11.228
arr	-11.228
gerichtet	-11.228
Produktion	-11.2281
▁wendet	-11.2281
oz	-11.2281
▁1821	-11.2282
rel	-11.2286
▁Fulda	-11.2287
▁Anteile	-11.2287
▁Medaille	-11.2288
▁Lem	-11.229
▁übernimmt	-11.2292
▁gelb	-11.2292
Deutsche	-11.2292
sturm	-11.2294
Originaltitel	-11.2297
festival	-11.2299
aja	-11.2299
▁wären	-11.2301
orts	-11.2301
ido	-11.2301
kla	-11.2302
▁Nordseite	-11.2302
ej	-11.2303
▁publiziert	-11.2304
ativen	-11.2306
▁Schichten	-11.2306
rekord	-11.2306
▁Jede	-11.2308
aufenthalt	-11.2308
angriff	-11.2309
▁Mono	-11.2312
enberger	-11.2312
▁Erziehung	-11.2313
▁Klo	-11.2314
▁gelungen	-11.2315
gus	-11.2315
sicher	-11.2316
geworfen	-11.2316
veranstaltungen	-11.2317
steuerung	-11.2317
sperr	-11.2318
▁72	-11.2318
▁offensichtlich	-11.2319
dingen	-11.2319
▁Lern	-11.232
▁Sky	-11.2321
Deutschland	-11.2322
christlich	-11.2322
▁älter	-11.2323
iva	-11.2323
▁Costa	-11.2324
▁anderes	-11.2324
▁Ji	-11.2325
seil	-11.2326
▁Zwecke	-11.2326
▁erschlossen	-11.2326
▁verlässt	-11.2327
▁Kompositionen	-11.233
Arc	-11.2331
▁vereinbart	-11.2336
▁ausführlich	-11.2339
▁Pflanze	-11.2339
▁Hauptrollen	-11.2339
ös	-11.2341
Men	-11.2341
▁Damm	-11.2341
▁Angehörige	-11.2341
gräber	-11.2343
sozial	-11.2345
▁bedeutete	-11.2345
gil	-11.2346
▁wovon	-11.2346
ible	-11.2346
▁Gü	-11.2347
Stu	-11.2347
▁Inzwischen	-11.2347
▁Jesuiten	-11.2347
▁Ash	-11.2348
▁Abenteuer	-11.2348
▁verliebt	-11.235
▁versteckt	-11.235
lip	-11.2353
▁heißen	-11.2354
▁gestartet	-11.2355
pert	-11.2356
sichert	-11.2358
wohnung	-11.2359
sänger	-11.2363
▁Periode	-11.2364
▁Rem	-11.2366
▁bekommt	-11.2369
raten	-11.2369
lay	-11.2369
▁Sache	-11.2369
▁verbreitete	-11.2369
▁Landtags	-11.2371
▁beherrscht	-11.2372
▁belegen	-11.2373
▁analog	-11.2374
verfassung	-11.2375
gler	-11.2377
▁Zugleich	-11.2379
né	-11.2379
tunnel	-11.2381
▁Vertretung	-11.2383
▁Ehepaar	-11.2385
▁linke	-11.2389
▁Waffe	-11.239
▁Mechan	-11.2393
▁handeln	-11.2397
▁Mahl	-11.2398
▁1831	-11.2399
▁ansonsten	-11.24
Marie	-11.2401
sendung	-11.2402
forscher	-11.2405
▁Dreharbeiten	-11.2407
wirt	-11.2407
rach	-11.2407
▁Gründungs	-11.2408
▁zählten	-11.241
typisch	-11.2412
▁konzentrierte	-11.2413
On	-11.2414
▁Rote	-11.2414
zier	-11.2417
Siehe	-11.2417
▁DFB	-11.2419
▁Beat	-11.2421
inseln	-11.2423
▁Götter	-11.2426
▁Innenraum	-11.2427
urteil	-11.2428
Bewegung	-11.2428
▁European	-11.2428
listen	-11.2428
gers	-11.243
stad	-11.2433
▁griechische	-11.2434
▁speziellen	-11.2436
▁historiques	-11.2436
IT	-11.2437
▁Hexe	-11.2438
fleisch	-11.2439
reiz	-11.244
hob	-11.244
▁nachfolgenden	-11.2441
Niederlage	-11.2441
▁kombiniert	-11.2442
rill	-11.2443
MG	-11.2443
fähig	-11.2443
▁übergab	-11.2444
▁Reichstag	-11.2445
stoßen	-11.2446
▁Regelung	-11.2447
▁Kastell	-11.2447
werken	-11.2449
BS	-11.245
▁Plätzen	-11.2451
ř	-11.2451
kä	-11.2451
ermann	-11.2452
▁Dritten	-11.2453
▁Bab	-11.2454
▁auffällig	-11.2455
schränk	-11.2456
▁Vertrauen	-11.2456
Sta	-11.2456
östlich	-11.2456
▁gefordert	-11.2458
zulegen	-11.2458
▁Erkenntnisse	-11.2458
▁57	-11.2459
▁versuchen	-11.2461
esse	-11.2461
▁auftrat	-11.2462
▁Umgeben	-11.2465
▁Kavallerie	-11.2465
ütz	-11.2468
▁180	-11.247
sdichte	-11.247
ark	-11.2472
▁Times	-11.2475
▁Schulter	-11.2475
leistungen	-11.2476
plätzen	-11.2476
▁etliche	-11.2477
dell	-11.2478
III	-11.2479
▁1:0	-11.2479
▁verlaufen	-11.2479
fte	-11.248
▁Helden	-11.2481
Cou	-11.2484
▁Chefredakteur	-11.2484
▁Ausrüstung	-11.2486
▁sahen	-11.2487
▁Valley	-11.2487
▁Spitz	-11.2489
städt	-11.2489
ET	-11.249
▁erfolgreichste	-11.2492
▁dunkel	-11.2493
▁Parks	-11.2494
én	-11.2494
▁Verteilung	-11.2495
▁maximale	-11.2496
▁Leg	-11.2498
▁erfüllen	-11.2498
verarbeitung	-11.2499
massiv	-11.2502
Paul	-11.2503
▁Pflicht	-11.2504
▁Dritter	-11.2504
▁nutzt	-11.2504
weisung	-11.2505
▁Marsch	-11.251
▁hierzu	-11.2511
▁geraten	-11.2513
stin	-11.2514
▁Holland	-11.2514
▁Moderator	-11.2518
▁Ref	-11.2518
sgeschichte	-11.2518
▁Eingangs	-11.2519
kamp	-11.2522
▁gedruckt	-11.2523
▁Marco	-11.2524
▁Aussehen	-11.2524
busch	-11.253
▁Bot	-11.253
▁west	-11.253
▁Fries	-11.253
▁Syn	-11.2532
unterschied	-11.2532
▁Abgeordnete	-11.2535
▁verbessern	-11.2538
▁platziert	-11.2538
▁Bände	-11.2539
historiker	-11.2539
zon	-11.254
▁teilt	-11.254
▁Nachlass	-11.254
▁Lissabon	-11.2541
▁Seil	-11.2542
▁betont	-11.2543
▁Bauer	-11.2544
▁Gel	-11.2546
▁zugeteilt	-11.2547
personal	-11.255
▁Endrunde	-11.255
Port	-11.2551
▁Yorker	-11.2551
▁Häufig	-11.2551
▁Vertrieb	-11.2552
▁1812	-11.2552
▁Ausgangs	-11.2559
▁Worten	-11.256
blut	-11.2561
▁zurückzuführen	-11.2562
▁isoliert	-11.2563
Arten	-11.2563
freunde	-11.2565
▁Roland	-11.2565
▁Kämpfe	-11.2566
gra	-11.2567
▁Miller	-11.2568
▁Thor	-11.2569
ular	-11.2572
sozialistische	-11.2572
MI	-11.2572
▁Pfund	-11.2573
▁Reihenfolge	-11.2573
▁besuchen	-11.2576
▁125	-11.2577
▁Dün	-11.2577
▁Maße	-11.2577
▁passiert	-11.258
renn	-11.2583
klang	-11.2583
ania	-11.2584
▁unterirdisch	-11.2584
meer	-11.2585
▁gerufen	-11.2585
▁Hom	-11.2586
▁schriftlich	-11.2586
Zw	-11.2586
▁Büchern	-11.2587
▁abgehalten	-11.2588
anne	-11.2589
▁solle	-11.2589
ograph	-11.259
arn	-11.2591
gängig	-11.2594
▁Wörter	-11.2595
▁Spur	-11.2595
▁Glocke	-11.2595
▁Rats	-11.2595
produkte	-11.2597
▁vollständige	-11.2597
reiter	-11.2597
▁übrig	-11.2598
aner	-11.26
stetten	-11.2605
▁Güterverkehr	-11.2606
▁Ala	-11.2608
bereit	-11.2608
▁Gattungen	-11.2609
▁hielten	-11.2609
▁Auszeichnungen	-11.261
▁befindliche	-11.261
▁Strategie	-11.261
▁Gefangenen	-11.2612
▁Stürmer	-11.2612
ergebnisse	-11.2614
▁Parti	-11.2614
▁chinesische	-11.2616
ors	-11.2617
XX	-11.2617
▁Paderborn	-11.2618
▁Zweiter	-11.2619
▁Banken	-11.2619
Fe	-11.2624
▁Pilot	-11.2626
Schriftstellerin	-11.2629
▁typisch	-11.263
Affäre	-11.2631
▁Darin	-11.2631
rufen	-11.2632
▁Skulpturen	-11.2633
▁Schwerin	-11.2635
▁PC	-11.2636
than	-11.2636
▁Vermittlung	-11.2636
▁Athleten	-11.2636
▁Luzern	-11.2636
▁Antrieb	-11.2636
vari	-11.2638
tru	-11.2638
▁Lit	-11.2639
▁58	-11.2639
▁Lipp	-11.264
▁Herzogs	-11.264
behindert	-11.2641
▁bestattet	-11.2641
▁Mans	-11.2642
ierter	-11.2643
▁Günter	-11.2644
▁richtet	-11.2644
greif	-11.2645
▁Wohnungen	-11.2645
gestaltung	-11.2645
▁unmittelbarer	-11.2645
▁Ruine	-11.2646
wick	-11.2646
▁Aufklärung	-11.2647
▁VII	-11.2649
▁Brett	-11.2652
kreises	-11.2652
▁Rä	-11.2654
bestimmung	-11.2654
hall	-11.2655
leute	-11.2655
iven	-11.2659
▁vergrößert	-11.266
▁Aspekte	-11.266
▁Benutzer	-11.266
▁spanischer	-11.266
▁Abstimmung	-11.2661
Gesetz	-11.2662
▁Pir	-11.2663
sprecher	-11.2665
Kan	-11.2667
präsident	-11.2668
IX	-11.2668
Par	-11.2669
▁Ey	-11.2669
▁Trasse	-11.267
▁Hass	-11.2671
▁gewissen	-11.2672
▁gelangt	-11.2673
versicherung	-11.2674
▁Zentimetern	-11.2677
kr	-11.2679
gesetzes	-11.2679
ès	-11.268
▁Folk	-11.2684
ière	-11.2684
▁Autorin	-11.2685
▁Kos	-11.2686
lief	-11.2688
▁1817	-11.2688
lade	-11.2689
uth	-11.2689
▁antreten	-11.2689
▁Ac	-11.269
▁Bin	-11.2691
kinder	-11.2692
▁Kleinstadt	-11.2693
▁Resultat	-11.2695
pr	-11.2697
Emp	-11.2701
▁Zuletzt	-11.2701
zentrale	-11.2702
termin	-11.2704
▁städtische	-11.2704
einrichtung	-11.2705
möglich	-11.2707
otte	-11.2708
laufbahn	-11.2708
▁Spin	-11.271
▁Mini	-11.2711
uda	-11.2713
gleichung	-11.2715
ziert	-11.2716
▁verbundenen	-11.2716
▁Abkommen	-11.2716
▁Merkmal	-11.2717
▁Format	-11.2718
▁UNESCO	-11.2718
register	-11.2719
rou	-11.2721
svorsitzender	-11.2723
▁Weiterentwickl	-11.2724
▁spätestens	-11.2724
▁Ähnlichkeit	-11.2725
▁62	-11.2727
▁tötet	-11.2727
▁Dörfern	-11.2727
▁Mario	-11.2729
▁Platte	-11.2729
▁Slowakei	-11.273
▁verwundet	-11.273
▁inspiriert	-11.2731
▁beliebig	-11.2733
nell	-11.2734
▁australische	-11.2734
ista	-11.274
Pap	-11.274
heide	-11.2742
▁Schwan	-11.2743
sler	-11.2744
▁Decken	-11.2744
Südtirol	-11.2745
▁Kroatien	-11.2745
▁Erhalt	-11.2746
▁SED	-11.2746
▁Schiffen	-11.2747
▁Haltepunkt	-11.2747
▁Erkrankung	-11.2749
▁siehe	-11.2754
▁Mé	-11.2754
▁Ansiedlung	-11.2756
▁Kabel	-11.2756
▁Theologe	-11.2756
TS	-11.2758
▁Vorfeld	-11.2759
▁Reparatur	-11.2759
Titelverteidiger	-11.2762
ähn	-11.2762
▁Absicht	-11.2762
_	-11.2766
▁Badminton	-11.2766
▁Gewinner	-11.2768
▁Staatsexamen	-11.2768
▁Generalleutnant	-11.2768
▁bewaldet	-11.2771
ald	-11.2772
▁Genre	-11.2773
▁Vorsitz	-11.2773
▁1828	-11.2775
Mat	-11.2776
▁Fle	-11.2777
▁Nation	-11.2777
▁wachsen	-11.2778
germanisch	-11.2778
iere	-11.2778
▁Res	-11.2779
Em	-11.2779
▁Stufe	-11.2779
stör	-11.2783
▁komplette	-11.2783
▁1825	-11.2784
▁Napoleon	-11.2785
lai	-11.2787
anspruch	-11.2788
▁Gesetze	-11.2789
▁ähnlichen	-11.2789
▁Heilig	-11.2795
▁Beschäftigung	-11.2797
▁unweit	-11.2798
End	-11.2798
echt	-11.28
lok	-11.28
messung	-11.2801
▁kandidierte	-11.2802
▁Fans	-11.2803
pla	-11.2804
gefallen	-11.2804
▁Sicherung	-11.2806
nice	-11.2806
ural	-11.2807
austausch	-11.2807
Fiction	-11.2808
▁1833	-11.2809
▁vorbereitet	-11.2811
nehmer	-11.2813
▁Lichtjahre	-11.2815
rb	-11.2815
▁Ever	-11.2818
will	-11.2819
Ste	-11.282
▁lateinischen	-11.2822
▁Versorgungs	-11.2823
▁Bomben	-11.2823
August	-11.2824
▁Barn	-11.2826
▁Konfession	-11.2826
rent	-11.2827
▁Draft	-11.2827
oper	-11.2827
▁Partnerschaft	-11.2828
brenn	-11.2829
▁Bildern	-11.2829
▁Moderne	-11.2835
▁Festivals	-11.2835
spir	-11.2835
folgen	-11.2836
▁gegenwärtig	-11.2836
▁Benjamin	-11.2838
▁Ü	-11.2839
▁Kil	-11.284
▁Reb	-11.284
geber	-11.284
▁geliefert	-11.284
▁Sä	-11.2841
▁bemerkt	-11.2841
▁stattfinden	-11.2841
gis	-11.2842
journalist	-11.2842
Zwei	-11.2843
▁do	-11.2844
▁Teilung	-11.2844
▁Hubraum	-11.2844
▁Ursprungs	-11.2845
ändert	-11.2847
nur	-11.2847
itation	-11.2847
Ferr	-11.2849
wende	-11.2849
fangen	-11.2849
▁Bindung	-11.2849
hessisch	-11.285
tti	-11.2853
▁Fundament	-11.2853
▁Nominierung	-11.2853
▁Verbrechen	-11.2855
wälder	-11.2857
rs	-11.2858
Medi	-11.2858
▁berühmten	-11.2858
unk	-11.2861
Main	-11.2861
▁Sak	-11.2861
▁grob	-11.2863
het	-11.2863
head	-11.2864
malige	-11.2866
▁Hamilton	-11.2867
tow	-11.2867
▁Textil	-11.2868
over	-11.287
krise	-11.2871
familien	-11.2871
▁Hierzu	-11.2872
▁Nick	-11.2873
▁Neo	-11.2876
▁verzichtet	-11.2877
▁Hai	-11.2879
▁Pfeiler	-11.2881
bru	-11.2881
▁überregional	-11.2882
▁1826	-11.2883
▁Bezeichnungen	-11.2883
feucht	-11.2885
itis	-11.2885
▁Zeche	-11.2887
meist	-11.2888
Peter	-11.289
▁Country	-11.2891
▁Michigan	-11.2893
▁Geh	-11.2894
▁stammenden	-11.2894
schlacht	-11.2894
illi	-11.2895
Geschichte	-11.2896
Nieder	-11.2896
schläge	-11.2896
produktionen	-11.2897
▁benannten	-11.2897
▁Platzierung	-11.2897
▁vorerst	-11.2898
▁letztes	-11.2899
▁Comp	-11.29
▁erwies	-11.2901
strahl	-11.2903
alien	-11.2906
▁kämpfen	-11.2907
sammel	-11.2912
iri	-11.2912
▁Junge	-11.2913
ohr	-11.2913
▁beobachten	-11.2914
schießen	-11.2915
ters	-11.2916
▁Medaillen	-11.2917
▁Planeten	-11.2917
▁61	-11.2918
öder	-11.292
▁eben	-11.2921
▁Philip	-11.2922
▁vorne	-11.2923
ás	-11.2923
▁behaart	-11.2923
▁genauer	-11.2923
ergebnis	-11.2924
▁Typen	-11.2924
▁Agrar	-11.2929
fasst	-11.2929
▁Gräfin	-11.293
▁barocke	-11.2931
cm	-11.2931
objekt	-11.2936
▁Leiden	-11.2937
▁Bernd	-11.2938
▁berief	-11.2939
bil	-11.294
▁Serbien	-11.2941
RT	-11.2941
▁Belastung	-11.2944
▁überquert	-11.2944
reuth	-11.2945
▁elektronische	-11.2945
holm	-11.2947
▁Repräsentanten	-11.2948
▁Sara	-11.2948
türme	-11.2948
Mit	-11.295
Tu	-11.2951
tle	-11.2954
▁festen	-11.2955
▁Herm	-11.2955
▁Harvard	-11.2955
bet	-11.2957
finale	-11.2957
Schwa	-11.2958
▁Ty	-11.2959
▁Hochwasser	-11.2962
getragen	-11.2963
▁Admiral	-11.2964
▁etablierte	-11.2966
▁wirtschaftlich	-11.2966
▁Gun	-11.2967
adel	-11.2967
▁geschlossenen	-11.2968
time	-11.2969
ministeriums	-11.2969
▁Ara	-11.297
▁geschah	-11.297
▁umfassen	-11.2972
▁Flüsse	-11.2973
Mag	-11.2977
▁Begleit	-11.2979
gebaut	-11.2979
▁Westfalen	-11.298
wähl	-11.2982
▁Wett	-11.2982
▁Wachstum	-11.2983
web	-11.2983
erz	-11.2984
▁unregelmäßig	-11.2985
fällt	-11.2988
▁Alm	-11.2991
▁Lib	-11.2991
▁Gebietsreform	-11.2992
▁66	-11.2994
▁Kreuzer	-11.2995
▁Riesen	-11.2997
▁Fur	-11.2998
▁aufnehmen	-11.2998
▁stabil	-11.2998
▁Norm	-11.2999
▁Französischen	-11.3
Girl	-11.3001
▁östliche	-11.3003
▁Immobilien	-11.3006
kata	-11.3007
lov	-11.301
▁besaßen	-11.3011
gia	-11.3012
▁Triebwagen	-11.3012
▁3,5	-11.3012
amtes	-11.3013
▁Pil	-11.3013
▁einziges	-11.3015
Spieler	-11.3016
rode	-11.3017
▁Forschungen	-11.3017
öß	-11.3018
▁zwang	-11.302
▁Widerstands	-11.302
▁ARD	-11.3025
smitglieder	-11.3025
▁Wertung	-11.3025
CO	-11.3026
rer	-11.3026
grau	-11.3027
cro	-11.3028
schwerpunkt	-11.3028
▁Landesstraße	-11.3031
rd	-11.3032
▁Verbände	-11.3032
Je	-11.3035
▁Bock	-11.3039
▁Kuppel	-11.3041
▁zusätzlichen	-11.3043
vertreter	-11.3045
▁Fre	-11.3046
mitte	-11.3047
▁Alliierten	-11.3048
code	-11.3048
▁vielmehr	-11.3051
fan	-11.3052
▁Gesamtwertung	-11.3052
DF	-11.3053
kowski	-11.3059
▁erhebliche	-11.306
freundlich	-11.3061
▁Zufluss	-11.3062
▁ausdrücklich	-11.3063
konzern	-11.3063
▁legen	-11.3063
▁hinterließ	-11.3063
▁Versuchs	-11.3064
▁ansässig	-11.3065
genossenschaft	-11.3065
▁abgesetzt	-11.3065
▁bearbeitet	-11.3066
▁plante	-11.3066
direktion	-11.3069
KP	-11.3069
strasse	-11.3069
▁Eli	-11.307
▁Ausgrabungen	-11.307
▁gemeldet	-11.3072
mangel	-11.3073
▁Garde	-11.3075
▁Mein	-11.3076
▁Metz	-11.3076
verzeichnis	-11.308
▁Oft	-11.3081
yan	-11.3083
▁NATO	-11.3083
atus	-11.3084
gaben	-11.3084
laus	-11.3085
büro	-11.3085
▁verteidigen	-11.3086
▁1807	-11.3087
▁übernahmen	-11.3087
▁alleine	-11.3088
▁0,5	-11.3089
▁trotzdem	-11.3091
▁Wahlbezirk	-11.3092
▁Kraus	-11.3093
tausch	-11.3093
▁Amerikaner	-11.3095
Fußball	-11.3096
▁2:1	-11.3096
▁Landesregierung	-11.3097
▁Oslo	-11.3097
uni	-11.3098
▁Bassist	-11.3099
▁Zoo	-11.31
Modus	-11.3101
hügel	-11.3101
Bro	-11.3101
▁namentlich	-11.3102
▁Had	-11.3102
▁Übergangs	-11.3104
▁Tin	-11.3104
▁vorgeschlagen	-11.3104
▁Händler	-11.3104
▁eventuell	-11.3104
▁fliehen	-11.3105
wies	-11.3105
▁steil	-11.3106
char	-11.3106
Ger	-11.3106
▁Beute	-11.3107
pho	-11.3107
▁landesweit	-11.3109
▁kaiserlichen	-11.3111
▁Sohnes	-11.3111
Regime	-11.3112
▁bezeichnen	-11.3114
▁informiert	-11.3114
▁Karosserie	-11.3115
▁Klage	-11.3115
▁Pfalz	-11.3116
▁Mozart	-11.3117
▁Südost	-11.3118
▁Wor	-11.3119
▁literarische	-11.312
▁Wid	-11.3122
▁gehabt	-11.3123
▁Stadtmauer	-11.3123
▁Pommern	-11.3123
▁Inszenierung	-11.3124
É	-11.3127
▁Arena	-11.3128
▁zeichnet	-11.313
schreiben	-11.313
▁Romane	-11.3132
▁Minderheit	-11.3133
freund	-11.3133
▁räumlich	-11.3133
▁Außenminister	-11.3134
CDU	-11.3136
▁Jugendlichen	-11.3137
▁KPD	-11.3138
▁Austria	-11.3139
fahrzeuge	-11.314
sstelle	-11.314
▁Takt	-11.3141
▁Breiten	-11.3142
regiment	-11.3143
▁Nacional	-11.3144
owo	-11.3145
owiki	-11.3146
▁1809	-11.3146
▁Treppen	-11.3148
▁großem	-11.315
▁interessant	-11.3153
▁Schädel	-11.3153
ruh	-11.3153
tafel	-11.3156
▁Syrien	-11.3156
▁angegriffen	-11.3156
steck	-11.3156
SK	-11.3157
kraftwerk	-11.3158
▁Violin	-11.3159
▁Begründung	-11.3159
▁Queen	-11.3161
morph	-11.3161
ye	-11.3163
▁medizinischen	-11.3163
▁medizinische	-11.3164
tell	-11.3165
▁Habilitation	-11.3165
ophil	-11.3166
▁Pferd	-11.3166
▁Absatz	-11.3167
▁einflussreich	-11.3168
lagern	-11.3168
kulturell	-11.3171
run	-11.3171
▁mir	-11.3172
▁Hildesheim	-11.3174
▁Kampagne	-11.3176
Plat	-11.3176
▁Press	-11.318
▁Eigenschaft	-11.318
ques	-11.3182
kart	-11.3183
jährig	-11.3186
Erstausstrahlung	-11.3186
▁Demonstration	-11.3186
▁68	-11.3187
▁interessiert	-11.3188
▁Well	-11.3189
▁moderner	-11.319
▁Tätigkeiten	-11.3191
▁Märchen	-11.3191
▁Brigade	-11.3192
▁Ereignis	-11.3192
anbau	-11.3192
▁Thailand	-11.3192
EM	-11.3193
ssig	-11.3193
▁einfacher	-11.3195
nal	-11.3195
▁Moos	-11.3196
▁Conrad	-11.32
komm	-11.3201
▁Ketten	-11.3204
▁Oberflächen	-11.3204
▁Ideal	-11.3204
▁Pon	-11.3205
▁Janeiro	-11.3208
Hor	-11.3209
▁Umbenennung	-11.321
▁Veränderung	-11.3212
Track	-11.3213
scho	-11.3215
▁Bundesstaates	-11.3216
▁unabhängige	-11.3216
▁Kru	-11.3217
▁1829	-11.3219
kommissar	-11.322
▁übertrug	-11.322
▁59	-11.3228
▁Stä	-11.3228
loh	-11.3229
▁Dsch	-11.3231
▁beenden	-11.3231
▁Lip	-11.3232
▁Knie	-11.3233
▁Kontinent	-11.3233
▁umfangreichen	-11.3236
▁Via	-11.3236
charakter	-11.3237
▁Koll	-11.324
▁exakt	-11.3241
▁Übersetzer	-11.3241
▁Gräber	-11.3243
▁Aufstellung	-11.3243
▁keinem	-11.3245
ship	-11.3246
▁Hauptdarsteller	-11.3248
union	-11.3249
▁2014/15	-11.325
Schwarz	-11.325
0,0	-11.3252
Wasser	-11.3253
▁Vermutlich	-11.3253
▁Priesterweihe	-11.3253
modern	-11.3254
▁Lig	-11.3256
▁Vorlage	-11.3258
kommando	-11.3258
▁verziert	-11.3259
Vo	-11.3261
stimmt	-11.3265
▁Kommunal	-11.3265
▁Zweit	-11.3265
▁Vertretern	-11.3266
▁Kun	-11.3266
roth	-11.3268
▁Leutnant	-11.3268
▁Siege	-11.3269
▁Senioren	-11.327
atoren	-11.327
▁Bod	-11.3271
▁Carlo	-11.3273
▁min	-11.3273
aß	-11.3275
ader	-11.3277
Form	-11.3278
▁Manchester	-11.3279
▁Salzburger	-11.3279
▁Rolf	-11.328
Grand	-11.3283
▁Ernest	-11.3283
▁Zone	-11.3283
▁chemische	-11.3284
schichten	-11.3284
▁Becker	-11.3284
ics	-11.3285
▁Vil	-11.3286
▁Angriffe	-11.3286
▁fertigte	-11.3287
▁Jer	-11.3288
SR	-11.3289
MC	-11.329
arbeits	-11.329
roy	-11.3291
gegeben	-11.3292
liege	-11.3292
chte	-11.3292
Lippe	-11.3295
mberg	-11.3295
Insel	-11.3295
▁Bearbeitung	-11.3296
▁Granit	-11.3296
▁Perspektive	-11.3301
▁Shak	-11.3301
▁bedeutender	-11.3302
▁Brian	-11.3302
deckung	-11.3303
Lang	-11.3303
2000	-11.3305
▁Vorhaben	-11.3307
▁Personenverkehr	-11.331
▁Website	-11.3311
▁Rückspiel	-11.3311
Tr	-11.3313
▁ausgeprägt	-11.3313
verteidigung	-11.3314
▁Dy	-11.3314
▁Studioalbum	-11.3314
▁1802	-11.3317
use	-11.3318
▁Vorkommen	-11.3318
artikel	-11.3319
Landes	-11.332
oo	-11.3321
billig	-11.3322
osse	-11.3322
▁zitiert	-11.3327
zogen	-11.3327
▁Sem	-11.3327
▁Reinhard	-11.3329
orte	-11.3329
▁1822	-11.3331
Oh	-11.3331
tausend	-11.3331
Alb	-11.3332
▁Satelliten	-11.3332
▁Theaterstück	-11.3333
▁Ansprüche	-11.3334
▁Zar	-11.3334
▁Apostel	-11.3336
▁900	-11.3336
▁basierend	-11.3336
▁Edition	-11.3337
▁Handlungs	-11.334
enhausen	-11.334
GA	-11.3341
verständlich	-11.3342
▁Sockel	-11.3342
▁Verletzungen	-11.3345
▁Pilger	-11.3348
teich	-11.3349
▁Vordergrund	-11.3349
▁Katholiken	-11.335
schwarz	-11.3351
eins	-11.3356
▁studieren	-11.3357
▁Statue	-11.3357
▁Met	-11.3358
zelle	-11.3362
ND	-11.3364
▁aufweist	-11.3366
▁Us	-11.3366
▁zeigten	-11.3367
ory	-11.3369
Ž	-11.337
▁Besondere	-11.3371
zutreten	-11.3372
▁Verbands	-11.3374
▁ausgesprochen	-11.3375
leib	-11.3377
▁Monument	-11.3379
▁Beau	-11.3379
▁Kiew	-11.3382
Nu	-11.3384
▁Westlich	-11.3387
Hir	-11.339
▁Mul	-11.3391
▁Saarbrücken	-11.3391
EL	-11.3391
▁Nan	-11.3392
hammer	-11.3392
▁Festland	-11.3396
▁Bebauung	-11.3397
peri	-11.3398
▁Sammlungen	-11.3399
▁Temperaturen	-11.3399
▁verringert	-11.34
brüche	-11.3401
VA	-11.3401
gul	-11.3402
▁Hauptsitz	-11.3402
ashi	-11.3403
elektro	-11.3404
▁Champ	-11.3404
▁Kurfürst	-11.3405
ME	-11.3406
▁Begriffe	-11.3407
▁Pel	-11.3408
▁inhaltlich	-11.341
▁angestellt	-11.3413
▁63	-11.3416
▁demnach	-11.3417
▁Gebet	-11.3421
▁Voraussetzung	-11.3421
üll	-11.3422
▁Kulturdenkmale	-11.3423
beton	-11.3426
olog	-11.3428
VP	-11.3429
städter	-11.3431
▁Stark	-11.3434
ña	-11.3435
▁Minen	-11.3437
▁Kommune	-11.3437
▁Tai	-11.3438
▁Musikvideo	-11.3438
Oliv	-11.3438
differenz	-11.3438
änderung	-11.3439
▁Minnesota	-11.3441
▁Erlangen	-11.3441
opfer	-11.3442
Bahnhof	-11.3444
▁SK	-11.3445
willig	-11.3445
▁Schuh	-11.3445
▁Zucker	-11.3447
▁Ankunft	-11.3447
Ed	-11.345
fällig	-11.345
▁Abschied	-11.3451
▁Digital	-11.3452
▁Fahrrad	-11.3453
▁2013/14	-11.3453
▁Bai	-11.3453
Wie	-11.3456
▁Job	-11.3456
▁Kalender	-11.3457
▁Nova	-11.3458
▁Entsprechend	-11.3459
▁Zeugen	-11.346
▁Siegfried	-11.3461
Bru	-11.3461
heilig	-11.3463
▁Flieger	-11.3463
▁schlechten	-11.3463
geschoss	-11.3465
▁töten	-11.3465
besuch	-11.3466
ital	-11.3466
▁Kämpfen	-11.3467
ordnet	-11.3467
▁Liebes	-11.3468
▁Gewölbe	-11.3469
▁Kohl	-11.3469
▁Kontroll	-11.3469
▁Durchschnitt	-11.347
vater	-11.3471
▁trans	-11.3473
tragen	-11.3474
▁Forderungen	-11.3474
▁Geistes	-11.3475
▁Hohl	-11.3477
Italia	-11.3479
▁dortige	-11.3481
▁gegeneinander	-11.3481
▁Achtelfinale	-11.3481
Wilhelm	-11.3483
Dur	-11.3484
▁2010/11	-11.3484
▁Welle	-11.3485
cel	-11.3488
▁sitzt	-11.3489
its	-11.3489
▁Asteroid	-11.3491
▁Rin	-11.3491
fahrzeug	-11.3493
lys	-11.3494
▁taucht	-11.3495
▁Schleif	-11.3496
▁Senats	-11.3497
zugehen	-11.3499
legte	-11.35
▁Gerichtsbezirk	-11.35
▁Konzern	-11.3505
ğ	-11.3506
▁Abhängigkeit	-11.3506
▁Anstellung	-11.3507
▁Manche	-11.3507
▁Kohlen	-11.3507
▁Zurück	-11.3507
iner	-11.3509
▁1824	-11.3509
tplatzierte	-11.3509
▁Vic	-11.351
▁Hot	-11.351
FI	-11.3511
geschäfte	-11.3513
▁Rande	-11.3513
▁Vorlesungen	-11.3514
▁Gitarre	-11.3517
▁Sai	-11.3517
▁Night	-11.3517
▁Pension	-11.3518
▁Raketen	-11.3518
information	-11.352
▁bezeichneten	-11.3524
▁ober	-11.3524
ML	-11.3527
ächt	-11.3528
▁Gestein	-11.3528
▁Südkorea	-11.3529
▁Dam	-11.3531
▁Niederlassung	-11.3531
▁Litauen	-11.3532
▁Russischen	-11.3534
▁qualifiziert	-11.3534
▁Ferien	-11.3535
▁vorderen	-11.3535
denken	-11.3537
▁entscheidend	-11.3539
itzer	-11.3539
kmalgeschützten	-11.3542
issa	-11.3543
atorium	-11.3543
▁Flecken	-11.3543
▁Wettbewerbs	-11.3543
▁trennt	-11.3544
▁Konservatorium	-11.3544
▁Nachfrage	-11.3546
▁kommenden	-11.3546
iya	-11.3547
▁Farm	-11.3547
matt	-11.3548
▁litt	-11.355
aufgaben	-11.3551
▁Anführer	-11.3553
fä	-11.3553
▁Hundert	-11.3553
▁Still	-11.3554
mans	-11.3555
▁orientiert	-11.3556
kritische	-11.3557
▁verteidigte	-11.3557
▁Gur	-11.3557
gebildet	-11.3558
▁Türken	-11.3558
▁dänische	-11.356
▁Barb	-11.356
▁Howard	-11.3561
▁privat	-11.3563
▁Mangel	-11.3563
aris	-11.3564
▁äußere	-11.3564
oto	-11.3564
▁Nutzer	-11.3566
schwing	-11.3566
rell	-11.3567
▁Insolvenz	-11.3568
▁Gesichts	-11.3568
▁Jörg	-11.3569
▁unverändert	-11.3569
▁Erwerb	-11.357
Bor	-11.3572
▁2011/12	-11.3573
▁Entscheidungen	-11.3574
zieht	-11.3575
gger	-11.3577
▁Fracht	-11.3577
▁Gol	-11.3578
▁Ausgleich	-11.3579
▁Derzeit	-11.3581
ordens	-11.3582
dischen	-11.3584
▁Begründer	-11.3584
scht	-11.3584
▁Boote	-11.3584
▁christliche	-11.3585
▁Humboldt	-11.3585
Gold	-11.3585
▁vorläufig	-11.3586
▁Sternbild	-11.3586
▁Multi	-11.3587
▁Ant	-11.359
zeichnung	-11.3592
▁ehrenamtlich	-11.3592
sgebäude	-11.3593
wirkt	-11.3594
jenige	-11.3595
▁Weinbau	-11.3598
standard	-11.3599
▁1,2	-11.3599
▁unterhält	-11.36
kut	-11.36
▁akzeptiert	-11.3603
zeitlichen	-11.3604
▁Christentum	-11.3607
▁Lust	-11.3607
▁Born	-11.3608
▁Forderung	-11.3608
bos	-11.3608
▁Tatsächlich	-11.361
▁Olympiasieger	-11.361
▁Motive	-11.3612
zeitliche	-11.3612
▁Py	-11.3612
▁Unterbrechung	-11.3613
gefahren	-11.3615
▁Slo	-11.3615
▁aufeinander	-11.3616
▁half	-11.3616
smöglichkeiten	-11.3616
▁Baumeister	-11.3617
lieder	-11.3617
▁Details	-11.3618
▁Elite	-11.3618
▁Wunder	-11.3619
gehende	-11.3619
suchen	-11.362
▁Gitarrist	-11.3622
▁Johanna	-11.3622
▁ATP	-11.3623
▁Null	-11.3625
▁Brau	-11.3625
rid	-11.363
▁Konzentrations	-11.3631
▁Gewerkschaft	-11.3631
▁Erzählungen	-11.3637
rate	-11.3638
münde	-11.3638
mehr	-11.3638
▁America	-11.364
geholt	-11.3641
media	-11.3641
▁Gefangenschaft	-11.3641
▁Unterrichts	-11.3643
▁Creek	-11.3643
dorfer	-11.3645
▁trocken	-11.3647
▁Geburts	-11.3648
gestützt	-11.3648
gesehen	-11.365
▁Gemeinschafts	-11.3651
▁produzieren	-11.3651
Stil	-11.3651
▁schlicht	-11.3652
▁akademischen	-11.3653
▁Backstein	-11.3654
thy	-11.3654
tauchen	-11.3655
Seite	-11.3656
▁Jun	-11.3656
frequenz	-11.3657
▁Kriterien	-11.3657
▁gestiftet	-11.3657
▁Allgemein	-11.3658
▁DB	-11.3658
▁Andrea	-11.3659
rein	-11.3659
▁GT	-11.3661
Komm	-11.3661
▁zeitgleich	-11.3662
▁feierlich	-11.3663
stone	-11.3664
▁angeführt	-11.3665
æ	-11.3665
▁Abfahrt	-11.3667
▁Ell	-11.3667
▁Feldzug	-11.3669
2004	-11.3669
▁Phasen	-11.3669
▁Überwachung	-11.367
▁Spanier	-11.3671
▁türkische	-11.3674
▁Evangelisch	-11.3675
amtlich	-11.3678
▁Up	-11.3678
kasten	-11.368
▁Montreal	-11.368
▁Neuzeit	-11.368
ović	-11.3682
▁1819	-11.3683
▁Munition	-11.3683
ský	-11.3683
▁Profil	-11.3686
▁Dessen	-11.3687
▁Geschlechter	-11.3688
▁wechseln	-11.369
logische	-11.3691
▁einzeln	-11.3691
▁Benedikt	-11.3692
▁Bast	-11.3692
Sol	-11.3694
▁Meist	-11.3695
▁95	-11.3695
▁2015/16	-11.3695
zzo	-11.3696
jun	-11.3697
lateinisch	-11.3699
rungen	-11.3701
num	-11.3701
▁präsentierte	-11.3702
graf	-11.3703
▁1801	-11.3704
▁Helsinki	-11.3705
▁1811	-11.3706
2001	-11.3708
ça	-11.3709
Kal	-11.3709
▁Bie	-11.3712
▁Lorenz	-11.3712
▁Dekanat	-11.3713
▁1798	-11.3713
▁Produktionen	-11.3714
▁Europameister	-11.3716
▁Et	-11.3717
▁Dimension	-11.3718
Char	-11.372
Lehr	-11.372
NO	-11.3721
▁Thal	-11.3722
▁Segment	-11.3722
▁1793	-11.3722
Bad	-11.3723
drücken	-11.3724
▁Trauer	-11.3726
▁saniert	-11.3727
▁Problemen	-11.3727
▁behauptet	-11.3728
▁Bran	-11.3729
▁Nikolai	-11.3729
▁Nassau	-11.3729
▁zeitweilig	-11.3731
dukt	-11.3731
▁betreiben	-11.3731
ifikation	-11.3732
TH	-11.3733
▁Kirchenschiff	-11.3735
ikon	-11.3735
Friedrich	-11.3736
richt	-11.374
Regi	-11.3741
▁gebraucht	-11.3742
regeln	-11.3744
▁Foundation	-11.3747
▁Schwäbisch	-11.3747
▁Urkunden	-11.3748
▁letztere	-11.3749
▁Brot	-11.3749
▁Fahrzeugen	-11.3749
▁abgebildet	-11.3753
Work	-11.3754
▁Of	-11.3756
▁wöchentlich	-11.3756
hell	-11.3757
▁Umzug	-11.3757
▁Jag	-11.3758
▁ersetzen	-11.3759
▁lebende	-11.3762
▁Steiermark	-11.3763
▁Reederei	-11.3763
▁inhaftiert	-11.3763
▁Vorträge	-11.3763
▁1700	-11.3765
kunden	-11.3768
Pal	-11.3768
geteilt	-11.3768
Nach	-11.3771
verordnung	-11.3772
▁Schließung	-11.3773
▁Ré	-11.3775
▁Hütten	-11.3779
▁1:1	-11.3782
▁betreute	-11.3784
▁Motorrad	-11.3784
▁Königlich	-11.3785
▁angetrieben	-11.3787
▁Mam	-11.3788
▁anzutreffen	-11.3789
▁Spiels	-11.3791
▁BBC	-11.3791
Syndrom	-11.3792
▁Landwirt	-11.3793
▁Buck	-11.3795
▁Audi	-11.3797
▁Entscheidungs	-11.3798
▁Etappe	-11.3798
▁Stockwerk	-11.3798
▁Hanau	-11.3798
furt	-11.3798
▁1805	-11.38
▁Haushalten	-11.3801
▁geehrt	-11.3801
Ungarn	-11.3802
▁Stammes	-11.3804
▁Legion	-11.3805
▁Handwerker	-11.3805
▁paar	-11.3806
▁Head	-11.3808
▁Brit	-11.3809
schätz	-11.3813
Fraktion	-11.3813
▁erlernte	-11.3816
▁Rittergut	-11.3817
_7	-11.3818
▁Missions	-11.382
▁Student	-11.3821
▁arabischen	-11.3821
▁Alan	-11.3822
▁Model	-11.3823
▁District	-11.3824
lberg	-11.3825
▁Jon	-11.3825
▁Landung	-11.3828
▁Aires	-11.383
reicher	-11.3831
▁Nachbarorte	-11.3834
PD	-11.3834
▁Grimm	-11.3838
▁dauert	-11.3839
▁Denn	-11.3841
igny	-11.3841
mbach	-11.3841
▁berechnet	-11.3845
▁frisch	-11.3847
füllt	-11.3847
▁Übersicht	-11.3847
wandel	-11.3847
gültig	-11.3847
▁Mask	-11.3848
fordern	-11.3848
eff	-11.3849
cur	-11.3851
spielt	-11.3851
▁Voraussetzungen	-11.3854
gängen	-11.3855
gliederung	-11.3855
▁Jahrhunderte	-11.386
got	-11.3862
▁Jens	-11.3864
zubringen	-11.3864
▁innere	-11.3865
▁Cli	-11.3866
▁Bevor	-11.3869
Plan	-11.3869
▁Debatte	-11.387
olt	-11.387
▁Lab	-11.387
▁Liberal	-11.387
▁Klar	-11.387
französisch	-11.3872
▁Light	-11.3872
▁1600	-11.3872
kommt	-11.3874
Bester	-11.3875
▁längeren	-11.3875
▁Schenk	-11.3875
▁Davon	-11.3877
wurf	-11.3878
katholisch	-11.3878
▁rötlich	-11.3879
▁besonderer	-11.388
▁Terror	-11.3884
▁Cham	-11.3885
▁Cos	-11.3888
spolitik	-11.3889
▁Tang	-11.389
▁zugewiesen	-11.3891
▁Anpassung	-11.3892
praxis	-11.3892
profil	-11.3894
▁uraufgeführt	-11.3895
▁Östlich	-11.3895
HO	-11.3895
▁Aero	-11.3895
▁Westseite	-11.3898
CSU	-11.3898
▁Stettin	-11.3899
▁Vereinigte	-11.3901
▁dritter	-11.3901
▁Mauern	-11.3902
▁prominente	-11.3902
▁Germanistik	-11.3902
▁Seh	-11.3904
▁junger	-11.3904
▁Abbildung	-11.3909
cell	-11.391
▁Komponenten	-11.3912
▁Rap	-11.3913
▁Merc	-11.3914
▁Nürnberger	-11.3915
▁Good	-11.3915
RI	-11.3915
▁1827	-11.3916
darstellung	-11.3916
Regierung	-11.3917
▁René	-11.3917
▁Clemens	-11.3918
▁Ausscheiden	-11.3918
▁Fotos	-11.3919
Für	-11.3919
▁Aufsicht	-11.3921
▁davor	-11.3922
phal	-11.3925
▁seitens	-11.3925
shof	-11.3926
▁eingeteilt	-11.3927
▁Vorarlberg	-11.3928
ärztlich	-11.3928
PR	-11.3928
▁Cover	-11.3928
frist	-11.3931
krebs	-11.3931
▁konzentriert	-11.3932
ritter	-11.3933
▁Denk	-11.3934
Mitglied	-11.3935
stehend	-11.3936
esch	-11.394
▁Flüssigkeit	-11.3941
▁Marcus	-11.3942
aufbau	-11.3943
chan	-11.3943
sim	-11.3944
▁Klöster	-11.3944
phy	-11.3944
▁Verb	-11.3944
▁Greifswald	-11.3944
Fahr	-11.3946
lers	-11.3948
▁Königreichs	-11.3949
▁Lohn	-11.3949
▁malte	-11.3949
Kaserne	-11.395
▁Wittenberg	-11.3951
▁Andr	-11.3953
▁anwesend	-11.3953
▁laufen	-11.3954
motoren	-11.3954
▁Niveau	-11.3954
▁Schnabel	-11.3954
▁Aussicht	-11.3956
▁Egg	-11.3956
▁AC	-11.3956
▁Rainer	-11.3957
agentur	-11.3957
▁Offen	-11.3957
Lexikon	-11.3957
schützen	-11.3958
▁Gesellschaften	-11.3959
▁Prince	-11.3963
▁Atmosphäre	-11.3964
▁bedeutendste	-11.3965
▁Wahrnehmung	-11.3967
▁Stalin	-11.3968
▁Darunter	-11.3968
▁Journal	-11.3969
grat	-11.397
▁Baudenkmäler	-11.3972
▁Fähr	-11.3972
▁Propaganda	-11.3973
▁entsandt	-11.3973
▁gehandelt	-11.3973
rost	-11.3975
Wald	-11.3976
gge	-11.3977
ieß	-11.3978
▁teilnahm	-11.398
akte	-11.398
▁erteilt	-11.398
▁Cheftrainer	-11.3981
mitteln	-11.3982
▁gerne	-11.3983
ress	-11.3983
▁formuliert	-11.3983
▁Buenos	-11.3983
Special	-11.3983
▁Münzen	-11.3984
▁Tauch	-11.3987
IM	-11.3989
▁2009/10	-11.3991
▁with	-11.3991
reden	-11.3991
Amerikaner	-11.3991
▁DNA	-11.3992
▁Friedrichs	-11.3992
olith	-11.3992
mper	-11.3994
brü	-11.3994
mono	-11.3994
Event	-11.3994
▁Stars	-11.3994
▁Sm	-11.3994
punkten	-11.3995
möglichkeiten	-11.3995
ecker	-11.3997
▁vereint	-11.3997
▁Rick	-11.3999
ą	-11.4
▁jüngerer	-11.4001
▁Fair	-11.4002
korps	-11.4002
▁Ältere	-11.4003
▁Heft	-11.4004
elektrisch	-11.4004
▁Ausgangspunkt	-11.4005
▁Empfehlung	-11.4006
▁Wür	-11.4007
räum	-11.4007
▁Mod	-11.4007
▁gesperrt	-11.401
▁Lamp	-11.401
kum	-11.401
▁Breit	-11.4011
▁Gottesdienst	-11.4011
▁Wan	-11.4012
▁Kleidung	-11.4013
▁Höhle	-11.4013
▁Pause	-11.4014
▁Laden	-11.4017
cat	-11.4017
lim	-11.4019
▁Put	-11.402
▁Experten	-11.402
▁Zahlung	-11.4021
etto	-11.4022
Pan	-11.4022
▁lösen	-11.4023
lah	-11.4024
▁μ	-11.4025
▁Zylinder	-11.4025
Unentschieden	-11.4026
lev	-11.4027
berater	-11.4027
Wettbewerb	-11.4029
Gi	-11.403
▁Airport	-11.4031
▁Bauwerke	-11.4031
ology	-11.4031
▁codice	-11.4033
▁Römischen	-11.4033
oro	-11.4033
epi	-11.4033
owitz	-11.4034
▁Kreise	-11.4035
▁Wirklichkeit	-11.4036
quet	-11.4038
schneiden	-11.4039
stadion	-11.4039
▁1,8	-11.404
▁verabschiedet	-11.4041
▁Gera	-11.4042
▁falsch	-11.4044
dul	-11.4045
▁Gebirge	-11.4045
▁Anlehnung	-11.4046
▁Gärten	-11.4046
mara	-11.4046
reaktion	-11.4048
rom	-11.4051
basierte	-11.4055
▁vornehmlich	-11.4056
▁Kolonien	-11.4056
quin	-11.4056
fonds	-11.4056
▁bezahlt	-11.4057
▁Neuro	-11.4057
▁Moore	-11.4059
▁Verdacht	-11.4059
Stat	-11.4059
▁eingenommen	-11.406
giebel	-11.406
rain	-11.4062
▁erfordert	-11.4062
milit	-11.4065
▁Gehirn	-11.4066
▁Pazifik	-11.4068
▁Mr	-11.4068
trans	-11.4069
▁Erdbeben	-11.4072
▁empfangen	-11.4072
CE	-11.4073
▁zweit	-11.4074
▁Nazi	-11.4081
krone	-11.4082
▁Damals	-11.4083
Baden	-11.4083
alpin	-11.4084
▁Wiederwahl	-11.4084
gras	-11.4085
olin	-11.4086
▁HC	-11.4088
▁bewaffneten	-11.4088
äch	-11.4088
▁verschoben	-11.4089
Hand	-11.409
▁Orientierung	-11.4092
▁Zweifel	-11.4092
▁Loh	-11.4093
▁Dekan	-11.4093
▁Oskar	-11.4094
▁absolviert	-11.4095
sieger	-11.4095
▁Bud	-11.4096
alb	-11.4097
acher	-11.4098
▁Beendigung	-11.4102
▁durchquert	-11.4102
▁aufrecht	-11.4102
kapazität	-11.4105
status	-11.4106
▁Social	-11.4107
▁Ek	-11.4108
▁beinahe	-11.4109
▁Erkenntnis	-11.4109
steht	-11.4109
▁Einladung	-11.411
geschlecht	-11.411
Dar	-11.411
▁flachen	-11.411
▁gebildeten	-11.4111
▁Gl	-11.4112
▁Bundesland	-11.4115
uar	-11.4115
areal	-11.4116
Auto	-11.4116
dampf	-11.4116
▁Bewusstsein	-11.4119
▁Elizabeth	-11.4122
▁hinteren	-11.4123
▁Daraus	-11.4123
▁Datei	-11.4124
sgesellschaft	-11.4124
operation	-11.4124
▁psychisch	-11.4125
bär	-11.4126
▁BGB	-11.4127
Verfahren	-11.4127
▁Antarctic	-11.4129
▁Großherzogtum	-11.4129
▁Steuerung	-11.413
kontrolle	-11.4132
▁Sowjet	-11.4134
▁Militärdienst	-11.4135
▁Zähne	-11.4136
▁Konsul	-11.4137
schä	-11.4139
▁gekauft	-11.4139
lio	-11.4142
ces	-11.4142
abhängig	-11.4143
▁gelblich	-11.4144
▁Faust	-11.4145
▁literarischen	-11.4146
▁hölzerne	-11.4146
▁2012/13	-11.4149
Gletscher	-11.4149
lud	-11.415
neo	-11.415
Weltrangliste	-11.4152
▁Zins	-11.4153
▁Zeitungs	-11.4155
SL	-11.4155
▁glaubt	-11.4158
quer	-11.4159
kai	-11.416
▁Off	-11.4161
▁Valentin	-11.4163
wurzel	-11.4163
▁March	-11.4166
▁Apostolisch	-11.4167
▁Lokomotive	-11.4168
▁Planungen	-11.4168
▁normale	-11.4168
liess	-11.417
▁Sommerspielen	-11.4172
ög	-11.4175
▁Konzil	-11.4176
woll	-11.4178
▁Konstantin	-11.4179
rek	-11.4179
▁Handeln	-11.418
design	-11.418
ago	-11.4181
▁Erzbistum	-11.4181
▁Urban	-11.4182
▁Theatre	-11.4182
Red	-11.4182
▁Glen	-11.4183
jon	-11.4183
▁Siegel	-11.4184
technologie	-11.4185
▁Fachzeitschrift	-11.4187
▁Ill	-11.4187
▁deswegen	-11.4187
▁Frey	-11.419
Stern	-11.4192
kraut	-11.4192
▁Low	-11.4193
früher	-11.4194
rea	-11.4195
ehren	-11.4195
▁älterer	-11.4195
▁Gehäuse	-11.4196
▁gesucht	-11.4196
gefühl	-11.4197
uhl	-11.4197
▁experimentell	-11.4197
fett	-11.4197
▁betätigte	-11.4198
▁Passagiere	-11.4199
nich	-11.4201
▁Margaret	-11.4201
▁Sala	-11.4201
▁67	-11.4204
▁Obst	-11.4204
modul	-11.4205
ÖVP	-11.4205
▁innehatte	-11.4205
▁geologisch	-11.4207
▁verkauften	-11.4209
versuche	-11.421
Jahr	-11.421
erbach	-11.421
▁Wend	-11.4212
gebung	-11.4213
italienisch	-11.4214
▁Khan	-11.4216
▁Vortrag	-11.4218
Anti	-11.4219
▁scheinbar	-11.4219
▁Kommissar	-11.4219
▁umfassenden	-11.422
europäischen	-11.4221
▁Glasgow	-11.4222
▁Zwangs	-11.4224
kers	-11.4225
hälfte	-11.4226
▁arbeiteten	-11.4226
Medaille	-11.4227
▁Generalsekretär	-11.4227
schüler	-11.4231
▁Sees	-11.4231
▁deutet	-11.4231
▁KG	-11.4236
▁Pedro	-11.4241
▁Stuck	-11.4242
dichter	-11.4245
▁Schie	-11.4246
▁Erben	-11.4247
Inseln	-11.4247
▁Mitteln	-11.4248
leger	-11.4248
omo	-11.4249
haben	-11.425
Temp	-11.4251
▁Johan	-11.4251
zonen	-11.4251
▁Hotels	-11.4252
Trainer	-11.4252
Scha	-11.4253
▁Riga	-11.4254
▁Beste	-11.4254
▁nachträglich	-11.4254
▁Set	-11.4255
▁Gastgeber	-11.4256
Str	-11.4257
▁finnischen	-11.4258
▁angesichts	-11.4259
Festival	-11.4262
▁Achter	-11.4262
▁gescheitert	-11.4263
schaftswahl	-11.4264
▁Ras	-11.4264
spalt	-11.4264
steig	-11.4266
sichtig	-11.4267
▁Hack	-11.4267
▁Programme	-11.4268
▁Forum	-11.4268
Brü	-11.427
▁Seele	-11.427
Junioren	-11.4271
▁Roma	-11.4271
▁Hum	-11.4272
motion	-11.4273
▁Soziologie	-11.4273
▁Hag	-11.4277
sage	-11.4278
▁Möbel	-11.4281
▁Weiterbildung	-11.4282
▁zufällig	-11.4282
ře	-11.4283
Gedenk	-11.4284
truppe	-11.4284
afrikanische	-11.4285
▁Kreisstraße	-11.4286
gefangen	-11.4287
▁Business	-11.4288
Show	-11.4289
▁finanziell	-11.4289
▁Fame	-11.429
▁aufzunehmen	-11.429
Magazin	-11.4291
ugh	-11.4292
▁beschreiben	-11.4293
▁Universal	-11.4293
▁vergangenen	-11.4298
höfe	-11.4298
▁Frühling	-11.4299
▁Rapper	-11.4299
▁Iso	-11.43
▁Heb	-11.43
▁förderte	-11.4303
▁2008/09	-11.4303
▁sog	-11.4304
zeitgenössischen	-11.4307
▁Kür	-11.4307
▁Ostseite	-11.4308
talbahn	-11.431
▁Ohne	-11.4311
▁Episode	-11.4313
Eis	-11.4315
ners	-11.4316
Cru	-11.4316
präsent	-11.4319
ID	-11.432
Ph	-11.4321
▁erzeugen	-11.4323
ui	-11.4323
▁Dokumente	-11.4324
büchern	-11.4324
▁1790	-11.4325
FP	-11.4327
л	-11.4327
▁Verbund	-11.4328
▁Gemäß	-11.433
▁Cab	-11.433
▁enger	-11.433
▁UdSSR	-11.433
▁Tak	-11.4332
pack	-11.4332
kugel	-11.4332
gerichts	-11.4334
▁untersuchte	-11.4335
vol	-11.4336
quote	-11.4337
▁Schatz	-11.4337
▁ragt	-11.4337
▁niedrigen	-11.4341
</	-11.4342
lement	-11.4344
▁Folgejahr	-11.4345
▁selbständige	-11.4346
IG	-11.4347
▁Ruth	-11.4347
▁meint	-11.4348
▁Singles	-11.4349
▁vorhandene	-11.4349
gun	-11.4354
uma	-11.4354
▁nachweisbar	-11.4355
fol	-11.4355
branche	-11.4355
▁Non	-11.4357
Lin	-11.4358
▁Qualitäts	-11.4358
▁Chal	-11.436
▁selbständig	-11.436
weich	-11.436
org	-11.4363
▁Nat	-11.4363
rz	-11.4364
was	-11.4364
▁feiern	-11.4365
▁Din	-11.4366
▁Volumen	-11.4366
▁benachbarte	-11.4367
▁erlassen	-11.4368
▁tschechischen	-11.437
mutter	-11.4371
▁Nadel	-11.4372
▁Heilige	-11.4373
▁Reh	-11.4373
stopp	-11.4373
▁Jünger	-11.4375
plat	-11.4375
strukturen	-11.4378
▁Ferrari	-11.4378
fleck	-11.4379
▁hingerichtet	-11.438
rupp	-11.4381
▁Leu	-11.4381
spin	-11.4381
PC	-11.4383
liefer	-11.4383
istin	-11.4384
▁Kaffee	-11.4386
▁juristische	-11.4386
▁höchst	-11.4386
pers	-11.4386
▁Fon	-11.4388
▁umgekehrt	-11.4389
▁Photo	-11.4393
ungarisch	-11.4394
farbig	-11.4395
▁Holding	-11.4396
▁halben	-11.4398
▁Zinn	-11.4399
farbe	-11.4399
sohn	-11.4402
▁Denken	-11.4403
▁Abriss	-11.4404
▁französisch	-11.4404
▁Gleise	-11.4405
rier	-11.4406
▁fortgesetzt	-11.4407
▁Arbeitnehmer	-11.4407
▁Alba	-11.4407
▁Wis	-11.4411
▁Georgia	-11.4411
▁herab	-11.4414
Gre	-11.4414
hielt	-11.4415
▁wählen	-11.4415
ė	-11.4416
trin	-11.4418
▁Erreichen	-11.4419
▁Spannung	-11.442
förder	-11.442
▁Fett	-11.4421
▁beginnend	-11.4422
▁Stoffe	-11.4422
▁begangen	-11.4423
ross	-11.4425
▁Adelsgeschlecht	-11.4426
ité	-11.4427
▁Fernsehfilm	-11.4427
▁Exemplaren	-11.4427
offiziell	-11.4427
▁engen	-11.4428
mei	-11.4428
▁Publikation	-11.4429
▁Sud	-11.4429
SPÖ	-11.443
▁TSV	-11.443
▁verschwand	-11.4431
hau	-11.4431
schäden	-11.4431
▁Kut	-11.4432
▁Women	-11.4433
▁Speyer	-11.4433
asch	-11.4434
tina	-11.4436
▁Stütz	-11.4437
schaltung	-11.4438
▁Bürgerschaft	-11.444
▁stiegen	-11.444
▁laufenden	-11.444
és	-11.4443
Abschluss	-11.4445
ifizierung	-11.4445
▁Ontario	-11.4446
▁Racing	-11.4446
▁trennte	-11.4449
▁Wenige	-11.445
▁Peri	-11.4453
▁vermeintlich	-11.4453
▁Lis	-11.4453
alia	-11.4455
yll	-11.4455
▁Fähigkeit	-11.4455
denz	-11.4456
fell	-11.4456
▁Hem	-11.4456
▁Kostüm	-11.4457
Pre	-11.4457
▁Grav	-11.4458
VG	-11.4459
▁Austragung	-11.4459
vit	-11.4459
▁Felder	-11.4461
2003	-11.4461
uba	-11.4461
▁Wat	-11.4464
▁Instanz	-11.4464
▁Freunden	-11.4464
Maur	-11.4465
▁spezifische	-11.4466
▁Umständen	-11.4466
▁technisch	-11.4467
smittel	-11.4467
▁Küche	-11.4468
inhaber	-11.4469
▁Wohnsitz	-11.447
▁Dü	-11.447
▁Anthony	-11.4471
sus	-11.4471
▁Home	-11.4472
▁Böden	-11.4472
WA	-11.4474
▁Seither	-11.4474
▁Haushalt	-11.4474
kongress	-11.4475
▁Spanisch	-11.4477
bucht	-11.4477
▁bloß	-11.4478
▁Lä	-11.4478
mmen	-11.4478
▁Leer	-11.4478
▁Hörspiel	-11.4478
Partei	-11.4479
Maria	-11.4479
▁griff	-11.448
▁Lady	-11.4481
fertigung	-11.4482
éri	-11.4483
▁vertritt	-11.4484
▁Hochschulen	-11.4484
▁Fokus	-11.4485
▁vollkommen	-11.4486
Not	-11.4488
▁Lock	-11.4488
▁baulich	-11.4489
▁Garnison	-11.4491
▁tödlich	-11.4492
American	-11.4492
▁Mou	-11.4492
ketten	-11.4492
forst	-11.4494
kleidung	-11.4495
▁Briefe	-11.4496
▁Roy	-11.4498
▁Bemühungen	-11.4498
▁verließen	-11.4504
vy	-11.4504
▁Institution	-11.4504
▁Betreuung	-11.4505
2006	-11.4506
▁Bron	-11.4506
▁Irr	-11.4507
▁Bé	-11.4508
Just	-11.451
1,4	-11.451
▁Neun	-11.451
nberg	-11.4515
jugend	-11.4515
▁Konstantinopel	-11.4515
▁Wirt	-11.4517
samkeit	-11.4518
▁Konflikten	-11.4519
Nationalpark	-11.452
▁indirekt	-11.4521
rosa	-11.4522
▁Shan	-11.4522
▁Kunstgeschichte	-11.4523
Arab	-11.4525
▁Stanley	-11.4527
▁Anwesenheit	-11.4528
cast	-11.4528
Teil	-11.4528
auto	-11.4529
ota	-11.4529
▁Bayreuth	-11.453
▁Departamento	-11.4533
▁vernichtet	-11.4533
regel	-11.4534
üs	-11.4534
▁galten	-11.4535
hundert	-11.4536
Jud	-11.4538
melde	-11.4539
panzer	-11.4539
Orient	-11.4539
▁Wisconsin	-11.454
▁goldenen	-11.454
rá	-11.4541
▁Texten	-11.4542
▁1804	-11.4543
ières	-11.4544
niveau	-11.4546
▁gefasst	-11.4546
▁1823	-11.4548
▁Jos	-11.455
▁Chap	-11.4551
▁abermals	-11.4555
arte	-11.4555
ritt	-11.4555
▁Nordsee	-11.4555
▁Infolge	-11.4556
▁Faktoren	-11.4557
▁Gefäß	-11.4557
5,5	-11.4559
mitglied	-11.456
▁Dokument	-11.4561
▁2:0	-11.4561
▁Brook	-11.4562
ør	-11.4562
▁senkrecht	-11.4564
▁Fußballverein	-11.4564
▁Oberösterreich	-11.4565
▁Four	-11.4567
▁Prinzen	-11.4567
▁Alp	-11.4567
▁Kommentar	-11.4567
▁repräsentative	-11.4568
strahlen	-11.4568
norm	-11.4568
▁Abraham	-11.4571
richtet	-11.4571
▁Bruders	-11.4572
route	-11.4572
inski	-11.4574
ines	-11.4575
▁Mountains	-11.4576
▁Belgrad	-11.4576
▁Chu	-11.4576
GE	-11.4578
▁wahrgenommen	-11.4578
▁Kindes	-11.4579
▁Durchgang	-11.458
▁Polar	-11.4581
ewski	-11.4582
▁erforscht	-11.4585
turn	-11.4585
▁kirchlichen	-11.4588
2005	-11.4588
▁Inhalte	-11.459
▁Schiller	-11.4591
▁Elektronen	-11.4591
felde	-11.4593
max	-11.4594
▁Palais	-11.4594
▁eigenständigen	-11.4595
▁verschwunden	-11.4599
▁Binde	-11.4599
▁96	-11.46
Station	-11.4601
betriebs	-11.4601
vik	-11.4602
weide	-11.4602
▁untereinander	-11.4603
▁Anwendungen	-11.4604
▁con	-11.4604
▁künstlich	-11.4605
fließen	-11.4606
▁Informatik	-11.4609
▁2016/17	-11.4609
▁überzeugen	-11.4611
▁Stall	-11.4615
▁kurzfristig	-11.4616
grafen	-11.4616
ales	-11.4618
▁Wenig	-11.4618
▁Down	-11.4618
▁schickte	-11.462
stan	-11.462
▁jegliche	-11.4622
▁Sediment	-11.4623
vorsitzender	-11.4624
▁verpflichtete	-11.4625
▁Board	-11.4626
▁Vietnam	-11.4627
sarbeit	-11.4627
▁Realität	-11.4627
gerufen	-11.4627
▁Erfindung	-11.4629
▁Kleine	-11.4629
▁Generationen	-11.463
tzer	-11.4631
eva	-11.4631
azi	-11.4632
hold	-11.4632
FL	-11.4634
▁Thüringer	-11.4634
▁VfL	-11.4634
Sam	-11.4634
▁lesen	-11.4635
bögen	-11.4635
flotte	-11.4635
BB	-11.4636
▁erhöhen	-11.4636
▁ausgelöst	-11.4637
▁Vill	-11.4637
▁normalerweise	-11.4637
▁Cons	-11.4638
▁lautete	-11.4639
asi	-11.4641
Mail	-11.4642
▁Franco	-11.4642
▁Bestände	-11.4644
▁jeweilige	-11.4645
Bei	-11.4645
Szene	-11.4645
▁−	-11.4648
stöckige	-11.4648
▁Rohstoff	-11.4648
▁Bitte	-11.465
finden	-11.4651
▁Ressourcen	-11.4651
▁Allianz	-11.4651
meier	-11.4651
▁grün	-11.4652
▁EC	-11.4653
▁spendete	-11.4655
▁Lande	-11.4655
▁Stimmung	-11.4655
ston	-11.4655
vereine	-11.4656
ská	-11.4656
werden	-11.4657
/4	-11.4657
▁konstant	-11.4659
fische	-11.4659
reif	-11.466
geleitet	-11.466
▁Individuen	-11.466
▁Stifts	-11.4661
▁Ran	-11.4662
▁Poll	-11.4664
▁Vermögens	-11.4666
atten	-11.4667
▁verlangt	-11.4668
griechisch	-11.4668
teur	-11.4668
▁bestritten	-11.4669
▁Krakau	-11.467
▁zustande	-11.467
▁kehrt	-11.467
day	-11.4671
▁Philologie	-11.4674
▁Dance	-11.4674
▁Sportverein	-11.4677
▁Fachbereich	-11.4677
2,5	-11.4677
▁Käfer	-11.4677
▁Engländer	-11.4679
svertrag	-11.4679
▁Tiger	-11.468
▁unterwegs	-11.4681
▁welchen	-11.4683
▁Estland	-11.4683
spitzen	-11.4684
▁besiegt	-11.4685
▁Zy	-11.4685
▁geheim	-11.4685
▁einsetzen	-11.4685
wesens	-11.4686
▁Ermordung	-11.469
▁Départements	-11.4693
oph	-11.4693
▁Wanderweg	-11.4693
Hil	-11.4693
kritischen	-11.4693
brachte	-11.4694
Aktiv	-11.4696
schrieb	-11.4697
jar	-11.4698
ienne	-11.4699
▁erneuten	-11.47
kamm	-11.4701
▁Meeresspiegel	-11.4701
kurse	-11.4704
▁Publizist	-11.4708
▁Delegation	-11.4708
parlament	-11.4708
▁Å	-11.4708
▁Rückseite	-11.4709
▁Polizisten	-11.4709
▁Blu	-11.471
Wh	-11.4712
▁monatlich	-11.4712
▁erneute	-11.4713
▁voller	-11.4714
Graph	-11.4714
wy	-11.4714
▁Cour	-11.4714
­	-11.4715
▁from	-11.4715
schacht	-11.4716
gni	-11.4716
▁Om	-11.4717
▁verblieben	-11.4719
mul	-11.472
ibel	-11.4721
▁Kinofilm	-11.4723
▁Heiz	-11.4727
▁Julia	-11.4728
▁aufwändig	-11.4732
▁verkürzt	-11.4733
▁Male	-11.4734
▁Claude	-11.4736
ologen	-11.4738
▁Behörde	-11.4738
▁rechte	-11.4739
▁gesungen	-11.4741
▁montiert	-11.4741
▁Feier	-11.4742
▁Public	-11.4742
▁zurückkehrte	-11.4743
Molekül	-11.4743
▁Zürcher	-11.4743
kalk	-11.4743
▁korrekt	-11.4743
WM	-11.4748
▁Paulo	-11.475
▁repräsentiert	-11.475
IA	-11.475
▁viermal	-11.4752
AV	-11.4753
Bass	-11.4753
▁Leicht	-11.4753
▁Muskel	-11.4753
ál	-11.4755
Tatort	-11.4756
▁Musikern	-11.4757
▁Edinburgh	-11.4757
gos	-11.476
▁Ausländer	-11.4763
gebot	-11.4764
ppi	-11.4764
▁bedeutsam	-11.4764
männer	-11.4764
▁Philippinen	-11.4765
▁Ausdehnung	-11.4767
Hol	-11.4768
tang	-11.477
▁besetzte	-11.4771
bataillon	-11.4771
▁Ergänzung	-11.4771
▁Monuments	-11.4771
assen	-11.4772
▁illegal	-11.4772
▁Freud	-11.4774
arme	-11.4775
▁Schulden	-11.4776
light	-11.4778
▁gänzlich	-11.4778
1945	-11.4778
▁Nahrungs	-11.4779
▁Lac	-11.478
übergreifend	-11.4781
▁Schlei	-11.4781
oku	-11.4782
▁Archäologie	-11.4782
wacht	-11.4782
▁Guy	-11.4783
▁Hip	-11.4786
ór	-11.4787
▁Spielbetrieb	-11.4787
▁Elf	-11.4789
▁leichte	-11.479
▁Beine	-11.479
▁Griff	-11.4791
▁Mittelfeld	-11.4792
▁Anger	-11.4793
ulf	-11.4793
▁einzelner	-11.4794
▁wolle	-11.4794
▁Cast	-11.4795
6,5	-11.4795
▁Kirchturm	-11.4798
▁Bein	-11.4798
Rh	-11.4798
brett	-11.4799
▁Af	-11.4799
zit	-11.48
▁Erlaubnis	-11.48
▁negativ	-11.48
▁Fox	-11.4802
▁prägte	-11.4802
▁Schäfer	-11.4803
▁Schönheit	-11.4803
funde	-11.4804
USA	-11.4805
▁Wing	-11.4805
rag	-11.4806
▁Colorado	-11.4807
Kunst	-11.4807
▁Lese	-11.4807
kommende	-11.4808
▁Gotteshaus	-11.4808
▁Ohr	-11.4809
▁braucht	-11.481
▁Wirken	-11.4813
schatz	-11.4814
Od	-11.4816
▁Anklage	-11.4817
▁Prediger	-11.4817
▁langfristig	-11.4817
smaßnahmen	-11.4818
▁BMW	-11.4818
▁Erziehungs	-11.482
▁Sakristei	-11.4821
0,7	-11.4821
▁Lüneburg	-11.4822
▁Luftfahrt	-11.4822
▁Erik	-11.4824
▁Dub	-11.4824
Griechisch	-11.4825
rutsch	-11.4826
drang	-11.4826
roh	-11.4827
▁Einnahmen	-11.483
▁polnischer	-11.4833
mächte	-11.4833
▁Physiker	-11.4836
▁weiten	-11.4837
▁Falls	-11.4839
▁Händen	-11.4839
Bas	-11.4839
▁Häftlinge	-11.4839
▁Formation	-11.484
Sprach	-11.4841
2008	-11.4842
▁Kompanie	-11.4842
sens	-11.4843
▁Nachricht	-11.4843
▁Zehnt	-11.4845
Ort	-11.4845
▁gelistet	-11.4846
organische	-11.4848
▁belief	-11.4848
▁sorgen	-11.4851
▁inklusive	-11.4851
▁soweit	-11.4853
rop	-11.4853
▁Füll	-11.4854
lohn	-11.4856
▁Action	-11.4857
▁Hab	-11.4857
gram	-11.4859
▁stürzte	-11.486
eter	-11.4863
▁gemeinnützige	-11.4863
▁schoss	-11.4864
▁Sven	-11.4865
Hans	-11.4866
▁normalen	-11.4867
englischsprachig	-11.4869
▁dorthin	-11.487
deutschland	-11.4871
▁besseren	-11.4872
lind	-11.4872
▁Sterbe	-11.4872
Global	-11.4874
opo	-11.4874
opp	-11.4874
▁trainierte	-11.4875
OR	-11.4875
arium	-11.4877
staats	-11.4877
faktor	-11.4879
▁Fli	-11.4879
▁niemand	-11.488
risch	-11.4881
2009	-11.4882
▁Landwirtschafts	-11.4883
▁ausgeliefert	-11.4883
offs	-11.4883
Kur	-11.4884
hier	-11.4884
verbrauch	-11.4885
pie	-11.4885
▁Anfänge	-11.4887
▁Franziskaner	-11.4887
At	-11.4887
▁Wird	-11.4887
schied	-11.4888
▁königlich	-11.4889
▁Til	-11.4889
▁Terra	-11.4891
▁orientierte	-11.4892
▁langjährigen	-11.4892
öhl	-11.4893
Neue	-11.4893
▁Orange	-11.4895
▁Unterseite	-11.4896
▁Namensgeber	-11.4897
troph	-11.4897
Mü	-11.4897
▁Fernsehsender	-11.4897
▁reich	-11.49
zehn	-11.4906
▁eigenem	-11.4907
▁Ermittlung	-11.4908
Hits	-11.4909
▁Norman	-11.4911
Martin	-11.4912
▁Diakon	-11.4912
ô	-11.4913
schirm	-11.4913
gur	-11.4913
vision	-11.4914
▁Invasion	-11.4914
▁Shin	-11.4914
▁Fein	-11.4915
treppe	-11.4916
▁Verbraucher	-11.4919
▁unsere	-11.492
▁Liechtenstein	-11.4921
▁aufbewahrt	-11.4921
▁versenkt	-11.4921
John	-11.4921
gelesen	-11.4923
▁Ballett	-11.4925
ersheim	-11.4927
oft	-11.4927
▁Düsseldorfer	-11.4927
▁Laien	-11.4928
3/	-11.4928
hum	-11.4929
▁Anstalt	-11.4931
haar	-11.4932
▁Maschinenbau	-11.4932
normal	-11.4932
medien	-11.4934
▁Blind	-11.4935
▁guter	-11.4935
▁Tower	-11.4936
▁Kenntnisse	-11.4937
EA	-11.4937
▁inner	-11.4938
sphase	-11.4939
taler	-11.4939
▁zerstörte	-11.494
▁Krise	-11.4941
▁kennt	-11.4942
▁Nationalrat	-11.4942
▁Einnahme	-11.4943
▁Uruguay	-11.4943
orientierten	-11.4944
genannt	-11.4945
▁hohem	-11.4945
▁Kalkstein	-11.4945
▁Auftreten	-11.4947
camp	-11.4948
▁Staatlichen	-11.4948
stich	-11.4949
Air	-11.4949
schwimm	-11.4951
▁touristisch	-11.4951
▁Gegenzug	-11.4953
▁tausend	-11.4953
▁Harald	-11.4955
▁erbte	-11.4955
gearbeitet	-11.4955
ON	-11.4957
▁Fische	-11.4957
▁Gesellschafts	-11.4958
▁Höfe	-11.4961
tun	-11.4961
▁Bayer	-11.4962
▁Turner	-11.4963
toria	-11.4965
▁Wladimir	-11.4965
iums	-11.4968
tim	-11.4969
omorph	-11.497
worth	-11.4971
TE	-11.4971
division	-11.4972
inischen	-11.4974
lier	-11.4975
▁bat	-11.4976
hou	-11.4976
übung	-11.4976
▁wissen	-11.4979
▁Vegetation	-11.4979
▁Zuständigkeit	-11.498
▁Aktionen	-11.498
anus	-11.4981
▁Komplex	-11.4985
▁Solar	-11.4986
▁Verfasser	-11.4986
▁CO	-11.4988
AK	-11.4988
▁76	-11.4988
▁neunten	-11.4988
Grö	-11.4988
ged	-11.499
▁Erwachsenen	-11.4993
2010	-11.4995
Psych	-11.4997
▁Datenbank	-11.4997
▁Unmittelbar	-11.4997
spitz	-11.4998
Saale	-11.4998
palast	-11.4999
▁bewirkt	-11.5
▁angewendet	-11.5002
▁verdrängt	-11.5003
assistent	-11.5004
▁Borg	-11.5005
▁phil	-11.5005
zes	-11.5005
▁Anstieg	-11.5005
▁Marketing	-11.5006
programme	-11.5006
▁Verbandes	-11.5007
▁Kot	-11.5007
Weltcup	-11.5008
▁Chemiker	-11.5009
▁Gordon	-11.501
▁Konzentration	-11.5011
Blanc	-11.5013
▁Wälder	-11.5013
HS	-11.5015
▁Brüdern	-11.5016
deutschsprachige	-11.5016
▁Schö	-11.5018
▁Kenntnis	-11.5018
0,8	-11.502
▁flog	-11.5021
▁ländlichen	-11.5022
klein	-11.5022
fund	-11.5023
Chi	-11.5024
▁Mitgliedschaft	-11.5025
stechnik	-11.5025
kante	-11.5026
▁Ermittlungen	-11.5026
▁Stuttgarter	-11.5026
▁ansässigen	-11.5027
▁verkehrt	-11.5027
eigenen	-11.5028
Grund	-11.5028
▁Fußballnational	-11.5029
burn	-11.503
▁Disziplinen	-11.5031
▁Pom	-11.5032
fü	-11.5032
▁absolute	-11.5032
▁Weiden	-11.5035
▁Rum	-11.5035
▁entwässert	-11.5037
▁hervorgegangen	-11.5039
▁herausragende	-11.5039
▁größerer	-11.5041
SSR	-11.5041
Senior	-11.5042
niedrig	-11.5042
psycho	-11.5042
▁digitale	-11.5043
Ag	-11.5045
▁schmalen	-11.5047
Rhein	-11.5048
▁Hauptstraße	-11.5048
Park	-11.505
▁1794	-11.5051
▁Ehrenmitglied	-11.5051
▁Hongkong	-11.5052
▁Dave	-11.5054
▁Cri	-11.5055
▁Manuskript	-11.5056
▁stirbt	-11.5056
▁abschließend	-11.5057
▁Batterie	-11.5057
wache	-11.5059
disziplin	-11.5059
▁Sizilien	-11.5059
2002	-11.506
▁Schieß	-11.5061
mé	-11.5061
▁Vermessung	-11.5063
▁Gift	-11.5063
▁Mythologie	-11.5067
lehn	-11.5067
▁Schutzgebiet	-11.5067
lies	-11.5067
▁Oder	-11.5068
KO	-11.5069
steiner	-11.5069
▁Rechen	-11.507
▁Entertainment	-11.507
▁Dro	-11.507
Cap	-11.5073
▁variiert	-11.5073
▁Schaffung	-11.5073
HA	-11.5075
▁Volkes	-11.5076
▁Weit	-11.5078
sleiter	-11.5079
▁nationaler	-11.508
▁Zwi	-11.508
▁aufgelistet	-11.5081
▁Katalog	-11.5083
▁vorherigen	-11.5083
▁ruhig	-11.5084
ides	-11.5084
▁häufigsten	-11.5084
▁Extrem	-11.5085
▁zeitgenössische	-11.5085
spreng	-11.5085
verständnis	-11.5085
▁Hochaltar	-11.5086
preise	-11.5086
wörtlich	-11.5086
▁Angreifer	-11.5089
▁erwarten	-11.5089
▁Programmier	-11.509
▁sofern	-11.509
▁Relief	-11.5092
Ter	-11.5092
zählung	-11.5092
bestände	-11.5093
▁gotische	-11.5094
700	-11.5095
▁Worms	-11.5095
▁Nachbarschaft	-11.5097
geschossen	-11.5098
▁Soundtrack	-11.51
Ball	-11.51
ological	-11.5102
bourg	-11.5103
▁sammeln	-11.5103
▁2017/18	-11.5107
▁Pedal	-11.511
▁Morris	-11.5111
ivität	-11.5112
▁Chronik	-11.5114
▁unbekannten	-11.5116
▁Fran	-11.5116
▁Herzen	-11.5117
scheibe	-11.5117
▁Mittlerweile	-11.5118
▁Experiment	-11.5119
▁besagt	-11.5119
joch	-11.512
▁Performance	-11.5122
gekauft	-11.5122
▁wirksam	-11.5124
▁effektiv	-11.5124
▁Generalstab	-11.5125
empfindlich	-11.5125
gewerbe	-11.5127
▁Eingemeindung	-11.5129
▁Salon	-11.5129
Natur	-11.513
▁obersten	-11.513
aq	-11.5131
▁niemals	-11.5133
▁geprägten	-11.5134
▁Beratung	-11.5134
▁Strafe	-11.5134
▁Elementen	-11.5136
▁Blütezeit	-11.5138
▁befahren	-11.514
▁Baptist	-11.5141
▁Graham	-11.5142
heer	-11.5142
baus	-11.5143
▁Bewegungen	-11.5143
zwei	-11.5145
▁Pau	-11.5145
▁Verwandten	-11.5148
▁Seitenschiff	-11.5148
▁Bismarck	-11.5149
▁überall	-11.5149
▁Gramm	-11.515
▁Romans	-11.5151
gui	-11.5153
▁Kärnten	-11.5155
▁Bedrohung	-11.5156
▁angefertigt	-11.5157
▁verehrt	-11.5157
bisch	-11.5157
▁zurückkehren	-11.5159
▁Leichen	-11.516
Col	-11.516
▁überleben	-11.516
▁Kilogramm	-11.5162
▁Bewegungs	-11.5162
tech	-11.5165
▁Erhöhung	-11.5166
▁Chlor	-11.5167
▁Donald	-11.5167
bohr	-11.5167
▁Rott	-11.5168
bürgerlich	-11.5169
▁Denkmalliste	-11.517
wenden	-11.5171
▁Area	-11.5173
▁Könige	-11.5175
▁IT	-11.5176
▁Jordan	-11.5178
Os	-11.518
▁Darauf	-11.518
uner	-11.5181
▁Klassische	-11.5181
▁Niederschlag	-11.5183
Office	-11.5184
▁Erwin	-11.5184
▁della	-11.5184
hofer	-11.5184
▁Tuch	-11.5184
ič	-11.5186
▁Bundestagswahl	-11.5188
meldung	-11.5189
kolleg	-11.5189
▁Schmid	-11.5191
Ul	-11.5192
staffel	-11.5192
▁Buches	-11.5193
▁Alice	-11.5193
tradition	-11.5194
2007	-11.5197
ault	-11.5198
▁Express	-11.5199
▁Geschwister	-11.52
▁Fly	-11.52
pflichtig	-11.5201
▁zugrunde	-11.5202
▁Vorgehen	-11.5203
▁Maz	-11.5204
0,6	-11.5206
oire	-11.5206
▁wesentlichen	-11.5206
▁ausländische	-11.5207
▁Tol	-11.5209
▁Unterfamilie	-11.521
2011	-11.521
LS	-11.521
▁Innovation	-11.521
leitungen	-11.521
▁Space	-11.5212
▁unabhängigen	-11.5212
▁2007/08	-11.5214
▁Technology	-11.5214
▁Mainzer	-11.5215
stre	-11.5216
gerichtshof	-11.5217
▁Vereinbarung	-11.5218
ländern	-11.5219
kontakt	-11.5224
uan	-11.5224
▁selbstständig	-11.5224
pus	-11.5225
▁Kies	-11.5225
▁Petrus	-11.5227
▁ausschied	-11.5228
Drei	-11.5228
▁Auflagen	-11.5229
▁Europe	-11.523
▁liefern	-11.523
▁Adams	-11.5231
mengen	-11.5233
herz	-11.5233
▁Maxim	-11.5234
Bal	-11.5235
Johann	-11.5235
ologisch	-11.5236
▁Italienisch	-11.5237
▁kanadische	-11.5237
▁Ev	-11.5238
symmetrisch	-11.5238
▁Rast	-11.524
▁Akten	-11.5241
Spree	-11.5242
▁Bewohnern	-11.5242
▁Verwandtschaft	-11.5244
lop	-11.5244
▁bayerische	-11.5244
verb	-11.5245
▁Missionar	-11.5246
▁schlechter	-11.5246
▁jährlichen	-11.5246
usa	-11.5248
▁Julian	-11.5248
▁Hartmann	-11.5251
▁meinte	-11.5252
▁Kata	-11.5252
OC	-11.5253
▁Mast	-11.5254
▁Landstraße	-11.5254
schneid	-11.5256
vic	-11.5258
nehm	-11.5258
▁Vorfahren	-11.5261
▁geformt	-11.5261
lege	-11.5263
vergleich	-11.5263
iza	-11.5266
▁Beobachter	-11.5266
▁Reichweite	-11.5266
itischen	-11.5266
anna	-11.5268
bergs	-11.5269
pause	-11.527
▁Wick	-11.5271
OP	-11.5271
EP	-11.5276
▁Stausee	-11.5277
▁thematisiert	-11.5277
schütz	-11.5279
▁Kä	-11.528
kessel	-11.5281
▁Zen	-11.5283
▁samt	-11.5284
▁Missouri	-11.5285
finanz	-11.5285
▁Pfeil	-11.5287
anstalten	-11.5288
Denis	-11.5289
št	-11.529
flut	-11.529
isi	-11.529
▁Detroit	-11.5292
stheorie	-11.5294
teilnehmer	-11.5294
▁Esch	-11.5296
▁Bären	-11.5297
▁Wai	-11.5298
▁gemeint	-11.5299
papier	-11.5299
▁Abgrenzung	-11.53
▁NBA	-11.5301
rechnet	-11.5301
▁Dirigent	-11.5302
sprogramm	-11.5303
▁Québec	-11.5303
rze	-11.5306
geordnete	-11.5306
gekommen	-11.5306
Virus	-11.5306
gelaufen	-11.5307
▁Lincoln	-11.5307
pit	-11.5307
▁verliert	-11.5307
▁deutliche	-11.5307
▁Geschmack	-11.5311
Ära	-11.5311
▁Angriffs	-11.5311
kunft	-11.5312
▁Alma	-11.5313
▁Fotograf	-11.5315
▁Atem	-11.5316
▁begab	-11.5318
▁schräg	-11.5318
▁Staffeln	-11.532
▁jemand	-11.5321
▁Paulus	-11.5322
▁Boh	-11.5322
▁Gerd	-11.5322
▁Sens	-11.5323
Franc	-11.5323
Wissenschaftlich	-11.5324
▁flache	-11.5324
konservativ	-11.5325
▁Bestimmungen	-11.5325
▁unterzeichnet	-11.5326
▁Municipio	-11.5326
sun	-11.5328
▁veranlasste	-11.5329
schach	-11.5329
▁Hauptwerk	-11.5329
▁Tausend	-11.5329
▁Aspekt	-11.533
lutherischen	-11.5331
▁Benediktiner	-11.5331
▁Früher	-11.5333
▁Oberstleutnant	-11.5333
Abteilung	-11.5337
▁Ep	-11.534
▁urkundliche	-11.534
lte	-11.534
▁Staatsbürger	-11.534
schlug	-11.5341
▁Monarchie	-11.5346
▁kommend	-11.5349
misch	-11.535
labor	-11.535
▁Spinn	-11.5354
▁Grande	-11.5357
▁Mönche	-11.5357
Rund	-11.5358
song	-11.5358
▁Quartier	-11.5358
jagd	-11.5359
▁vergeblich	-11.536
▁brasilianischen	-11.536
fränkisch	-11.5363
Altenburg	-11.5366
Lei	-11.5366
Komitee	-11.537
Mel	-11.537
▁Asia	-11.537
äum	-11.5371
▁Patriarch	-11.5371
▁Fischerei	-11.5371
▁Leber	-11.5371
▁Taiwan	-11.5372
▁Geistlicher	-11.5374
flo	-11.5379
orthodoxe	-11.538
gehör	-11.538
▁Ausläufer	-11.5381
▁Rai	-11.5382
▁Wandel	-11.5382
▁Künstlerin	-11.5382
span	-11.5384
flieger	-11.5384
▁Francesco	-11.5386
schwanz	-11.5388
aufsicht	-11.5388
▁gehörende	-11.5389
▁lateinische	-11.5389
▁Death	-11.5389
▁annähernd	-11.539
▁Lach	-11.5393
▁Xi	-11.5394
▁Book	-11.5394
sek	-11.5396
▁Explosion	-11.5397
▁brannte	-11.5397
oko	-11.54
▁Stiel	-11.54
1999	-11.54
▁daß	-11.5403
▁Borussia	-11.5405
linear	-11.5406
▁IF	-11.5408
phor	-11.5408
▁Kunstakademie	-11.5409
▁Quadratmeter	-11.5409
▁mehrheitlich	-11.5409
steller	-11.5411
▁Eingriff	-11.5414
▁Melbourne	-11.5416
▁horizontal	-11.5417
gegenstände	-11.5418
▁Bil	-11.5419
▁chemischen	-11.5419
▁Pakistan	-11.542
▁VfB	-11.542
CI	-11.542
▁geschlossene	-11.5421
▁Modernisierung	-11.5421
▁feste	-11.5423
syn	-11.5423
▁etabliert	-11.5426
Arm	-11.5427
▁Perl	-11.5429
▁Ortskern	-11.5429
▁Muslime	-11.543
problem	-11.543
but	-11.5431
▁Lars	-11.5431
▁Afghanistan	-11.5431
▁Alfons	-11.5432
▁wonach	-11.5434
▁Herrschafts	-11.5435
▁Flensburg	-11.5435
ped	-11.5437
▁Ausmaß	-11.5437
▁Cher	-11.5438
indi	-11.544
▁Opera	-11.5441
▁Rasse	-11.5441
▁Ries	-11.5442
▁Roo	-11.5442
▁Schwing	-11.5443
zähl	-11.5444
arischen	-11.5445
▁Berger	-11.5445
machen	-11.5445
▁73	-11.5447
wachen	-11.5448
▁erlaubte	-11.5449
▁Ou	-11.545
pfeiler	-11.545
▁Budd	-11.5451
▁Gerichtshof	-11.5451
_8	-11.5452
▁Ortsnamen	-11.5453
▁eiförmig	-11.5454
ło	-11.5454
▁Sher	-11.5454
Union	-11.5455
marine	-11.5456
▁División	-11.5458
sack	-11.5458
▁sitzen	-11.5459
reifen	-11.5459
▁Alexandr	-11.546
▁Cle	-11.546
▁Range	-11.5461
▁ergaben	-11.5461
▁Mississippi	-11.5462
Eu	-11.5462
▁Staatssekretär	-11.5465
Hit	-11.5468
radikal	-11.5469
regelung	-11.5469
DO	-11.5469
mers	-11.547
belastet	-11.547
▁Verhaltens	-11.5472
tiker	-11.5475
fähr	-11.5476
matik	-11.5476
feindlich	-11.548
▁Jedes	-11.548
▁Größen	-11.548
Schwe	-11.548
Auswahl	-11.5481
▁Bowl	-11.5481
oka	-11.5482
ätz	-11.5482
▁Handlungen	-11.5483
▁Pelz	-11.5483
▁Tw	-11.5484
▁Magnet	-11.5486
▁Konsum	-11.5487
ň	-11.5488
▁Statthalter	-11.5489
Ly	-11.5491
Berliner	-11.5491
▁Atlantik	-11.5492
geschichtliche	-11.5493
▁Strahlen	-11.5493
▁Wester	-11.5493
bia	-11.5494
HMS	-11.5494
▁Vokal	-11.5494
▁Uran	-11.5495
▁geschieht	-11.55
frauen	-11.5501
▁Little	-11.5502
▁Bahnhöfe	-11.5505
ländische	-11.5506
nummern	-11.5507
▁Aufschwung	-11.5508
steinen	-11.5511
▁Order	-11.5511
▁Mercedes	-11.5511
▁kirchliche	-11.5512
▁Kindergarten	-11.5512
sfähig	-11.5513
Wal	-11.5513
blo	-11.5515
▁Diego	-11.5515
▁Stammspieler	-11.5517
halte	-11.5519
▁begegnet	-11.5519
anschluss	-11.5519
gefragt	-11.5519
heiß	-11.5521
Tur	-11.5521
AI	-11.5522
bai	-11.5522
enfels	-11.5522
▁zulässig	-11.5523
▁Stadium	-11.5523
dorn	-11.5524
Sänger	-11.5524
▁dramatisch	-11.5526
Dienstleistungen	-11.5526
▁Ves	-11.5527
hochschule	-11.5527
▁Gegenüber	-11.5528
▁Liv	-11.5528
▁TU	-11.553
Stadion	-11.553
gespielt	-11.553
▁Jimmy	-11.5531
▁Rinder	-11.5531
▁Benennung	-11.5532
▁Nachkriegszeit	-11.5532
rüstung	-11.5532
▁Busse	-11.5534
schmelz	-11.5535
uit	-11.5535
▁Weihbischof	-11.5538
▁jahrelang	-11.5538
zahlung	-11.5538
▁bemerkenswert	-11.5539
ED	-11.5539
▁Wirbel	-11.5539
Hal	-11.5539
▁Standorte	-11.5541
▁Räumen	-11.5541
Klassiker	-11.5541
▁Konflikte	-11.5542
▁spätgotische	-11.5542
▁Biologie	-11.5542
gem	-11.5543
liebe	-11.5543
▁erwerben	-11.5544
▁Turniers	-11.5547
▁Siemens	-11.5547
▁zerstörten	-11.5548
▁Festungs	-11.5549
Dis	-11.5549
0,4	-11.555
sprachigen	-11.5551
▁Prager	-11.5553
▁umgestaltet	-11.5553
▁Pflanzenart	-11.5554
▁zuständigen	-11.5554
▁Schwefel	-11.5555
fant	-11.5555
beide	-11.5556
/2	-11.5557
▁beauftragte	-11.5558
▁Steinkohle	-11.5558
▁Vincent	-11.5562
▁bürgerlichen	-11.5565
▁Chart	-11.5568
lack	-11.557
alo	-11.5571
▁Inschriften	-11.5572
▁Mayer	-11.5573
École	-11.5573
▁Bär	-11.5574
mast	-11.5575
deutscher	-11.5575
▁Bischofsweihe	-11.5577
▁Wurzel	-11.5579
▁Sant	-11.558
▁geklärt	-11.558
sonder	-11.5582
▁Weinberg	-11.5582
ț	-11.5584
ört	-11.5584
▁Stirn	-11.5585
▁1789	-11.5586
▁Johnny	-11.5586
MO	-11.5586
hle	-11.5586
▁Organist	-11.5587
▁Aufträge	-11.5587
Department	-11.5588
betrieben	-11.5588
long	-11.5589
▁Rache	-11.559
[...]
