<pad>	0
<unk>	0
[CLS]	0
[SEP]	0
[MASK]	0
(	0
)	0
"	0
-	0
.	0
–	0
£	0
€	0
▁	-2.13839
,	-3.33982
▁der	-3.82663
▁und	-4.02985
▁die	-4.0991
s	-4.39475
en	-4.41179
▁in	-4.47966
e	-4.68059
▁von	-4.82515
▁den	-5.00268
▁des	-5.08545
▁zu	-5.15061
n	-5.18403
▁mit	-5.20152
▁für	-5.28196
▁ist	-5.32182
er	-5.32268
▁im	-5.35936
▁auf	-5.36236
▁das	-5.42397
:	-5.4679
▁dem	-5.52337
▁Die	-5.58055
▁eine	-5.58851
▁ein	-5.6013
▁sich	-5.74051
▁an	-5.81304
▁als	-5.83192
▁nicht	-5.83587
▁Sie	-5.90127
▁aus	-5.98536
▁wurde	-6.03256
▁werden	-6.09125
▁auch	-6.09531
▁dass	-6.12546
▁nach	-6.13538
▁er	-6.18313
es	-6.19161
▁einer	-6.21445
▁oder	-6.22322
▁sind	-6.22703
▁bei	-6.25965
▁über	-6.26261
t	-6.2748
▁sie	-6.32113
▁war	-6.32231
▁wird	-6.34916
▁Der	-6.39467
▁durch	-6.39591
▁zur	-6.3965
▁es	-6.40931
▁zum	-6.43597
▁um	-6.44656
▁1	-6.47143
▁am	-6.47645
▁vom	-6.48529
▁bis	-6.49387
▁einem	-6.49987
r	-6.52446
▁einen	-6.56635
▁Das	-6.59335
▁hat	-6.60156
/	-6.6018
▁wie	-6.6753
▁In	-6.68215
▁„	-6.70266
a	-6.70608
▁2	-6.74017
;	-6.74826
“	-6.78461
in	-6.79545
▁vor	-6.80791
▁S	-6.86547
▁nur	-6.89749
▁unter	-6.91488
m	-6.93424
▁Im	-6.9728
­	-7.01676
▁haben	-7.03025
▁können	-7.03064
▁3	-7.03219
▁kann	-7.04467
2	-7.10277
d	-7.1171
▁dieser	-7.14038
▁noch	-7.14395
▁aber	-7.17509
▁wir	-7.17957
▁Er	-7.18085
▁sein	-7.18541
▁Es	-7.19601
▁sowie	-7.19845
▁so	-7.2048
ung	-7.209
1	-7.21175
▁diese	-7.21568
de	-7.22047
▁eines	-7.22257
▁wurden	-7.22608
▁ab	-7.2272
▁B	-7.27206
▁Jahr	-7.28054
i	-7.29693
▁mehr	-7.31887
▁§	-7.34925
▁4	-7.35032
▁zwischen	-7.38243
o	-7.39018
▁wenn	-7.40489
z	-7.42364
den	-7.42787
▁A	-7.43166
▁Ein	-7.43367
▁Nach	-7.44689
▁ich	-7.45016
▁Abs	-7.45977
▁zwei	-7.46147
te	-7.46379
?	-7.46769
▁seine	-7.46892
▁5	-7.47865
▁seiner	-7.48129
3	-7.48835
l	-7.49053
▁L	-7.50597
▁E	-7.5302
S	-7.5359
▁Zeit	-7.53977
k	-7.54357
h	-7.54447
y	-7.54447
B	-7.5749
▁Jahre	-7.58299
▁gegen	-7.58513
▁ihre	-7.58645
▁alle	-7.60355
▁C	-7.61204
▁diesem	-7.62967
▁Mit	-7.63585
▁man	-7.64823
▁anderen	-7.64841
▁hatte	-7.65003
▁uns	-7.65182
ten	-7.657
!	-7.66012
▁keine	-7.67767
▁Stadt	-7.67985
▁10	-7.72058
g	-7.72449
▁6	-7.72496
▁Am	-7.73804
▁sei	-7.74157
▁Jahren	-7.75647
▁15	-7.7704
▁Diese	-7.7715
▁sehr	-7.77534
▁Ver	-7.78187
an	-7.78189
▁waren	-7.78221
4	-7.78395
▁jedoch	-7.79031
▁K	-7.79649
▁dann	-7.79769
ge	-7.79779
A	-7.80139
▁17	-7.80168
▁ver	-7.81356
C	-7.81694
▁M	-7.82451
▁hier	-7.82631
▁Nr	-7.82865
▁Auf	-7.83088
▁Kommission	-7.84316
▁seit	-7.84517
▁16	-7.85217
▁gibt	-7.85292
▁ihrer	-7.86405
▁ihr	-7.86669
▁drei	-7.87121
st	-7.87584
▁Ab	-7.87618
▁wieder	-7.88173
▁Art	-7.88182
▁I	-7.88782
▁Teil	-7.89749
▁20	-7.89938
▁An	-7.89952
▁Bei	-7.90177
▁ersten	-7.90255
be	-7.91019
▁bereits	-7.91253
em	-7.91263
▁Ihre	-7.91685
▁7	-7.9234
▁was	-7.92605
'	-7.93816
b	-7.941
al	-7.94129
▁habe	-7.94939
▁da	-7.95
ing	-7.95109
ver	-7.95789
▁8	-7.96749
▁ohne	-7.97213
5	-7.97882
f	-7.99081
▁12	-7.99178
▁dieses	-8.00001
▁damit	-8.00574
▁P	-8.02144
▁Vor	-8.02653
▁Be	-8.02667
▁D	-8.02708
G	-8.02898
D	-8.03032
▁liegt	-8.0323
*	-8.03524
▁%	-8.03934
▁während	-8.04928
▁beim	-8.05277
▁Eine	-8.0538
der	-8.0677
▁ihm	-8.06807
▁worden	-8.06891
▁Wir	-8.07018
▁G	-8.07162
▁T	-8.07198
▁neue	-8.07299
▁andere	-8.07456
▁Welt	-8.07507
▁be	-8.07546
▁Für	-8.07632
000	-8.07633
▁&	-8.08654
▁etwa	-8.08831
▁14	-8.09422
▁V	-8.09496
▁Unternehmen	-8.09604
us	-8.09653
▁immer	-8.10289
▁seinen	-8.10827
▁Daten	-8.10844
▁9	-8.10911
▁R	-8.11452
▁wo	-8.1173
R	-8.12358
▁F	-8.12637
▁30	-8.13046
▁selbst	-8.13272
▁Mai	-8.13374
K	-8.13499
▁Deutschland	-8.14181
▁Artikel	-8.14659
sch	-8.15304
▁seinem	-8.15409
▁Ich	-8.15943
▁of	-8.16186
V	-8.1628
▁13	-8.16725
▁de	-8.16832
▁sondern	-8.16874
um	-8.16994
▁Als	-8.17597
c	-8.17692
F	-8.17989
▁zurück	-8.18237
▁Aus	-8.18812
▁Ende	-8.19053
on	-8.19521
0	-8.19806
E	-8.19814
▁Dezember	-8.19834
el	-8.20098
▁muss	-8.20449
6	-8.20712
▁—	-8.20895
10	-8.21283
▁neuen	-8.21297
▁Menschen	-8.21425
▁Entwicklung	-8.21762
▁Juni	-8.21981
▁km	-8.22026
▁Ge	-8.22069
w	-8.22318
▁diesen	-8.22571
▁ge	-8.22748
et	-8.22868
▁Land	-8.23239
▁Juli	-8.23315
▁ihren	-8.23448
▁11	-8.23925
▁März	-8.24552
▁Januar	-8.24582
19	-8.24981
ischen	-8.25041
▁Wenn	-8.25075
▁müssen	-8.25445
▁ihn	-8.25479
▁Rahmen	-8.25541
▁zusammen	-8.26054
▁Oktober	-8.26427
▁H	-8.27227
▁Unter	-8.2729
12	-8.27536
le	-8.27761
▁Informationen	-8.27783
▁O	-8.27995
ab	-8.28012
▁Von	-8.28221
▁W	-8.28355
▁So	-8.28373
▁erste	-8.2878
▁finden	-8.28876
L	-8.29363
▁18	-8.29626
▁N	-8.29722
7	-8.30306
▁Auch	-8.30723
▁Europäischen	-8.30831
▁St	-8.3143
▁Über	-8.31472
▁August	-8.3243
Die	-8.33105
▁April	-8.33155
▁Um	-8.3318
▁September	-8.3343
▁heute	-8.33562
▁konnte	-8.34099
▁Kläger	-8.34233
▁Bau	-8.34252
▁Da	-8.3433
ch	-8.34969
▁schon	-8.35048
▁Zu	-8.3556
▁m	-8.35777
▁Februar	-8.35814
▁November	-8.36028
▁Wasser	-8.36339
▁Hotel	-8.36668
▁weitere	-8.36758
▁Personen	-8.36774
▁Ihnen	-8.37387
▁ob	-8.37409
▁dort	-8.37495
▁25	-8.37741
▁weiter	-8.37744
is	-8.38095
▁Entscheidung	-8.38251
land	-8.38444
▁bzw	-8.38454
u	-8.38599
▁Fall	-8.38997
▁Klägerin	-8.39002
▁Arbeit	-8.39176
▁Gemeinde	-8.40286
p	-8.4037
H	-8.40656
▁später	-8.40823
ische	-8.40852
▁beiden	-8.40868
▁vier	-8.41193
▁pro	-8.41545
8	-8.41757
▁Gemeinschaft	-8.41945
▁erhalten	-8.42129
▁19	-8.42515
▁weil	-8.42626
▁Kinder	-8.42699
▁U	-8.42966
P	-8.43184
▁Grund	-8.434
M	-8.4348
▁Bereich	-8.43575
18	-8.44505
T	-8.44544
11	-8.45017
▁24	-8.45496
▁Ort	-8.46058
▁soll	-8.4616
x	-8.46188
ig	-8.46373
re	-8.46416
▁Seite	-8.46604
lich	-8.46624
N	-8.4795
▁bietet	-8.48424
und	-8.4846
ter	-8.48575
▁21	-8.48838
▁dessen	-8.4946
▁Satz	-8.50076
▁viele	-8.50489
▁Europa	-8.5052
▁allem	-8.50789
▁Haus	-8.51399
▁Ihr	-8.51569
▁unsere	-8.51762
im	-8.51963
sten	-8.52163
▁Preis	-8.53069
ia	-8.53184
▁kam	-8.53195
ste	-8.53377
▁sollte	-8.53463
at	-8.53665
or	-8.54117
▁dabei	-8.54716
berg	-8.54998
▁22	-8.55168
▁einige	-8.55373
na	-8.55594
ern	-8.56163
▁Höhe	-8.56424
▁befindet	-8.56445
▁un	-8.56671
▁du	-8.56684
▁Und	-8.56712
▁Berlin	-8.56751
▁Namen	-8.57302
▁Kosten	-8.5752
▁darauf	-8.57624
to	-8.57927
W	-8.57959
Z	-8.58
▁Produkt	-8.58084
▁Frage	-8.58733
▁dazu	-8.58783
▁Film	-8.58962
O	-8.58966
ar	-8.59249
▁allen	-8.59285
▁wegen	-8.59413
▁2015	-8.59664
▁Wie	-8.59938
▁insbesondere	-8.60377
gen	-8.60499
▁steht	-8.60515
▁Haupt	-8.60771
9	-8.60797
iert	-8.60908
▁denen	-8.60973
▁Leben	-8.61515
v	-8.61823
▁machen	-8.62016
mann	-8.6206
▁besteht	-8.62117
▁Spiel	-8.62293
it	-8.62446
▁gab	-8.62504
▁23	-8.62654
▁EU	-8.62807
▁möglich	-8.63123
▁Tag	-8.63206
▁welche	-8.63482
▁grossen	-8.63585
zeit	-8.63953
▁a	-8.64237
▁Durch	-8.64641
▁Platz	-8.64655
▁verschiedenen	-8.64778
▁Form	-8.64867
▁Euro	-8.64922
liche	-8.64987
▁2010	-8.65402
isch	-8.65433
▁unserer	-8.65585
▁grosse	-8.65831
EWG	-8.65912
▁2013	-8.66048
vgl	-8.6605
zu	-8.66263
▁2014	-8.66277
▁2012	-8.66531
▁J	-8.66579
▁Beklagte	-8.66667
▁2011	-8.6667
▁US	-8.66687
▁letzten	-8.67358
▁bekannt	-8.67388
▁Alle	-8.67496
▁Seit	-8.67505
▁Ziel	-8.67558
▁Rat	-8.67661
aus	-8.67721
▁Re	-8.67869
▁Mitglied	-8.67998
ie	-8.68078
ein	-8.68239
]	-8.68288
▁28	-8.68432
▁Kirche	-8.68444
▁ebenfalls	-8.68516
▁31	-8.6866
00	-8.68747
▁Urteil	-8.68897
▁Beklagten	-8.69639
▁Dies	-8.6967
▁2009	-8.69844
▁gegenüber	-8.70288
ungen	-8.70527
▁innerhalb	-8.70527
ur	-8.70621
ner	-8.70643
ieren	-8.70921
▁kein	-8.71134
▁26	-8.71251
▁aufgrund	-8.71499
▁rund	-8.71505
ierung	-8.71516
bau	-8.71522
▁davon	-8.71686
▁Kunden	-8.71729
▁verwendet	-8.71982
20	-8.71984
▁II	-8.72247
▁Mal	-8.72417
com	-8.72821
▁Arbeits	-8.72919
ke	-8.73024
▁gut	-8.73159
▁ihrem	-8.73211
ma	-8.73924
▁Universität	-8.73932
▁27	-8.74057
▁Musik	-8.74061
▁Frau	-8.74113
▁erst	-8.74459
▁2007	-8.74507
▁Rechts	-8.74709
▁2016	-8.74825
bar	-8.74852
▁ganz	-8.75155
▁lassen	-8.75638
chen	-8.75786
▁nun	-8.75862
01	-8.76242
ton	-8.76308
man	-8.76599
▁De	-8.76634
▁Landes	-8.76645
ka	-8.77256
▁Produkte	-8.77343
▁Dr	-8.77483
▁Rn	-8.77784
▁Lage	-8.77803
▁Verordnung	-8.77944
ne	-8.78105
▁gemäss	-8.78273
haus	-8.78358
▁29	-8.78414
▁ihnen	-8.78543
▁Kontakt	-8.78802
▁sehen	-8.78807
’	-8.78961
▁Mittel	-8.78998
▁Jahrhundert	-8.79051
▁fünf	-8.79117
▁Familie	-8.79193
▁mich	-8.79244
da	-8.79285
▁|	-8.79319
un	-8.79512
▁Recht	-8.79776
15	-8.79869
▁0	-8.79878
ta	-8.80096
▁zunächst	-8.80098
▁2008	-8.80203
06	-8.80335
▁Frauen	-8.80586
▁Bedeutung	-8.80692
▁Neu	-8.80739
▁Mitgliedstaaten	-8.81068
▁Dieser	-8.81076
▁kommt	-8.81096
▁viel	-8.8115
▁Z	-8.81416
lichen	-8.82396
▁erhielt	-8.82474
▁aller	-8.82541
▁also	-8.82563
▁Anwendung	-8.82635
j	-8.82691
▁geht	-8.82719
▁Kunst	-8.82936
▁100	-8.83039
▁Beispiel	-8.8327
I	-8.83412
▁weiteren	-8.83463
▁Markt	-8.83719
▁statt	-8.83727
au	-8.83952
▁gilt	-8.83953
▁Massnahmen	-8.84216
▁etwas	-8.84251
▁Zimmer	-8.84806
▁entfernt	-8.85007
▁Pro	-8.85145
▁Rates	-8.85249
ed	-8.86041
▁Hier	-8.86225
▁Un	-8.86467
▁La	-8.86646
▁einfach	-8.86694
▁eigenen	-8.87081
30	-8.87139
▁[	-8.87478
▁Saison	-8.87627
▁Region	-8.87846
▁Schutz	-8.87847
▁hinaus	-8.87981
▁daher	-8.8805
17	-8.88412
▁2006	-8.88458
▁Natur	-8.88618
▁Titel	-8.88743
ler	-8.89005
▁Geschichte	-8.89338
▁würde	-8.89705
▁2017	-8.89745
▁Verfahren	-8.89834
▁folgenden	-8.90015
▁Bild	-8.90328
▁Einsatz	-8.90348
02	-8.90663
▁sollten	-8.9076
▁gehört	-8.90818
▁Energie	-8.90835
▁hin	-8.9094
▁mehrere	-8.91366
▁System	-8.9151
▁Gesamt	-8.91762
07	-8.91825
▁Union	-8.92201
▁Während	-8.92228
▁Ober	-8.92274
▁deutschen	-8.92321
co	-8.92422
▁Neben	-8.92713
▁50	-8.92922
▁Verfügung	-8.9296
▁Co	-8.93064
▁Sohn	-8.93478
▁sowohl	-8.93584
▁Weg	-8.93656
▁Herr	-8.93661
▁Industrie	-8.93804
ist	-8.93825
▁2018	-8.94078
▁Gebiet	-8.94255
▁insgesamt	-8.94479
▁Mehr	-8.94531
▁jetzt	-8.94578
▁neben	-8.94608
▁führt	-8.94739
▁Beschluss	-8.94821
▁neu	-8.95142
▁Spiele	-8.95344
▁Wirtschafts	-8.95551
J	-8.9628
▁hatten	-8.96373
▁Weise	-8.96434
▁Millionen	-8.96594
▁anderem	-8.96652
04	-8.96769
▁2005	-8.96986
ra	-8.97095
▁zweiten	-8.97729
▁New	-8.9782
▁besonders	-8.97939
16	-8.97944
▁kommen	-8.9797
▁stehen	-8.98005
▁National	-8.9811
In	-8.98185
▁direkt	-8.98205
03	-8.98302
▁Projekt	-8.98308
▁jeweils	-8.9844
▁mir	-8.98541
▁Dieses	-8.98705
innen	-8.98773
13	-8.98811
▁Jahres	-8.98839
▁Hilfe	-8.99027
▁USA	-8.99081
▁dafür	-8.99417
▁je	-8.99511
05	-8.99562
09	-8.99625
▁2000	-8.99736
▁spielte	-8.99835
▁Liste	-8.99888
am	-9.00131
▁the	-9.00187
▁Frankreich	-9.00195
▁wäre	-9.00281
▁zwar	-9.00296
▁u	-9.00426
▁doch	-9.00481
▁gewesen	-9.00563
▁†	-9.00612
▁Gruppe	-9.00633
▁Zur	-9.00689
08	-9.00869
▁Name	-9.01066
ca	-9.01188
▁begann	-9.01247
▁Kultur	-9.01314
▁Nähe	-9.01463
▁Zusammenarbeit	-9.01562
schaft	-9.01915
▁Deutsch	-9.02034
▁X	-9.02128
la	-9.02146
strasse	-9.02198
14	-9.02564
os	-9.02664
▁Flughafen	-9.02769
▁Buch	-9.02817
▁weniger	-9.02882
50	-9.03019
ic	-9.03174
mm	-9.03225
die	-9.03306
▁Seiten	-9.03316
Mail	-9.03332
▁Du	-9.03346
▁Band	-9.03431
▁Berg	-9.03587
▁See	-9.03607
▁Fragen	-9.03695
▁meisten	-9.03724
▁unseren	-9.0379
igen	-9.0405
▁2004	-9.04055
ion	-9.04299
▁seines	-9.04327
▁ging	-9.04427
▁nahm	-9.04436
▁zeigt	-9.04459
▁Rolle	-9.04887
▁Anfang	-9.04901
▁Hand	-9.04916
se	-9.04952
▁Richtlinie	-9.05181
▁Staaten	-9.05675
▁Möglichkeit	-9.05687
▁wobei	-9.05774
▁Wien	-9.05989
▁Sinne	-9.0641
art	-9.06423
▁Ihren	-9.06487
no	-9.0674
▁Programm	-9.06833
recht	-9.07505
▁2019	-9.07534
▁Wert	-9.07552
▁Nutzung	-9.07595
▁Gesellschaft	-9.07625
▁Zum	-9.07636
ation	-9.0774
▁Anzahl	-9.07744
▁allerdings	-9.07746
as	-9.07961
▁Service	-9.07984
auf	-9.08076
▁Raum	-9.08482
▁gemacht	-9.08583
▁Tage	-9.08672
▁Italien	-9.09162
▁Ihrem	-9.09183
ir	-9.09584
▁Gebäude	-9.09611
stand	-9.09824
▁solche	-9.09879
ik	-9.09885
ber	-9.09975
▁sechs	-9.10186
son	-9.10361
▁geben	-9.1048
▁Meter	-9.10549
▁seien	-9.10577
ja	-9.10627
li	-9.10696
Be	-9.10742
▁Man	-9.10782
▁Ländern	-9.11259
▁EUR	-9.1127
▁Nicht	-9.11639
▁lässt	-9.11645
▁40	-9.11677
▁verschiedene	-9.11683
ei	-9.12024
▁deutlich	-9.12036
▁stellt	-9.12083
é	-9.12191
▁Internet	-9.12214
di	-9.12502
_	-9.12537
▁Uhr	-9.12642
▁besten	-9.12914
ige	-9.12955
▁vielen	-9.13004
▁Regierung	-9.13042
▁Umgebung	-9.13106
▁Datei	-9.1313
il	-9.13258
▁Person	-9.13267
EG	-9.13336
end	-9.13417
platz	-9.13501
▁Verbindung	-9.13655
keit	-9.13661
▁Prozent	-9.13706
▁bieten	-9.1372
weg	-9.13729
▁and	-9.13763
▁Lebens	-9.13786
ster	-9.13927
▁Licht	-9.1428
▁GmbH	-9.14319
ben	-9.14385
▁Le	-9.14418
▁Sicherheit	-9.14473
25	-9.14524
ko	-9.14662
ry	-9.14724
▁ca	-9.14924
▁Sport	-9.14948
▁Unterstützung	-9.14981
bereich	-9.15017
stein	-9.1505
▁Wahl	-9.15202
▁denn	-9.15247
▁Seine	-9.15355
▁Bericht	-9.1537
bach	-9.15557
▁könnte	-9.15677
▁Zusammenhang	-9.15699
tal	-9.15788
▁jeder	-9.15804
▁Familien	-9.15919
▁Dabei	-9.15957
▁Präsident	-9.15999
▁handelt	-9.16057
▁keinen	-9.16186
▁Bezug	-9.16195
vor	-9.16303
▁Website	-9.16332
▁Länder	-9.16407
▁Tätigkeit	-9.16495
▁Nord	-9.16868
feld	-9.16895
id	-9.16942
ce	-9.17001
▁fast	-9.17123
▁Umwelt	-9.17424
▁»	-9.17457
form	-9.17587
▁hoch	-9.1781
▁Suche	-9.17911
▁Reise	-9.18142
her	-9.1833
burg	-9.18357
X	-9.18402
▁2002	-9.18468
▁Vater	-9.18642
▁Qualität	-9.18645
ungs	-9.18787
An	-9.19033
heit	-9.19036
▁einmal	-9.19115
▁folgende	-9.19353
▁1990	-9.19432
▁Folge	-9.19545
▁Holz	-9.1973
▁Sprache	-9.19809
Der	-9.19862
▁v	-9.2
EN	-9.20009
▁Parlament	-9.20044
▁Zeitpunkt	-9.20054
▁2003	-9.2022
▁Sommer	-9.20273
raum	-9.20291
▁d	-9.20356
ti	-9.20383
▁alles	-9.20453
▁führte	-9.20659
▁Al	-9.20737
▁Europäische	-9.20786
▁liegen	-9.20917
ich	-9.20988
▁lange	-9.21025
so	-9.21258
▁macht	-9.21442
system	-9.21495
▁Nacht	-9.21565
heim	-9.21656
ak	-9.21725
▁Richtung	-9.21758
▁Hotels	-9.21825
▁Gott	-9.21953
▁unterschiedlich	-9.21978
▁Was	-9.22019
▁führen	-9.22207
ger	-9.22308
ad	-9.22337
▁Forschungs	-9.22354
Ver	-9.22483
▁tätig	-9.22653
schen	-9.22724
▁Geld	-9.22785
▁Partei	-9.22788
th	-9.2286
▁Jahrhunderts	-9.22867
▁Ihrer	-9.2292
▁erstmals	-9.22965
▁Software	-9.23047
▁Erfolg	-9.23149
wissenschaftlich	-9.23217
▁erreichen	-9.23269
▁fest	-9.23488
▁genannt	-9.23533
▁bezeichnet	-9.23552
▁Verwendung	-9.23554
▁Auto	-9.23587
▁Klage	-9.23616
ier	-9.23644
U	-9.23663
spiel	-9.23665
▁wollen	-9.2373
▁The	-9.23822
▁Aber	-9.2395
▁lang	-9.23977
▁entwickelt	-9.24002
▁Sein	-9.2407
▁sogar	-9.24086
40	-9.24157
me	-9.24165
▁Anspruch	-9.2418
▁oft	-9.24187
▁sollen	-9.24274
▁West	-9.24358
▁schliesslich	-9.24439
▁Deutschen	-9.24688
▁Mitglieder	-9.24786
▁öffentlichen	-9.2486
▁Ausserdem	-9.24888
ä	-9.24947
▁Prozess	-9.24972
▁Bundes	-9.24989
schutz	-9.25024
▁2001	-9.25094
▁findet	-9.25287
▁fand	-9.25309
„	-9.25603
▁Produktion	-9.25742
mal	-9.25867
“,	-9.25874
▁gewann	-9.25924
▁Betrieb	-9.25924
▁Tod	-9.25927
▁europäischen	-9.26008
▁Den	-9.26127
▁werde	-9.26136
Das	-9.26236
ow	-9.26409
▁Probleme	-9.26465
ismus	-9.26644
▁darüber	-9.26702
▁ent	-9.26869
▁möchte	-9.26923
▁Bis	-9.26933
▁Ent	-9.26943
▁veröffentlicht	-9.27007
▁will	-9.27165
ro	-9.27287
los	-9.27327
▁erreicht	-9.27562
▁online	-9.27593
▁San	-9.27666
▁internationalen	-9.27687
▁Bar	-9.27722
▁kleinen	-9.27823
▁1999	-9.2787
enden	-9.2789
▁Mo	-9.27917
▁Mitte	-9.28095
▁Mar	-9.28111
Re	-9.28148
▁Gross	-9.28289
▁Forschung	-9.28366
▁Mitarbeiter	-9.28427
ers	-9.28572
▁kleine	-9.28714
ina	-9.2894
▁einzelnen	-9.28981
ul	-9.29174
▁dar	-9.2929
▁Weitere	-9.29378
ze	-9.29615
▁Online	-9.297
▁Grundlage	-9.29702
▁Steuer	-9.2976
▁eingesetzt	-9.29817
he	-9.29866
ABl	-9.29972
▁stark	-9.30014
ierte	-9.3002
▁gleichen	-9.30051
▁enthält	-9.30376
▁Alter	-9.30417
▁Ar	-9.30439
▁Österreich	-9.30473
▁hätte	-9.30488
▁Dorf	-9.30617
▁deshalb	-9.30624
▁Ergebnisse	-9.30702
▁Thema	-9.30703
24	-9.31022
▁Beginn	-9.31065
▁konnten	-9.31098
▁60	-9.31126
werk	-9.31261
▁Mutter	-9.31264
▁Strasse	-9.31322
ien	-9.31411
▁Partner	-9.31454
ent	-9.31534
▁Reihe	-9.31567
▁Körper	-9.31632
mit	-9.31866
▁lediglich	-9.3203
▁Beschreibung	-9.32063
▁stellen	-9.32083
▁Dienst	-9.32105
arbeit	-9.32403
▁Angaben	-9.3242
▁heraus	-9.32504
▁München	-9.32565
▁deutsche	-9.32578
ve	-9.32644
bild	-9.32657
go	-9.32791
▁Preise	-9.33111
▁erneut	-9.33132
▁Ergebnis	-9.33283
▁Kilometer	-9.33319
▁oben	-9.33372
▁Minuten	-9.33398
▁Ausbildung	-9.334
ly	-9.33436
▁cm	-9.33535
▁befinden	-9.3377
▁schnell	-9.33852
▁gehen	-9.33883
▁Einzel	-9.33998
▁durchgeführt	-9.34041
▁Tochter	-9.34072
wert	-9.34207
▁trat	-9.34297
▁Regel	-9.34407
▁gehörte	-9.34678
▁Bevölkerung	-9.34728
▁gerade	-9.34752
▁König	-9.34766
▁Luft	-9.34988
▁Blick	-9.35145
▁Zahl	-9.35225
▁Stein	-9.35263
▁hinter	-9.35267
▁Vereinigten	-9.35362
▁leicht	-9.35388
▁Unternehmens	-9.35536
▁gehören	-9.35549
▁•	-9.35555
▁AG	-9.35594
▁Republik	-9.35607
▁einigen	-9.35622
▁gegeben	-9.35835
▁Team	-9.35876
▁deutscher	-9.3588
preis	-9.35898
▁Sitz	-9.35956
men	-9.35963
▁Änderung	-9.3617
▁Verwaltungs	-9.36186
▁Leistungen	-9.36214
▁Burg	-9.36344
▁Leistung	-9.36416
▁Bewertung	-9.36665
▁musste	-9.3677
ha	-9.36885
▁Zwischen	-9.36963
▁eigene	-9.37072
▁Amt	-9.37238
▁Bewertungen	-9.37265
▁Mann	-9.37399
▁verfügt	-9.37426
▁gegründet	-9.37434
tor	-9.37551
ität	-9.37561
▁Stunden	-9.37575
▁Gruppen	-9.37578
▁weit	-9.37693
▁Spanien	-9.37727
▁Ja	-9.37731
▁gemeinsam	-9.37766
▁+	-9.37809
zen	-9.37908
stellen	-9.38131
ende	-9.38172
▁meine	-9.38186
▁Interesse	-9.38228
▁bin	-9.38329
▁Bank	-9.38541
▁Vergleich	-9.38553
▁Design	-9.38836
▁Problem	-9.38903
▁nehmen	-9.38929
▁z	-9.39046
▁Start	-9.39058
▁Absatz	-9.39059
▁Bilder	-9.39137
▁tun	-9.39342
▁Medien	-9.3943
od	-9.39586
▁Werk	-9.39651
▁Antrag	-9.39731
▁Paris	-9.39841
▁Schweiz	-9.39859
▁Zukunft	-9.39941
▁Nachdem	-9.40237
▁Politik	-9.40247
ek	-9.40272
▁wirklich	-9.40409
▁gleich	-9.4041
▁=	-9.40427
▁Vertrag	-9.4043
28	-9.40471
▁̈	-9.40475
▁Staats	-9.40547
▁zweite	-9.40689
▁Zentrum	-9.40953
▁Boden	-9.41135
▁El	-9.41164
▁1998	-9.41369
des	-9.41621
▁Insel	-9.4169
lo	-9.41775
rat	-9.41856
▁enthalten	-9.41861
▁verfügbar	-9.41946
ine	-9.41979
▁bleiben	-9.42001
▁somit	-9.4203
22	-9.42043
▁bitte	-9.42133
▁allein	-9.42165
über	-9.42251
80	-9.42264
▁Süd	-9.42364
▁nächsten	-9.42407
▁ABl	-9.42448
teil	-9.42464
▁Abschluss	-9.42584
hof	-9.42738
per	-9.42781
▁Gericht	-9.42807
▁unserem	-9.42844
▁Inhalt	-9.42867
▁Künstler	-9.43018
▁arbeitete	-9.43087
▁Park	-9.43208
ling	-9.43247
▁Bad	-9.43327
▁Stelle	-9.43369
▁Selbst	-9.4339
ach	-9.43402
▁gefunden	-9.43484
▁Themen	-9.43583
▁Unterkunft	-9.4364
▁indem	-9.43662
▁Grösse	-9.43673
▁verwenden	-9.43686
▁Betriebs	-9.43727
▁Waren	-9.43772
▁Anlage	-9.43865
90	-9.44059
+	-9.4415
▁beispielsweise	-9.44299
▁Wald	-9.44303
21	-9.44343
▁kaufen	-9.4447
ol	-9.446
▁erforderlich	-9.44605
▁folgt	-9.44666
▁unterstützt	-9.44683
sa	-9.44685
▁Mio	-9.44731
▁1995	-9.44757
▁erfolgte	-9.44806
▁zudem	-9.449
▁Hoch	-9.4498
▁wenig	-9.45013
▁Basis	-9.45094
The	-9.45228
▁bestimmte	-9.45433
leistung	-9.45552
▁Text	-9.45611
▁Druck	-9.4574
▁1997	-9.45782
Ein	-9.45784
ale	-9.45837
▁genommen	-9.45846
▁Ko	-9.4585
gruppe	-9.45867
▁1996	-9.46197
▁per	-9.4626
▁Damit	-9.46266
▁Auswahl	-9.46309
▁erfolgt	-9.46317
▁zeigen	-9.46328
▁Behandlung	-9.4636
▁zehn	-9.46434
▁Material	-9.46457
▁Geschäfts	-9.46507
do	-9.46611
▁jeden	-9.46613
▁Strassen	-9.46618
▁Post	-9.46666
kosten	-9.46684
är	-9.46729
▁teilweise	-9.46741
▁Regelung	-9.46743
▁häufig	-9.46905
▁meist	-9.46937
▁kurz	-9.46955
▁formula	-9.46956
▁1994	-9.47072
▁Arbeitnehmer	-9.47097
▁Zeitraum	-9.47171
▁studierte	-9.47188
St	-9.47189
ut	-9.47264
▁Flug	-9.47311
▁Bitte	-9.47349
mar	-9.47423
▁Angebot	-9.47504
▁1992	-9.47577
26	-9.4758
gesellschaft	-9.47777
▁Denn	-9.47828
▁alten	-9.47849
▁Herrn	-9.47853
23	-9.47874
▁Fach	-9.47893
schule	-9.47898
▁ebenso	-9.48
60	-9.48013
▁Wirtschaft	-9.4809
up	-9.48182
▁Cookies	-9.4819
ium	-9.48272
▁bestimmten	-9.48321
▁Kreis	-9.48373
▁weiterhin	-9.48456
▁Berufung	-9.48459
▁Schul	-9.48622
▁China	-9.48632
ft	-9.48639
▁bedeutet	-9.48645
plan	-9.48685
▁Durchführung	-9.4869
mer	-9.48771
27	-9.48854
io	-9.48924
▁Sch	-9.49157
▁Na	-9.49262
isten	-9.49314
op	-9.49354
▁1980	-9.49381
§	-9.49381
▁Friedrich	-9.494
▁Kraft	-9.49483
sche	-9.49557
▁Einwohner	-9.49644
▁Königreich	-9.49725
▁euch	-9.49772
▁hohen	-9.49876
▁zahlreiche	-9.49955
▁genannten	-9.49974
▁frei	-9.50019
▁genutzt	-9.50053
Ge	-9.50056
▁nutzen	-9.50062
▁York	-9.50137
▁gesamten	-9.50149
29	-9.50263
▁Studien	-9.50295
Dienstleistungen	-9.50449
▁jede	-9.50617
▁Video	-9.50663
buch	-9.50725
▁Details	-9.5082
▁Klägers	-9.50845
%	-9.50845
▁beste	-9.50855
▁Wochen	-9.51008
stelle	-9.51089
▁gestellt	-9.5111
che	-9.51153
▁ihres	-9.51167
▁1993	-9.51383
tra	-9.51384
ok	-9.51478
▁verbunden	-9.51631
druck	-9.51838
▁besser	-9.51898
▁Funktion	-9.51943
▁weltweit	-9.52012
▁würden	-9.52055
▁neuer	-9.52093
▁ermöglicht	-9.52143
▁Zweiten	-9.52238
ho	-9.52338
▁Karte	-9.52446
ki	-9.52473
▁b	-9.52491
▁gewählt	-9.52499
▁danach	-9.52551
see	-9.52586
▁blieb	-9.52604
▁anzeigen	-9.52663
oder	-9.52669
▁umfasst	-9.52686
ant	-9.52762
▁unser	-9.52776
politik	-9.52788
▁hohe	-9.52835
▁Hof	-9.52949
▁Verkehrs	-9.52949
ius	-9.53016
▁gleichzeitig	-9.53026
▁Klein	-9.531
▁Sozial	-9.53199
▁mm	-9.53264
▁mindestens	-9.53302
stadt	-9.53387
▁Verein	-9.53393
Y	-9.53503
▁Erst	-9.53548
lage	-9.53686
▁Spielen	-9.53753
▁Ost	-9.53898
▁Hamburg	-9.53969
ac	-9.54064
▁Gründung	-9.54097
▁Anteil	-9.54121
▁Arbeiten	-9.5415
▁Meer	-9.54174
▁Sonder	-9.54286
zug	-9.54296
▁Zugang	-9.54364
▁Standard	-9.54479
▁Arten	-9.5457
▁Kon	-9.5468
▁jeweiligen	-9.54685
gel	-9.54705
▁sagen	-9.54824
▁erster	-9.5484
▁Wort	-9.54846
▁Norden	-9.54878
▁Jugend	-9.54883
pa	-9.54917
▁Lösung	-9.54957
mittel	-9.55054
isierung	-9.55078
▁Computer	-9.55243
▁Finanz	-9.55382
▁Sa	-9.55408
▁Transport	-9.55456
▁juris	-9.5547
ana	-9.5558
»	-9.55753
ci	-9.55758
▁Spieler	-9.55807
von	-9.5583
markt	-9.55987
▁Krieg	-9.56003
führung	-9.56088
▁80	-9.56167
▁sieben	-9.56209
Er	-9.56236
▁London	-9.56243
▁Osten	-9.56262
mo	-9.56333
▁Stand	-9.56342
▁Li	-9.56352
▁grössten	-9.56544
▁zuvor	-9.56568
▁stand	-9.5662
▁acht	-9.56624
▁ausserdem	-9.56651
▁aufgenommen	-9.56714
▁wissen	-9.56738
▁ganze	-9.56751
bahn	-9.56927
▁dadurch	-9.56976
▁tragen	-9.56999
▁Vorschlag	-9.56999
▁liess	-9.57053
▁nationalen	-9.57207
▁teil	-9.57251
▁Ca	-9.57317
▁helfen	-9.57352
▁Provinz	-9.57566
▁Städte	-9.57625
▁sagte	-9.57676
▁Zwei	-9.57682
▁Monate	-9.57831
▁weiss	-9.57862
▁übernahm	-9.57918
▁Firma	-9.5792
▁jedem	-9.57937
®	-9.5795
▁Hans	-9.57964
ni	-9.57972
▁Schule	-9.58276
technik	-9.58441
TV	-9.58453
▁Dort	-9.58457
Veröffentlichung	-9.58502
35	-9.58583
▁ausschliesslich	-9.58608
▁Informations	-9.58613
▁Liebe	-9.58676
▁wohl	-9.58706
▁Bildung	-9.58717
«	-9.58743
▁Pe	-9.58759
▁Bedingungen	-9.58833
▁darunter	-9.58905
ard	-9.58941
▁Förderung	-9.59104
▁1991	-9.59109
▁Wettbewerb	-9.59123
▁arbeiten	-9.59141
▁beide	-9.59146
▁Winter	-9.59159
▁Web	-9.59265
▁Wirkung	-9.59278
La	-9.59358
▁könnten	-9.59368
▁Car	-9.59401
▁Gold	-9.59405
▁entsprechend	-9.59453
▁Wetter	-9.59552
▁Paul	-9.59572
▁Museum	-9.59653
welt	-9.59659
▁Verwaltung	-9.59725
▁Wein	-9.59755
fall	-9.59873
▁nachdem	-9.59886
▁EG	-9.59943
▁Süden	-9.60145
▁Feld	-9.6019
▁Lager	-9.6029
▁f	-9.60349
▁Anforderungen	-9.60446
meister	-9.60477
▁gute	-9.6048
36	-9.60491
▁jedes	-9.60512
▁for	-9.6057
▁sozialen	-9.60574
▁SGB	-9.60603
▁Browser	-9.60607
▁wählen	-9.60611
▁Her	-9.60646
▁Unsere	-9.6075
▁Peter	-9.60881
▁Home	-9.60909
▁bevor	-9.61011
▁Personal	-9.61115
unternehmen	-9.61166
▁Johann	-9.61196
▁darin	-9.61236
satz	-9.61241
▁Karl	-9.61356
sverfahren	-9.61375
▁Hersteller	-9.61392
▁genau	-9.61596
ken	-9.61633
70	-9.61634
▁Handels	-9.61703
▁Gründen	-9.61779
ischer	-9.61792
49	-9.61814
▁Bürger	-9.61814
▁General	-9.61918
punkt	-9.61973
Ã	-9.6198
▁Tor	-9.62025
▁Ho	-9.62085
▁mehreren	-9.62159
▁Ebene	-9.62162
tz	-9.62412
▁Per	-9.62451
▁regelmässig	-9.62455
▁1989	-9.62589
▁Schloss	-9.62608
▁daran	-9.62716
▁'	-9.62861
▁Rang	-9.62969
▁politischen	-9.63025
▁Umfang	-9.63107
▁200	-9.6311
▁Version	-9.63266
▁Garten	-9.63304
▁bisher	-9.63335
▁gesamte	-9.6335
Sch	-9.63377
▁Fällen	-9.63686
▁hinsichtlich	-9.63743
▁Beschwerde	-9.63825
▁Stil	-9.6389
▁Gesetz	-9.63926
▁1970	-9.63993
▁International	-9.64059
▁Me	-9.64088
▁erreichte	-9.64125
▁Kategorie	-9.64178
ierten	-9.6419
▁Alt	-9.64221
▁Top	-9.6431
▁trägt	-9.64328
▁nahe	-9.64452
▁Voraussetzungen	-9.64489
wasser	-9.64534
▁Rück	-9.64603
▁Tagen	-9.64621
▁Situation	-9.64721
▁bestimmt	-9.6475
▁voll	-9.64769
▁BGB	-9.64803
wirtschaftlichen	-9.64836
verfahren	-9.64884
▁Telefon	-9.64902
▁Technologie	-9.65005
▁Con	-9.65038
bo	-9.65059
va	-9.65068
▁wechselte	-9.65079
▁entsprechenden	-9.65096
min	-9.65098
▁erlaubt	-9.65106
▁möchten	-9.65352
▁Erfahrung	-9.65385
▁Eltern	-9.65397
▁entgegen	-9.65441
▁35	-9.65639
▁Ziff	-9.65744
▁Teile	-9.65767
▁Darüber	-9.65777
32	-9.65779
▁heutigen	-9.65797
▁Ne	-9.65815
▁1945	-9.65944
▁Nur	-9.65961
Wir	-9.65962
▁erklärt	-9.66031
▁errichtet	-9.66033
ment	-9.66165
▁Modell	-9.6618
▁geltend	-9.66209
▁Je	-9.66221
77	-9.66228
les	-9.66249
▁Kampf	-9.66355
▁Karriere	-9.66455
▁Wohn	-9.66467
▁entstand	-9.66475
▁anderer	-9.66489
▁Auffassung	-9.6661
▁John	-9.6661
lin	-9.66613
ga	-9.6665
▁Maria	-9.6668
age	-9.66885
▁Parteien	-9.66924
▁halten	-9.66987
▁bestehen	-9.67067
▁University	-9.67118
▁Küche	-9.67139
▁Zweck	-9.67154
je	-9.67172
▁Gegen	-9.67192
▁stellte	-9.67203
31	-9.67246
▁III	-9.67267
▁Begriff	-9.67321
▁Theater	-9.67414
▁Windows	-9.67458
dienst	-9.67535
▁Prüfung	-9.67596
anlage	-9.6766
industrie	-9.67676
net	-9.67758
▁Regionen	-9.67773
▁weder	-9.6785
▁geeignet	-9.67979
▁Gewicht	-9.6798
▁welches	-9.6799
▁heisst	-9.68044
▁ehemaligen	-9.68074
▁geboren	-9.68092
▁Plan	-9.68139
ert	-9.68139
▁Westen	-9.68158
▁Fehler	-9.68178
▁vorhanden	-9.68181
▁Revision	-9.68228
▁Zudem	-9.68263
▁letzte	-9.68277
▁Stahl	-9.68437
▁geworden	-9.68451
▁Position	-9.68484
▁Album	-9.68497
▁Sicherheits	-9.68509
leben	-9.68514
▁Verfügbarkeit	-9.68523
45	-9.68661
▁damals	-9.68709
wa	-9.6871
ian	-9.68997
▁32	-9.69024
▁lag	-9.69032
48	-9.69066
▁vertreten	-9.69137
▁tatsächlich	-9.6918
99	-9.69234
▁wichtig	-9.69241
▁Danach	-9.69255
▁spielen	-9.69278
▁Rechte	-9.69348
▁Verbesserung	-9.69352
wagen	-9.69357
▁verpflichtet	-9.6938
▁grösste	-9.69467
▁ergibt	-9.6951
▁Privat	-9.69759
38	-9.69791
▁vollständig	-9.69845
▁prüfen	-9.6991
▁TV	-9.69971
▁Gottes	-9.70029
öl	-9.70123
rad	-9.70196
stellung	-9.70211
▁könne	-9.70244
▁Professor	-9.70295
▁nie	-9.70503
▁Volks	-9.70658
▁Dem	-9.70718
▁Kammer	-9.70729
▁einschliesslich	-9.70761
▁bringen	-9.70761
▁darf	-9.7086
lichkeit	-9.70881
▁Presse	-9.70928
▁Herstellung	-9.71012
pe	-9.71079
▁Aufgaben	-9.71094
▁französischen	-9.71095
▁nämlich	-9.7112
37	-9.71369
ker	-9.71395
gruppen	-9.71466
gang	-9.71572
za	-9.71611
▁Google	-9.71656
▁erschien	-9.71708
▁Monaten	-9.71749
nach	-9.71755
▁bleibt	-9.71786
▁hätten	-9.71798
39	-9.71818
▁wichtige	-9.71826
▁Ton	-9.71896
75	-9.71927
▁Kirchen	-9.7199
▁Vertreter	-9.72034
ren	-9.72049
ell	-9.72077
▁*	-9.72099
▁allgemeinen	-9.72198
gemeinschaft	-9.72262
igkeit	-9.72271
del	-9.72292
▁Anschluss	-9.72315
▁Kopf	-9.72381
▁Einfluss	-9.72384
▁Grad	-9.72385
▁all	-9.72387
▁suchen	-9.72389
▁Wohnung	-9.72428
▁grosser	-9.7243
▁Linie	-9.72616
ino	-9.72662
▁Gäste	-9.728
▁einzige	-9.7283
▁sieht	-9.72892
▁Warenkorb	-9.72899
▁Aussen	-9.72909
▁Rechtsprechung	-9.73005
ort	-9.73152
▁Annahme	-9.73178
▁ganzen	-9.73184
”	-9.73223
▁Rom	-9.73264
▁Einführung	-9.73353
▁Männer	-9.73367
kel	-9.73401
▁Organisation	-9.73431
▁geführt	-9.73457
bi	-9.73648
band	-9.73659
▁Parlaments	-9.7368
ck	-9.73695
▁Zeiten	-9.73703
▁Fotos	-9.73714
▁wollte	-9.73769
tag	-9.7383
▁Leistungs	-9.73945
▁machte	-9.74013
▁Newsletter	-9.74023
▁folgender	-9.74026
▁Ob	-9.74157
▁70	-9.74171
▁ausgestattet	-9.74266
pi	-9.74299
▁Ad	-9.74328
▁erkennen	-9.74354
▁Schreiben	-9.74379
wie	-9.74398
▁Martin	-9.74407
auch	-9.74472
▁internationale	-9.74547
▁Hinblick	-9.74564
zi	-9.74615
▁Englisch	-9.74635
▁sofort	-9.74684
ö	-9.74763
▁setzt	-9.74764
▁Verkauf	-9.74828
43	-9.74841
▁wichtigsten	-9.74882
▁anschliessend	-9.7489
▁Wind	-9.74896
▁Farbe	-9.74911
▁Schritt	-9.74948
▁All	-9.7496
wirtschaft	-9.74971
▁Frei	-9.74986
▁sicher	-9.7506
2014	-9.75176
▁Verfahrens	-9.7524
ley	-9.7524
▁Maschinen	-9.75288
▁1988	-9.75405
▁Di	-9.75469
▁End	-9.75495
▁entspricht	-9.75554
▁Benutzer	-9.75569
▁Struktur	-9.75666
▁Ma	-9.7577
▁Polizei	-9.75818
▁Kern	-9.75982
33	-9.75992
▁Rad	-9.76007
▁Produktions	-9.76062
elle	-9.76088
kon	-9.76128
▁Aktivitäten	-9.76216
▁dritten	-9.76228
▁Information	-9.76255
▁Tour	-9.76315
▁Senat	-9.76378
▁Restaurant	-9.76433
▁erfahren	-9.76445
34	-9.76486
▁Fuss	-9.76549
▁Länge	-9.76565
tel	-9.76568
▁Aufgabe	-9.76573
▁politische	-9.76604
&	-9.76616
▁Stück	-9.76715
unter	-9.76784
Ich	-9.76828
▁Ex	-9.76838
▁entstanden	-9.76853
▁beträgt	-9.7689
mon	-9.7693
▁Ni	-9.76981
▁to	-9.77009
▁Punkt	-9.77037
▁gebaut	-9.77076
▁Bio	-9.77192
▁Aufenthalt	-9.773
▁Serie	-9.77519
▁Glas	-9.77531
▁Tal	-9.77606
Q	-9.7763
▁solchen	-9.77801
▁Weltkrieg	-9.77952
iz	-9.77998
▁Bruder	-9.78
▁dich	-9.7801
▁Ta	-9.78056
▁Stellen	-9.78111
▁Roman	-9.78172
▁Woche	-9.78212
▁Mannschaft	-9.78249
DE	-9.78275
▁Augen	-9.78286
bel	-9.78347
▁Wilhelm	-9.7848
▁Kind	-9.7849
▁erfolgreich	-9.78525
▁notwendig	-9.78689
ot	-9.78756
gebiet	-9.78791
arbeiten	-9.78798
ba	-9.78803
▁ausserhalb	-9.78823
▁Fa	-9.78825
tro	-9.78859
ü	-9.78863
ex	-9.78871
tion	-9.78887
▁scheint	-9.78962
▁Anfrage	-9.78991
betrieb	-9.79023
▁Deutsche	-9.79104
fach	-9.79183
entwicklung	-9.79258
▁bilden	-9.79398
▁1960	-9.79414
▁leben	-9.79421
55	-9.79428
▁schrieb	-9.79431
ov	-9.79434
▁Leitung	-9.79472
▁ähnliche	-9.79799
ay	-9.79904
85	-9.79945
▁Polen	-9.80025
▁eher	-9.80058
ordnung	-9.80089
▁Su	-9.80149
▁Beschäftigung	-9.80151
▁Einrichtungen	-9.80223
▁Y	-9.80256
lauf	-9.80322
▁nimmt	-9.80464
▁ausgeführt	-9.80499
▁Japan	-9.80523
▁Hälfte	-9.8068
2013	-9.80709
▁Landwirtschaft	-9.80719
seite	-9.80752
65	-9.80772
▁Möglichkeiten	-9.80886
▁welcher	-9.80907
▁Institut	-9.80949
▁kamen	-9.81106
▁Werke	-9.81133
▁Kurz	-9.81153
daten	-9.81204
▁alt	-9.81244
▁Gast	-9.81274
▁Gas	-9.81406
▁Bo	-9.8142
▁Foto	-9.81425
▁grundsätzlich	-9.81516
▁Handel	-9.81565
▁1985	-9.81578
▁gemeinsamen	-9.81603
▁Strand	-9.81629
▁Begründung	-9.81641
▁Kaiser	-9.81669
▁1987	-9.81692
64	-9.81696
▁©	-9.81867
95	-9.81871
▁Schüler	-9.81901
▁Schweizer	-9.81954
▁besondere	-9.81994
▁schwer	-9.8209
durchschnittlich	-9.82216
▁zog	-9.82263
Le	-9.82287
▁No	-9.82314
▁klar	-9.8233
▁ECU	-9.82341
▁Leiter	-9.82346
Aus	-9.82418
kraft	-9.82421
Datei	-9.82431
▁gelten	-9.82538
▁English	-9.82738
ator	-9.82938
▁Literatur	-9.82955
▁Quelle	-9.82963
ri	-9.82977
▁1986	-9.83085
▁Fussball	-9.83088
▁Fest	-9.83102
ang	-9.83155
▁unten	-9.83221
▁natürlich	-9.83282
▁bereit	-9.83324
96	-9.83339
▁Pi	-9.83376
▁Kar	-9.83425
▁Kreuz	-9.83457
▁Au	-9.83481
▁Tier	-9.837
fe	-9.83708
dorf	-9.83731
▁Or	-9.83813
▁Bereichen	-9.83843
▁Verbraucher	-9.83849
▁wenige	-9.83851
▁her	-9.83873
out	-9.839
▁Besitz	-9.83943
▁starb	-9.83975
▁Fahrzeug	-9.84071
▁nichts	-9.84125
▁Interessen	-9.84167
41	-9.84249
que	-9.84344
▁Zahlung	-9.84358
▁setzte	-9.84393
▁aktiv	-9.84421
▁Auswirkungen	-9.84643
programm	-9.84644
gericht	-9.84695
zahl	-9.84696
▁Ka	-9.84703
▁Köln	-9.84729
fer	-9.8475
ring	-9.84786
▁bestand	-9.84817
▁Menge	-9.84856
▁Weiter	-9.84917
▁erfüllt	-9.84945
len	-9.84977
▁früher	-9.85039
ob	-9.85041
▁Michael	-9.85149
ag	-9.85166
88	-9.85236
verkehr	-9.85279
▁Herz	-9.8529
▁Chr	-9.85404
schlag	-9.85414
57	-9.85569
46	-9.85595
vo	-9.8561
sk	-9.85663
bildung	-9.85669
▁mein	-9.85677
▁hervor	-9.85697
▁Geist	-9.85722
po	-9.85729
anlagen	-9.85764
fest	-9.85862
▁33	-9.85905
▁unterstützen	-9.85955
yl	-9.86004
▁Lehrer	-9.8601
▁Datenschutz	-9.86086
▁Strom	-9.86195
▁Punkte	-9.86275
▁Reich	-9.8639
▁relativ	-9.8642
▁re	-9.86522
▁Kapital	-9.86574
▁Angebote	-9.86617
the	-9.86636
▁Zeichen	-9.86639
▁Programme	-9.86691
66	-9.86727
▁Bull	-9.8674
iger	-9.86767
▁90	-9.86864
▁Fluss	-9.86887
▁öffentliche	-9.86922
▁Gemeinschafts	-9.86927
zer	-9.86948
▁Projekte	-9.86971
bis	-9.8705
▁Aufnahme	-9.87187
79	-9.87239
iv	-9.87291
▁Kindern	-9.87304
▁Hintergrund	-9.87315
▁Sache	-9.87355
dem	-9.87368
▁Dauer	-9.87397
▁Besucher	-9.87463
▁gross	-9.87512
and	-9.87609
▁festgestellt	-9.87731
▁Webseite	-9.87743
▁sagt	-9.87767
▁zahlreichen	-9.87821
▁erwähnt	-9.87852
▁angenommen	-9.87855
69	-9.87875
▁Bahnhof	-9.8788
2012	-9.87911
▁Ausdruck	-9.87976
pro	-9.88005
87	-9.88006
▁Studium	-9.88059
▁Lehr	-9.88069
Es	-9.88073
▁trotz	-9.88117
▁technischen	-9.88157
67	-9.88159
▁Tat	-9.88195
si	-9.8825
▁Besuch	-9.88312
▁Reichs	-9.88326
▁spielt	-9.88347
▁Meister	-9.88385
▁Antragsteller	-9.88393
▁mal	-9.88407
▁Drei	-9.8842
▁Heinrich	-9.88425
47	-9.88435
▁Entfernung	-9.88448
▁Untersuchung	-9.88455
by	-9.88503
▁Beitrag	-9.8862
tes	-9.88655
hi	-9.88681
▁Villa	-9.88712
▁ursprünglich	-9.88737
▁ausser	-9.88806
▁Bestimmungen	-9.88833
44	-9.88886
gut	-9.88909
▁45	-9.88946
▁Haut	-9.89005
▁Gemeinden	-9.89047
▁Bereits	-9.89052
▁Landkreis	-9.89056
2015	-9.89099
▁Frankfurt	-9.89114
ologie	-9.89193
▁dürfen	-9.89195
▁Vorschriften	-9.89275
▁übertragen	-9.89277
istischen	-9.89279
▁Metall	-9.89364
legen	-9.89372
▁selben	-9.89433
siehe	-9.89574
▁Ha	-9.89587
▁Berufs	-9.89624
▁Kontrolle	-9.89628
forschung	-9.89683
▁Doppel	-9.89685
▁Ansicht	-9.89802
▁Vorteile	-9.89836
▁Wer	-9.89853
▁Bezeichnung	-9.89888
▁Monat	-9.89902
frei	-9.89942
▁Öl	-9.90009
eu	-9.90107
▁Umsetzung	-9.90176
▁Arbeitgeber	-9.90212
í	-9.90262
▁1984	-9.90337
▁Charakter	-9.90474
▁Ziele	-9.90483
▁Praxis	-9.90544
▁Gründe	-9.90559
▁Aufgrund	-9.90585
á	-9.90601
▁Gesundheits	-9.90613
▁500	-9.90615
▁ausgezeichnet	-9.90728
▁Macht	-9.90813
▁Doch	-9.9082
Ab	-9.90823
▁Militär	-9.9087
▁Russland	-9.90914
▁Einige	-9.9093
ys	-9.90959
▁beteiligt	-9.90965
kreis	-9.91096
▁34	-9.91107
ix	-9.91206
>	-9.91381
weise	-9.91397
▁City	-9.91438
De	-9.91478
▁Ski	-9.91501
▁Teilnehmer	-9.91512
▁entsprechende	-9.91535
▁Hinweis	-9.91547
▁Staat	-9.91569
▁Sach	-9.91597
▁Tri	-9.91604
▁Gesundheit	-9.9162
▁Typ	-9.91689
▁la	-9.91706
▁verantwortlich	-9.9177
59	-9.91842
▁beantragt	-9.91853
kar	-9.91892
du	-9.91898
▁Jetzt	-9.919
▁Wege	-9.9193
stoff	-9.9199
▁folgte	-9.91992
fa	-9.9202
▁Anlagen	-9.92103
▁He	-9.92271
▁bildet	-9.92287
▁Abschnitt	-9.92289
▁abgeschlossen	-9.92296
▁Sicht	-9.92325
▁England	-9.92353
▁ermöglichen	-9.92359
▁Erde	-9.92432
▁Urlaub	-9.9244
ong	-9.92444
▁eröffnet	-9.92468
nahme	-9.92469
sbedingungen	-9.92515
▁«	-9.92523
▁Armee	-9.92546
▁Passwort	-9.92561
amt	-9.92705
▁Zoll	-9.92746
▁Vertrags	-9.92746
führer	-9.928
▁Fenster	-9.92806
▁grössere	-9.92863
cher	-9.92867
89	-9.92946
78	-9.92963
▁Funktionen	-9.93145
▁Beziehungen	-9.93245
▁gebracht	-9.93265
▁Gut	-9.93299
▁besitzt	-9.93325
geschichte	-9.93329
▁Ur	-9.93344
eck	-9.93417
▁soweit	-9.93443
▁Q	-9.93487
▁hergestellt	-9.93508
▁Max	-9.93598
▁geschaffen	-9.93662
▁Mein	-9.93678
▁usw	-9.93694
▁Hafen	-9.93697
▁Zusammen	-9.93748
▁Ausschuss	-9.93766
▁alte	-9.93787
Stand	-9.93797
▁Beim	-9.93861
▁Go	-9.93895
rechtlichen	-9.94027
▁verloren	-9.94036
▁bekommen	-9.94043
76	-9.94102
▁1950	-9.9411
▁Farben	-9.94127
▁Ehe	-9.94131
▁soziale	-9.94136
▁Auftrag	-9.9416
ori	-9.94182
▁ZPO	-9.94205
▁unmittelbar	-9.94214
▁eingeführt	-9.94226
licher	-9.94234
▁Thomas	-9.9424
▁Behörden	-9.94311
ap	-9.94339
▁vielleicht	-9.9436
tu	-9.94361
pp	-9.94385
fi	-9.94402
▁Mess	-9.94403
▁dir	-9.94412
▁Meinung	-9.94495
ide	-9.94559
▁Test	-9.94566
▁insoweit	-9.94588
▁Neue	-9.94601
▁Motor	-9.94606
wald	-9.94613
2011	-9.94613
▁Beteiligung	-9.94615
vi	-9.94775
▁Zug	-9.94786
▁begründet	-9.9484
▁1983	-9.94877
▁Georg	-9.94889
▁Pflege	-9.94909
▁gesehen	-9.94958
▁Saint	-9.94995
▁völlig	-9.95019
▁gemeinsame	-9.95163
▁sprach	-9.95169
▁VwGO	-9.95192
▁Fläche	-9.95225
▁obwohl	-9.95259
▁Zustand	-9.95339
▁Ra	-9.95416
▁Po	-9.95421
58	-9.95441
▁Pflanzen	-9.95443
ES	-9.95506
▁Dateien	-9.95515
▁Einheit	-9.95541
▁ersetzt	-9.95576
▁Heute	-9.9558
Berücksichtigung	-9.95585
▁Verhältnis	-9.95587
▁Verkehr	-9.95597
fläche	-9.95598
ini	-9.95643
▁Erklärung	-9.9565
▁Kriegs	-9.95657
86	-9.95666
▁ändern	-9.95695
ai	-9.95737
schrift	-9.95742
▁Antwort	-9.95802
zentrum	-9.95822
▁zuletzt	-9.95853
▁Dann	-9.95898
mi	-9.95908
park	-9.9591
▁FC	-9.95938
▁Strecke	-9.95953
▁Rechnung	-9.95971
▁WLAN	-9.96112
▁Dank	-9.96152
▁Badezimmer	-9.96378
▁Anti	-9.96383
▁Eigenschaften	-9.96391
▁zusätzliche	-9.96401
▁Politiker	-9.96538
▁DE	-9.96553
56	-9.96646
▁Widerspruch	-9.96674
▁Nachrichten	-9.96705
gi	-9.9672
ty	-9.96759
gehen	-9.96799
meisterschaft	-9.96812
träger	-9.96837
▁neun	-9.97027
▁Veranstaltungen	-9.97044
arten	-9.97077
für	-9.97104
wesen	-9.97134
sel	-9.97151
▁besonderen	-9.97261
▁eingerichtet	-9.97284
▁Israel	-9.97423
▁Radio	-9.97457
▁lernen	-9.97561
▁1982	-9.97608
fahrt	-9.97695
ski	-9.97753
▁Wissenschaft	-9.97779
98	-9.97784
nd	-9.97799
▁dienen	-9.97838
produktion	-9.97852
▁Lo	-9.97907
▁Kloster	-9.9808
rechts	-9.9811
▁entwickelte	-9.98182
ive	-9.98195
alen	-9.98203
▁hält	-9.98243
▁Marken	-9.98293
▁ausdrücklich	-9.98363
mannschaft	-9.98365
wand	-9.98442
▁erstellt	-9.98476
▁Einrichtung	-9.98506
▁Jan	-9.98531
▁Sal	-9.98554
bei	-9.98555
▁Ausnahme	-9.98667
ica	-9.98683
ph	-9.98714
Sie	-9.9873
▁arbeitet	-9.98733
we	-9.98782
ER	-9.98871
▁Folgen	-9.98914
▁Griechenland	-9.98941
42	-9.98949
ny	-9.98982
pf	-9.99014
lu	-9.9903
▁Lösungen	-9.9905
▁Schweden	-9.99082
▁kaum	-9.99086
▁Änderungen	-9.99108
97	-9.99207
@	-9.99259
ff	-9.99325
lager	-9.99342
▁Vi	-9.99386
▁besuchen	-9.99472
▁vergessen	-9.99516
verband	-9.99594
▁300	-9.99607
▁Brand	-9.9968
▁David	-9.99746
lass	-9.99753
▁privaten	-9.99767
gt	-9.99815
▁1979	-9.9988
▁Masse	-9.99894
=	-9.99897
▁Stellungnahme	-9.99907
▁kennen	-9.99976
ano	-9.99977
▁Formen	-9.99992
▁Tages	-10.0003
▁meiner	-10.0004
94	-10.0004
▁1981	-10.0013
▁Herzen	-10.0013
material	-10.0015
▁Robert	-10.0021
▁zusätzlich	-10.0022
▁wahrscheinlich	-10.0026
▁entwickeln	-10.0042
▁besuchte	-10.0046
ou	-10.0047
▁Grenze	-10.0051
▁rechts	-10.0059
2010	-10.0062
▁Büro	-10.0063
▁36	-10.0066
▁berücksichtigt	-10.0073
hand	-10.0075
▁Erfahrungen	-10.0087
▁Schwarz	-10.009
film	-10.0091
▁gelang	-10.0092
▁Papier	-10.0105
▁CD	-10.0107
steuer	-10.0115
▁Teilen	-10.0121
▁Beurteilung	-10.0125
▁beginnt	-10.0129
liste	-10.0129
Sp	-10.0129
▁di	-10.0142
▁Genehmigung	-10.0147
▁Analyse	-10.0152
ven	-10.0152
▁Management	-10.0154
▁fort	-10.0154
▁vorliegenden	-10.0154
▁veröffentlichte	-10.0156
▁erhoben	-10.0159
▁spricht	-10.0162
halten	-10.0164
▁Blut	-10.0165
▁Viele	-10.0166
▁Kooperation	-10.0177
▁hauptsächlich	-10.0179
▁Zulassung	-10.0186
ep	-10.0191
▁Datum	-10.0203
▁bald	-10.0207
▁Lebensmittel	-10.0214
▁südlich	-10.0224
Nr	-10.0227
leitung	-10.0227
▁Gefahr	-10.0229
▁Ri	-10.0231
▁automatisch	-10.0232
gar	-10.0233
US	-10.0236
54	-10.0237
▁Kauf	-10.0242
▁Dazu	-10.0243
▁Ausstellung	-10.0253
▁Feuer	-10.0259
▁Dach	-10.0263
▁Autor	-10.0268
▁ff	-10.028
▁Jesus	-10.0282
▁wirtschaftliche	-10.0282
▁Rest	-10.0283
▁Kapitel	-10.0291
nis	-10.0292
▁Schlacht	-10.0293
hausen	-10.0295
▁Belgien	-10.0298
▁Klima	-10.0298
schau	-10.0299
68	-10.0299
pass	-10.03
▁treffen	-10.031
▁historischen	-10.0317
▁Essen	-10.0317
▁Portugal	-10.0323
▁Heimat	-10.0325
▁Kom	-10.0337
▁x	-10.0342
ika	-10.0348
▁DDR	-10.0351
lose	-10.0352
kirche	-10.0353
▁sprechen	-10.0356
▁Allerdings	-10.0357
▁neues	-10.036
Vor	-10.0361
▁Startseite	-10.0366
▁Hause	-10.0372
▁Netz	-10.0376
ett	-10.0379
▁1975	-10.0379
gewicht	-10.0381
▁Not	-10.0382
▁Konto	-10.0384
▁Franz	-10.0389
ll	-10.0397
▁dient	-10.0406
Bl	-10.0407
▁beschäftigt	-10.0407
▁anders	-10.0415
netz	-10.0417
▁En	-10.042
enberg	-10.0421
▁Risiko	-10.0423
▁Geräte	-10.0429
▁Original	-10.0433
▁Aufbau	-10.0435
▁unabhängig	-10.0443
▁Super	-10.0444
▁Inter	-10.0446
▁verlassen	-10.0447
▁Firmen	-10.045
61	-10.0456
▁europäische	-10.0462
▁verbessern	-10.0466
istische	-10.0469
▁ergeben	-10.0477
▁c	-10.0492
grund	-10.0492
das	-10.0493
▁1978	-10.0495
▁Chi	-10.0497
▁Versand	-10.0502
ari	-10.0511
▁landwirtschaft	-10.0517
51	-10.052
▁Feststellung	-10.0521
▁Standort	-10.0523
ip	-10.0535
bare	-10.0539
▁dagegen	-10.0544
▁französische	-10.0548
IS	-10.0549
▁Volk	-10.0551
▁Marke	-10.0552
▁Bahn	-10.0563
holz	-10.0567
car	-10.0568
▁Bestimmung	-10.0569
▁Patienten	-10.0578
Im	-10.0596
▁geniessen	-10.0598
▁Orte	-10.0602
Auf	-10.0604
74	-10.0605
rück	-10.0606
▁Daher	-10.0608
▁Link	-10.0608
▁Anbieter	-10.0614
versicherung	-10.0616
▁Studie	-10.062
▁guten	-10.062
▁Anmelden	-10.0623
▁§§	-10.0627
▁Cor	-10.063
▁Mädchen	-10.0633
▁Verhandlung	-10.0635
pol	-10.0641
▁Opfer	-10.0646
▁weiterer	-10.0647
▁Darstellung	-10.0647
▁Eis	-10.0648
▁01	-10.0651
▁entweder	-10.0653
▁Ben	-10.0663
▁verstehen	-10.0667
▁stammt	-10.0668
▁1972	-10.0671
▁Bildungs	-10.0675
gesetz	-10.0676
tisch	-10.068
▁Leute	-10.068
all	-10.0681
▁PC	-10.0685
▁erwartet	-10.0688
▁schaffen	-10.0697
▁Sammlung	-10.0697
▁Wo	-10.0698
kt	-10.0701
▁Ersten	-10.0703
▁übrigen	-10.0704
▁Blumen	-10.0708
▁Berliner	-10.0711
▁Pan	-10.0713
72	-10.0714
▁Fl	-10.072
▁Tiere	-10.0722
▁Technik	-10.0726
▁Liga	-10.0732
▁lesen	-10.0735
▁Laufe	-10.0736
reich	-10.0737
sion	-10.074
hin	-10.0741
▁Johannes	-10.0742
System	-10.0746
tum	-10.0747
last	-10.0754
▁Schrift	-10.0756
einheit	-10.0757
▁Mass	-10.076
▁DER	-10.076
92	-10.0764
▁nördlich	-10.0766
om	-10.0767
Adresse	-10.0779
▁gezeigt	-10.0781
▁Bescheid	-10.0788
▁Meine	-10.0793
▁Konzept	-10.0795
▁Unser	-10.0801
52	-10.0804
▁Luxemburg	-10.0807
▁offen	-10.0808
▁Obwohl	-10.0816
▁Ludwig	-10.0816
▁Werte	-10.0819
▁Christian	-10.0819
2016	-10.0827
▁Mensch	-10.0832
entscheidung	-10.0837
▁öffnen	-10.0847
wechsel	-10.0849
▁Gu	-10.0862
▁Com	-10.0863
73	-10.0868
▁schliessen	-10.087
körper	-10.0874
▁aktuellen	-10.0874
▁angeboten	-10.0875
▁Sprachen	-10.0878
▁Konferenz	-10.0885
▁verfügen	-10.0886
▁Andere	-10.0896
▁erscheint	-10.0901
▁setzen	-10.0906
▁überwiegend	-10.0906
▁Port	-10.0906
▁Ro	-10.0911
tsch	-10.0912
▁Los	-10.0914
▁entlang	-10.0919
▁berücksichtigen	-10.092
▁Direktor	-10.0921
bedingungen	-10.0925
▁Ba	-10.093
▁Kur	-10.0932
zeichen	-10.0934
folge	-10.0935
▁ernannt	-10.0935
▁Dinge	-10.0936
kan	-10.0939
▁laut	-10.0942
▁Dänemark	-10.0944
▁Voll	-10.0949
▁Chor	-10.0954
▁Öffentlichkeit	-10.0958
▁Links	-10.0959
▁Haushalts	-10.0961
meisterschaften	-10.0968
tin	-10.0971
ingen	-10.0972
▁Grossbritannien	-10.0972
▁gehalten	-10.0974
▁behandelt	-10.0976
▁1977	-10.0984
▁Download	-10.0985
typ	-10.0988
▁Stiftung	-10.0994
q	-10.0998
▁technische	-10.1001
▁Truppen	-10.1003
500	-10.1003
▁ehemalige	-10.1014
▁Eisenbahn	-10.1019
▁gründete	-10.1021
▁1976	-10.1022
▁Zuge	-10.1022
▁knapp	-10.1029
wissenschaften	-10.1032
▁Herrschaft	-10.1036
▁Rund	-10.1041
▁$	-10.1042
▁übernommen	-10.1049
Da	-10.1049
▁Schiff	-10.1053
▁nieder	-10.1054
▁möglicherweise	-10.1063
▁Des	-10.1068
▁schreiben	-10.1068
ps	-10.1071
▁Abend	-10.1075
▁Finanzierung	-10.1075
ges	-10.1077
▁County	-10.1077
▁Gemeinschaften	-10.1085
▁versuchen	-10.1085
71	-10.1094
val	-10.1097
uch	-10.1101
ette	-10.1107
ate	-10.1113
▁geschlossen	-10.1115
▁IV	-10.1115
▁Zurück	-10.1132
▁Rhein	-10.1137
▁Objekt	-10.1137
Mo	-10.1148
▁buchen	-10.1151
▁Mi	-10.1154
▁Gegensatz	-10.1155
▁1974	-10.1161
▁Kombination	-10.1165
▁gerne	-10.1168
▁beachten	-10.1168
▁geprägt	-10.1171
▁zumindest	-10.1173
if	-10.118
▁Jo	-10.1182
▁angesehen	-10.1184
pen	-10.1196
eine	-10.1197
▁derzeit	-10.1198
▁Shop	-10.1199
▁geändert	-10.1201
▁wer	-10.1201
sektor	-10.1205
▁Irland	-10.1216
▁wiederum	-10.1217
licht	-10.1219
isiert	-10.1223
▁Se	-10.1224
▁Zentral	-10.1229
▁Mark	-10.1232
karte	-10.1232
▁überhaupt	-10.1235
▁benutzt	-10.1235
▁Auslegung	-10.124
ville	-10.124
Universität	-10.124
82	-10.124
AL	-10.1242
▁erhältlich	-10.1243
▁News	-10.1246
tri	-10.125
▁Ist	-10.1252
▁Pass	-10.1255
84	-10.1257
▁Farb	-10.1263
▁Städten	-10.1264
▁Netzwerk	-10.1265
93	-10.1267
▁Stadtteil	-10.1277
▁bestätigt	-10.128
spiele	-10.1281
sport	-10.1282
EL	-10.1288
▁allgemeine	-10.129
▁Nachfolger	-10.1293
▁Freiheit	-10.1293
uk	-10.1301
▁Live	-10.1304
▁Tabelle	-10.1305
▁Fassung	-10.1306
haft	-10.1308
▁Kommentare	-10.1315
▁Minister	-10.1315
inger	-10.1321
▁entschieden	-10.1324
▁Regional	-10.133
▁Materialien	-10.133
▁Ring	-10.1336
log	-10.134
▁Planung	-10.1346
▁angezeigt	-10.1347
ya	-10.1349
▁Installation	-10.135
▁stets	-10.1351
dy	-10.1356
▁paar	-10.1358
▁fanden	-10.1361
▁Messe	-10.1367
▁Bewegung	-10.137
▁Verantwortung	-10.1373
▁Sand	-10.1377
▁frühen	-10.1383
▁Mac	-10.1385
▁Par	-10.1387
▁Medizin	-10.1388
62	-10.139
▁gesetzt	-10.1391
▁Rand	-10.1392
81	-10.1393
▁vorgesehen	-10.14
▁beruht	-10.14
gas	-10.1402
top	-10.1403
▁1973	-10.1408
laden	-10.142
tische	-10.1425
▁Bus	-10.1428
100	-10.1429
▁betrifft	-10.1429
▁Profil	-10.1431
ó	-10.1434
hm	-10.1438
struktur	-10.1439
▁Herren	-10.1439
maschinen	-10.144
ani	-10.144
con	-10.1441
▁150	-10.1443
AG	-10.1446
▁angegeben	-10.145
▁Mil	-10.1451
▁britischen	-10.1453
▁Bi	-10.1454
og	-10.1459
ec	-10.1463
2018	-10.1464
▁abge	-10.1467
▁°	-10.1468
▁zugleich	-10.147
br	-10.1473
▁Wild	-10.1473
▁Wegen	-10.1474
▁Dusche	-10.1475
63	-10.1476
▁hinzu	-10.1477
▁Vom	-10.1479
▁Gelegenheit	-10.1481
▁persönlichen	-10.1484
▁Studenten	-10.1489
don	-10.1497
fragen	-10.1498
▁sah	-10.1498
▁Mitteilung	-10.1503
verwaltung	-10.1504
▁Gewinn	-10.1505
▁Ordnung	-10.1513
▁Grab	-10.1518
▁gewinnen	-10.152
2008	-10.1521
▁zerstört	-10.1522
▁langen	-10.1528
ance	-10.153
▁37	-10.1532
▁absolvierte	-10.1533
▁Falle	-10.1535
▁bestehenden	-10.1536
sp	-10.1538
▁produziert	-10.154
▁zwölf	-10.1542
▁wichtigen	-10.1545
▁Har	-10.1547
▁Integration	-10.1549
▁Schlüssel	-10.1552
▁Erweiterung	-10.1555
83	-10.1556
▁Col	-10.1558
▁Sinn	-10.1558
▁Abkommen	-10.156
▁daraus	-10.1562
▁versucht	-10.1562
tätigkeit	-10.1564
plätze	-10.1565
▁Schlafzimmer	-10.1568
▁Rock	-10.1573
▁festgelegt	-10.1574
▁Fisch	-10.1577
linie	-10.1578
53	-10.1578
฀	-10.158
setzung	-10.1591
spieler	-10.1591
▁Ausgaben	-10.1594
▁Heiligen	-10.1596
res	-10.1599
▁War	-10.1601
ts	-10.1604
Art	-10.1605
▁Hinter	-10.1607
kommen	-10.1608
mark	-10.1614
▁Verhalten	-10.1614
▁Arbeiter	-10.1614
▁Stuttgart	-10.1616
▁Klimaanlage	-10.1617
▁empfehlen	-10.1624
▁ja	-10.1625
legung	-10.1626
wo	-10.1629
▁wesentlich	-10.1646
rand	-10.1648
ziehen	-10.1649
▁Fe	-10.1658
▁>	-10.1667
▁Eigen	-10.1669
▁Ausgabe	-10.1673
▁Frühstück	-10.1673
▁Führung	-10.1674
ahn	-10.1678
▁Wand	-10.1678
▁gar	-10.1678
sitz	-10.1679
▁Ger	-10.1679
▁kleiner	-10.1681
line	-10.1681
bus	-10.1682
gebäude	-10.1686
▁deine	-10.1686
ru	-10.1687
Ä	-10.1688
▁Beteiligten	-10.1694
▁Kanada	-10.1697
▁verheiratet	-10.17
▁Carl	-10.1705
▁Beiträge	-10.1707
▁Stellung	-10.1708
▁Ortsteil	-10.1711
mat	-10.1712
mut	-10.1713
▁Klasse	-10.1713
▁Facebook	-10.1719
▁Gebrauch	-10.1724
flächen	-10.1726
one	-10.1729
▁Vier	-10.1733
2007	-10.1733
▁Gegenstand	-10.1747
▁Zahlen	-10.1751
▁Dom	-10.1752
2019	-10.1756
chi	-10.1758
▁junge	-10.176
▁speziell	-10.1764
tik	-10.1766
▁kg	-10.1773
Sehenswürdigkeit	-10.1781
▁85	-10.1785
RA	-10.1786
bank	-10.1797
ham	-10.1797
▁Lauf	-10.1808
waren	-10.1809
▁Keine	-10.1814
nde	-10.1816
▁schloss	-10.1816
▁Freund	-10.1817
▁jährlich	-10.1817
▁Betrag	-10.182
organisation	-10.182
▁Herausforderung	-10.1828
bad	-10.183
2000	-10.1831
▁Anpassung	-10.1833
schiff	-10.1844
▁Abteilung	-10.1848
haltung	-10.1854
wahl	-10.1856
SE	-10.1859
▁Sachsen	-10.186
▁Entscheidungen	-10.1868
▁erhält	-10.1876
▁Tatsache	-10.1877
▁entfernen	-10.1877
höhe	-10.1879
▁Zürich	-10.1882
▁Turm	-10.1884
▁beschrieben	-10.1888
din	-10.189
ran	-10.1891
▁grösseren	-10.1894
▁Verarbeitung	-10.1896
▁Zwecke	-10.1901
▁nationale	-10.1901
▁Gesetzes	-10.1901
▁Kenntnis	-10.1907
kammer	-10.1911
▁Grenzen	-10.1912
BA	-10.1914
oni	-10.1921
▁Teilnahme	-10.1929
barkeit	-10.1938
▁Schluss	-10.1939
▁weitgehend	-10.1939
▁Min	-10.1943
▁Te	-10.1944
ice	-10.1944
station	-10.1944
cy	-10.1945
▁Richter	-10.1949
verein	-10.195
▁Juden	-10.1951
91	-10.1951
▁befand	-10.1953
▁Herbst	-10.1956
▁Beratung	-10.1961
▁früheren	-10.1962
▁Sp	-10.1964
▁links	-10.1964
▁My	-10.1973
zimmer	-10.1978
▁legte	-10.1981
▁Val	-10.1982
▁einge	-10.1987
▁modernen	-10.1995
▁Mor	-10.1996
▁Fahr	-10.1999
▁erhöht	-10.2001
▁höchsten	-10.2005
▁Vergangenheit	-10.2006
ron	-10.201
alter	-10.201
▁Phase	-10.2013
tischen	-10.2015
▁Fort	-10.2017
informationen	-10.2017
▁beschränkt	-10.2023
▁bringt	-10.2024
Al	-10.2025
sbereich	-10.2026
▁Club	-10.203
▁brachte	-10.2032
▁dahin	-10.2033
▁Wachstum	-10.2033
▁höher	-10.2033
▁Gerichts	-10.2041
▁damaligen	-10.2044
▁High	-10.2048
IC	-10.2058
▁moderne	-10.2061
tage	-10.2066
▁jungen	-10.2066
srecht	-10.2067
▁kostenlos	-10.2068
▁Fraktion	-10.2072
jährigen	-10.2078
ity	-10.2083
▁Versicherungs	-10.2084
sta	-10.209
ah	-10.2092
▁Veranstaltung	-10.2093
ud	-10.2093
▁dritte	-10.2099
systeme	-10.2104
‘	-10.2104
▁Rede	-10.2107
▁mittels	-10.2109
▁Bücher	-10.211
pflicht	-10.2111
▁Tradition	-10.2113
▁Stamm	-10.2117
▁östlich	-10.2118
▁World	-10.2121
▁Kamera	-10.2123
▁65	-10.2126
▁richtig	-10.2132
▁kehrte	-10.2136
maschine	-10.2136
▁lebt	-10.2136
So	-10.2136
Zu	-10.2141
▁Gar	-10.2142
▁voraus	-10.2142
▁erscheinen	-10.2143
geschwindigkeit	-10.2145
▁Afrika	-10.2148
▁Hauptstadt	-10.215
▁1971	-10.2155
▁Kommentar	-10.2155
▁Wi	-10.2155
▁getroffen	-10.2162
geld	-10.2168
▁lokalen	-10.2174
▁Gestaltung	-10.2176
▁Inseln	-10.2185
▁Silber	-10.2187
▁ausreichend	-10.2189
▁Gewalt	-10.2193
ju	-10.2194
▁Straf	-10.2194
▁Insgesamt	-10.2197
▁untersucht	-10.2204
geräte	-10.2205
▁Übrigen	-10.2209
▁Kommunikation	-10.221
▁1968	-10.2215
▁entstehen	-10.2217
▁Bischof	-10.2217
▁Do	-10.2219
▁gesetzlichen	-10.2221
▁Direkt	-10.2224
▁Fern	-10.2224
fen	-10.223
▁Methoden	-10.224
▁Idee	-10.2255
▁Düsseldorf	-10.2255
geschäft	-10.2255
▁Main	-10.2261
▁erforderlichen	-10.2262
▁Gen	-10.2264
ola	-10.2274
▁näher	-10.2276
▁sogenannten	-10.2279
▁betrachtet	-10.2279
▁Restaurants	-10.2288
▁Mon	-10.2293
▁betrieben	-10.2294
▁Kor	-10.2298
namen	-10.2302
▁Gi	-10.2307
▁Hochschule	-10.2313
▁Mietwagen	-10.2314
▁42	-10.2314
▁Joseph	-10.2315
▁Schliesslich	-10.2316
▁Entwicklungs	-10.232
grösse	-10.2321
wort	-10.2322
▁schöne	-10.2323
fahren	-10.2324
▁gekommen	-10.2324
▁gewonnen	-10.2327
▁fehlt	-10.2333
EU	-10.2336
▁gleiche	-10.2339
▁1933	-10.2339
▁mussten	-10.2341
▁Mont	-10.2342
▁Architektur	-10.2358
▁betreffend	-10.2359
▁Pa	-10.236
▁späteren	-10.2361
▁höchste	-10.2361
▁Amts	-10.2362
enz	-10.2367
▁Australien	-10.237
▁Anordnung	-10.237
▁1969	-10.2371
2009	-10.2372
▁Dialog	-10.2373
ey	-10.2374
▁verkauft	-10.238
▁Einwohnern	-10.2381
▁Sprach	-10.2384
▁Bürgermeister	-10.2385
▁To	-10.2387
▁abzu	-10.2391
▁Nutzer	-10.2393
ita	-10.2397
▁dank	-10.24
▁sodass	-10.24
▁Schulen	-10.2404
▁etc	-10.2411
▁Lu	-10.2411
▁Tel	-10.2416
▁Mindest	-10.2419
▁Terrasse	-10.2427
▁benannt	-10.2429
▁55	-10.243
leistungen	-10.2432
▁betrug	-10.2434
▁Mehrheit	-10.2436
▁Streit	-10.244
▁Vielzahl	-10.244
▁gesagt	-10.2441
▁komplett	-10.2441
rechte	-10.2445
▁Vorhaben	-10.2446
modell	-10.2448
▁Open	-10.245
low	-10.2456
tic	-10.2457
▁aktuelle	-10.2457
‐	-10.2465
Programm	-10.2477
▁Wissen	-10.2477
spielen	-10.2479
▁Niederlande	-10.2479
▁Ressourcen	-10.248
▁beginnen	-10.248
▁Innen	-10.2481
▁bezüglich	-10.2495
▁Karten	-10.2498
▁folgen	-10.2499
▁Vereinbarung	-10.2503
▁<	-10.2506
Ro	-10.2511
leiter	-10.2514
▁hielt	-10.2515
lang	-10.2517
▁erfasst	-10.2523
sfähigkeit	-10.2524
▁75	-10.2528
▁Sitzung	-10.2529
▁Königs	-10.2532
▁solcher	-10.2536
▁Beziehung	-10.2536
▁Wunsch	-10.2539
lä	-10.2545
▁Verpflichtung	-10.2548
▁Konzert	-10.255
▁Eisen	-10.2552
▁Soldaten	-10.2555
Ha	-10.2559
▁meinen	-10.2559
als	-10.2561
▁Impressum	-10.2565
OS	-10.2568
bra	-10.257
▁eingestellt	-10.2571
kor	-10.2572
sh	-10.2576
▁einzelne	-10.2577
▁Veränderungen	-10.2578
▁Van	-10.2579
0,00	-10.258
IT	-10.2585
▁dargestellt	-10.2585
DA	-10.2592
▁Anschliessend	-10.2599
▁Himmel	-10.2602
teile	-10.2606
halle	-10.2611
gl	-10.2612
▁Europas	-10.2613
▁Fi	-10.2613
▁Frist	-10.2614
▁Ausland	-10.2616
▁Übersicht	-10.2618
▁Tra	-10.2621
▁Temperatur	-10.2624
▁1920	-10.2628
arm	-10.2629
▁Olympischen	-10.263
▁gebildet	-10.263
▁anderes	-10.2632
▁Organisationen	-10.2635
▁entscheiden	-10.2636
▁teilen	-10.2645
▁Otto	-10.2646
ding	-10.2648
mus	-10.2649
anz	-10.2655
▁wenigen	-10.2655
mel	-10.2656
▁fallen	-10.2656
▁Song	-10.2658
▁App	-10.2661
▁stärker	-10.2662
bericht	-10.2668
jahr	-10.2674
▁Tu	-10.2674
ial	-10.2677
▁1930	-10.2681
▁vorgenommen	-10.2686
▁eigenes	-10.2686
▁43	-10.2687
▁Ruhe	-10.2688
▁diente	-10.2689
▁Immobilien	-10.269
Institut	-10.269
▁erfüllen	-10.2691
länder	-10.2692
enburg	-10.2695
Ar	-10.2697
▁Wahrheit	-10.2703
▁Leipzig	-10.2706
▁Si	-10.2711
ella	-10.2712
nummer	-10.2712
prüfung	-10.2713
▁Übertragung	-10.272
▁Förder	-10.2721
▁vorgelegt	-10.2723
reg	-10.2728
▁zugrunde	-10.2734
Ö	-10.2737
▁Akademie	-10.2744
▁unseres	-10.2745
zahlen	-10.2748
▁Bezirk	-10.275
▁Gattung	-10.2751
AT	-10.2752
▁wider	-10.2755
▁Zweifel	-10.2756
prozess	-10.2756
voll	-10.2758
pel	-10.276
itz	-10.2771
▁weiteres	-10.2772
▁Wieder	-10.2773
▁Group	-10.2774
▁Kanton	-10.2778
▁weist	-10.2784
▁Mer	-10.2792
▁Entschliessung	-10.2795
gu	-10.2796
▁Zwar	-10.2801
▁48	-10.2801
▁Anerkennung	-10.2803
▁anhand	-10.2808
▁Quellen	-10.281
▁Schw	-10.2814
Am	-10.2816
▁Fleisch	-10.282
▁Zusatz	-10.282
bal	-10.2828
▁eindeutig	-10.2833
MA	-10.2834
▁Ausstattung	-10.284
▁Jean	-10.2846
▁Träger	-10.2849
▁Freunde	-10.285
fo	-10.2853
▁auszu	-10.2853
▁Wiener	-10.2854
▁Ernst	-10.2857
▁ex	-10.2862
einrichtungen	-10.2863
ara	-10.2863
▁Tr	-10.2873
▁geschrieben	-10.2878
lan	-10.2879
EM	-10.288
name	-10.2883
▁Berechnung	-10.2884
▁Falun	-10.2885
rang	-10.2886
▁jedenfalls	-10.2887
▁For	-10.2887
▁erfolgen	-10.2887
erin	-10.2889
hu	-10.2891
▁allgemein	-10.2895
suche	-10.2895
▁Sieg	-10.29
▁2020	-10.2903
▁Halle	-10.2905
handel	-10.2905
▁Elektro	-10.2907
▁Ki	-10.2909
▁westlich	-10.2912
Mit	-10.2915
▁Türkei	-10.2916
▁Wechsel	-10.292
▁Nun	-10.2927
ax	-10.293
ins	-10.293
▁Bal	-10.2932
▁Air	-10.2936
č	-10.2937
▁senden	-10.294
▁Island	-10.2943
ji	-10.2945
▁berufen	-10.295
IN	-10.2956
ez	-10.2956
ub	-10.2957
ther	-10.2963
sur	-10.2966
anten	-10.2967
Preis	-10.2972
▁Höchst	-10.2976
▁Entwurf	-10.2978
▁Deshalb	-10.2984
▁hingegen	-10.2992
Pro	-10.2994
▁Fahrt	-10.2994
▁Ausbildungs	-10.2994
▁Fernseh	-10.2995
▁Antragstellerin	-10.2996
sprogramm	-10.3001
▁Morgen	-10.3011
▁Mitgliedstaat	-10.3011
▁1938	-10.3013
ala	-10.3017
▁400	-10.3021
▁Wettbewerbs	-10.3021
▁Stimmen	-10.3028
▁Verlauf	-10.303
projekt	-10.3035
▁Gebiete	-10.3035
ick	-10.3035
▁Milch	-10.3047
▁verurteilt	-10.3049
▁Anwendungen	-10.305
▁Gelände	-10.305
▁Bern	-10.3054
massnahmen	-10.3055
vers	-10.3056
▁Aussicht	-10.3061
▁Mel	-10.3064
▁44	-10.3067
▁Ju	-10.3072
bin	-10.3077
TM	-10.3078
▁Bayern	-10.3078
▁Bre	-10.3079
▁vielmehr	-10.3083
kreuz	-10.3086
▁Später	-10.3087
▁Alexander	-10.3089
eth	-10.3092
punkte	-10.3098
▁italienischen	-10.3101
▁Server	-10.3107
▁vorher	-10.3109
▁einzu	-10.3113
neu	-10.3115
▁1939	-10.3115
▁fördern	-10.3116
▁starke	-10.3122
▁GG	-10.3125
▁Fahrzeuge	-10.3125
flug	-10.3133
▁Bu	-10.3134
▁Profi	-10.3145
▁Th	-10.3146
ön	-10.3149
▁entdeckt	-10.3152
▁heiratete	-10.3154
▁Regelungen	-10.3158
▁Bereiche	-10.3158
räume	-10.316
▁warum	-10.3162
▁Hannover	-10.3163
IM	-10.3165
▁erweitert	-10.3167
▁eigentlich	-10.3168
▁Kündigung	-10.3168
▁Ihres	-10.3176
▁begonnen	-10.3176
elt	-10.3177
ange	-10.3177
▁Tisch	-10.3181
versorgung	-10.3186
▁darstellt	-10.3187
lau	-10.3188
▁getrennt	-10.319
▁klicken	-10.3196
ford	-10.3197
▁verletzt	-10.3197
amerikanischer	-10.3198
bl	-10.3198
▁unbe	-10.3199
▁meinem	-10.3201
▁Za	-10.3204
▁Garantie	-10.3207
jo	-10.3209
blatt	-10.321
▁Gerichtshof	-10.3222
▁Metern	-10.3222
▁ähnlich	-10.3223
Innen	-10.3223
▁Soweit	-10.3223
ite	-10.3225
▁darum	-10.3227
▁1944	-10.3228
▁erstellen	-10.323
▁Elemente	-10.3231
▁Moment	-10.3231
TE	-10.3232
▁betreffenden	-10.3234
▁Center	-10.3239
str	-10.3239
▁Fahrer	-10.3239
▁zuerst	-10.324
▁stieg	-10.3244
▁Menü	-10.3246
ons	-10.3249
▁hoher	-10.325
▁Tarif	-10.3251
▁Freizeit	-10.3251
▁Ru	-10.3255
▁maximal	-10.3256
blick	-10.3265
qui	-10.3265
▁bewusst	-10.3266
▁angelegt	-10.3269
Ma	-10.327
sprache	-10.3272
▁Schwerpunkt	-10.3275
▁Richard	-10.328
▁Erzeugnisse	-10.3281
schnitt	-10.3282
▁Lang	-10.3287
▁Arzt	-10.3301
ada	-10.3304
▁Revolution	-10.3308
▁Pflicht	-10.3312
▁äusserst	-10.3324
hilfe	-10.3337
▁Beweis	-10.3338
▁Kunststoff	-10.3342
▁Beide	-10.3343
TA	-10.3348
ellen	-10.335
▁Schon	-10.3351
Co	-10.3353
▁Ber	-10.3357
▁Rennen	-10.3362
CO	-10.3363
▁Infrastruktur	-10.3372
funktion	-10.3373
▁Versuch	-10.3373
▁Vorsitzender	-10.3374
ging	-10.3374
▁Bundesrepublik	-10.3374
▁Verfolgung	-10.3375
▁Updates	-10.3375
▁freien	-10.3376
▁Kongress	-10.3377
af	-10.3378
abteilung	-10.3378
isieren	-10.3386
▁zählen	-10.3386
▁ideal	-10.3386
kultur	-10.339
baren	-10.339
▁Landschaft	-10.3394
▁Fischerei	-10.3394
▁Nummer	-10.3396
▁1967	-10.3396
Über	-10.3397
▁erwarten	-10.3397
▁Baum	-10.3398
▁Tür	-10.34
▁brauchen	-10.3403
jährige	-10.3409
äu	-10.3409
▁verbreitet	-10.3411
sdorf	-10.3413
▁Unterkünfte	-10.3414
▁1940	-10.3415
▁Red	-10.3416
▁bezieht	-10.3421
▁League	-10.3421
Ü	-10.3422
▁erklärte	-10.3428
bert	-10.343
uck	-10.3433
▁IT	-10.3433
▁Master	-10.3437
nehmen	-10.3439
▁verändert	-10.344
▁Golf	-10.3445
ula	-10.3453
rö	-10.3453
▁sogenannte	-10.3454
▁Familienname	-10.3457
▁Turnier	-10.3458
▁Tätigkeiten	-10.3458
tlich	-10.3462
▁Front	-10.3463
▁Patent	-10.3463
▁höhere	-10.3463
▁Ablauf	-10.3464
▁Laut	-10.3469
▁recht	-10.3474
▁Festival	-10.3476
MS	-10.3477
partei	-10.348
2006	-10.348
▁52	-10.3483
▁Barcelona	-10.3489
av	-10.3498
▁VI	-10.35
▁Kat	-10.35
▁House	-10.3502
sicherheit	-10.3504
akt	-10.3504
erei	-10.3505
▁Support	-10.3506
su	-10.3512
▁Ä	-10.3518
▁Präsidenten	-10.3521
▁Verlust	-10.3523
▁Frieden	-10.3531
able	-10.3533
han	-10.3533
2017	-10.3534
▁George	-10.3537
tier	-10.3538
▁zunehmend	-10.3539
▁zuständig	-10.3539
▁galt	-10.3541
▁Ungarn	-10.3549
▁Systeme	-10.3553
▁Mond	-10.3554
Di	-10.3556
▁Geschwindigkeit	-10.3556
▁hinreichend	-10.3562
▁Noch	-10.3562
▁verhindern	-10.3563
▁Versorgungs	-10.3563
ör	-10.3565
▁zugunsten	-10.3567
sam	-10.3567
gr	-10.3568
▁selten	-10.357
app	-10.3571
fl	-10.3571
▁Trans	-10.3574
unterschiedliche	-10.3578
▁Objekte	-10.3587
▁Rot	-10.3589
Team	-10.359
▁erheblich	-10.3592
▁beschlossen	-10.3594
▁Kabel	-10.3598
▁Schl	-10.3601
▁Betracht	-10.3602
ight	-10.3606
mb	-10.3607
kunst	-10.3613
dauer	-10.3619
▁Status	-10.3627
greifen	-10.3629
▁Wärme	-10.3629
nicht	-10.3635
mp	-10.3635
▁Werbe	-10.364
▁Lied	-10.364
▁Sun	-10.3643
▁Runde	-10.3649
▁definiert	-10.3651
▁Pu	-10.3652
▁Don	-10.3652
rot	-10.3653
spolitik	-10.3655
▁Bestandteil	-10.3656
▁1964	-10.3659
ill	-10.366
▁Sonntag	-10.366
museum	-10.366
our	-10.3666
▁Unterschied	-10.3671
▁inzwischen	-10.3671
▁daraufhin	-10.3671
angebot	-10.3674
▁Kollegen	-10.3684
szeit	-10.3687
▁Kurs	-10.3692
▁private	-10.3693
▁heutige	-10.3693
▁Initiative	-10.3698
▁Papst	-10.3705
▁bekannten	-10.3706
▁120	-10.3709
▁fahren	-10.3713
▁Systems	-10.3714
▁Star	-10.3724
▁Ersatz	-10.3736
▁Ausschusses	-10.3736
▁Kategorien	-10.3738
gestellt	-10.3738
ille	-10.3743
°	-10.3745
▁zulässig	-10.3747
▁Indien	-10.3749
▁sozial	-10.3752
▁nächste	-10.3753
▁einfache	-10.3754
▁verliess	-10.3757
▁Grundstück	-10.376
▁del	-10.3773
▁Reisen	-10.3775
▁Vorbereitung	-10.3777
▁Gedanken	-10.3778
▁öffentlich	-10.3782
▁Blog	-10.3784
▁reduziert	-10.3787
▁Austausch	-10.3788
reichen	-10.3788
▁Schnell	-10.3789
▁Ga	-10.3795
smassnahmen	-10.3795
▁Umsatz	-10.3796
schl	-10.3796
▁Waffen	-10.3798
ender	-10.3798
▁erschienen	-10.3802
▁Umstände	-10.3805
▁zugänglich	-10.3809
▁Grand	-10.3811
▁gelegt	-10.3815
▁Interessantes	-10.3819
wachsen	-10.382
scher	-10.382
▁Nachricht	-10.3825
strom	-10.3826
sberg	-10.3827
▁reicht	-10.3828
▁besucht	-10.3834
ativ	-10.3836
Nach	-10.3837
tr	-10.3837
▁1010	-10.3839
▁Schwierigkeiten	-10.3847
▁Erd	-10.3849
rie	-10.3856
▁64	-10.3857
▁Ehren	-10.3859
▁benötigt	-10.386
▁Verletzung	-10.3862
▁Regen	-10.3863
▁38	-10.3872
garten	-10.3874
▁Anna	-10.3875
▁Gerät	-10.3876
▁Jazz	-10.3879
▁Rückkehr	-10.3881
▁College	-10.3882
▁ausge	-10.3882
▁verkaufen	-10.3884
rechnung	-10.3886
durch	-10.3888
ros	-10.389
▁Schaffung	-10.3891
AR	-10.3893
▁miteinander	-10.3895
▁Linien	-10.3901
▁kurze	-10.3905
gemäss	-10.3906
▁Speicher	-10.3907
▁1000	-10.3909
ico	-10.3913
▁Lesen	-10.3917
cken	-10.3918
▁Zubehör	-10.3922
▁Dis	-10.3924
igt	-10.3926
▁1965	-10.3929
▁Boote	-10.3934
Gruppe	-10.3935
▁Rein	-10.3937
ruf	-10.3938
▁hierzu	-10.3938
▁Tourismus	-10.3938
hol	-10.3945
fähigkeit	-10.3945
▁Is	-10.3951
gleich	-10.3952
▁Allgemeinen	-10.3955
▁spezielle	-10.3955
1⁄4	-10.3956
▁Hol	-10.3961
▁Krankenhaus	-10.3965
▁verursacht	-10.3966
fälle	-10.3966
▁extrem	-10.3969
▁Investitionen	-10.3971
par	-10.3973
rt	-10.3976
▁Instrument	-10.3979
bringen	-10.3981
▁darstellen	-10.3982
▁Anmeldung	-10.3983
tur	-10.3986
▁Inhalte	-10.399
est	-10.399
▁bekam	-10.3993
▁ange	-10.3993
▁erklären	-10.3994
▁vermutlich	-10.3995
werte	-10.3997
trag	-10.3997
hen	-10.4001
werke	-10.4002
▁Priester	-10.4005
▁wichtiger	-10.4006
▁Vorteil	-10.4008
way	-10.401
▁Einstellung	-10.4012
▁zuständigen	-10.4013
▁Mikro	-10.4015
fahr	-10.4017
▁Geschäftsführer	-10.4018
▁Schwester	-10.4024
iere	-10.4026
▁Grenz	-10.4027
▁Ze	-10.403
▁Nachfrage	-10.4032
▁1966	-10.4036
▁ausgeschlossen	-10.4045
▁länger	-10.4046
▁Tre	-10.4048
▁Französisch	-10.4052
▁zahlen	-10.4054
▁Frank	-10.4055
▁Haar	-10.4057
eln	-10.4057
rich	-10.4059
▁School	-10.4059
▁Ausführung	-10.406
2005	-10.4062
org	-10.4062
ete	-10.4064
▁Baden	-10.4072
dia	-10.4072
▁Eröffnung	-10.4073
vertrag	-10.4074
ska	-10.4076
▁AZR	-10.4078
▁JavaScript	-10.408
▁Übersetzung	-10.4081
ras	-10.4081
text	-10.4086
ting	-10.4089
▁Lieferung	-10.4094
▁Christus	-10.4099
▁zählt	-10.4103
▁Kriterien	-10.4103
▁Zustimmung	-10.4104
▁Brüssel	-10.4112
▁verschiedener	-10.4113
ziel	-10.4115
bedarf	-10.4115
à	-10.4115
▁Trotz	-10.4117
▁39	-10.4118
▁sonst	-10.4125
š	-10.4125
▁gewährleisten	-10.4127
▁Tonnen	-10.4129
▁sichtbar	-10.4132
▁Ideen	-10.4133
▁Bach	-10.4136
gebiete	-10.4136
[	-10.4138
▁Anzeige	-10.4139
▁ermittelt	-10.414
▁1961	-10.4142
stehen	-10.4145
▁präsentiert	-10.4147
▁Massen	-10.415
▁Notwendigkeit	-10.415
▁Dresden	-10.4154
▁Unternehmer	-10.4165
▁Grün	-10.4165
▁Erhebung	-10.4173
brechen	-10.4173
▁Ausbau	-10.4182
▁Ansatz	-10.4183
▁1946	-10.4187
▁Wal	-10.4191
Was	-10.4192
▁Aufl	-10.4195
igung	-10.4197
mont	-10.4199
versammlung	-10.4199
▁Prof	-10.4201
▁ständig	-10.4201
▁Bur	-10.4202
gehalt	-10.4206
▁persönliche	-10.4208
▁entsprechen	-10.4209
▁Ball	-10.4211
decken	-10.4211
▁verbessert	-10.4215
▁verlangt	-10.4215
▁Sonne	-10.4215
▁92	-10.4216
▁Buchung	-10.4222
▁Pool	-10.4223
▁fiel	-10.4224
▁Vortrag	-10.4228
▁Staffel	-10.4229
▁Business	-10.4234
▁ziehen	-10.4238
▁jene	-10.4238
▁Wagen	-10.4238
▁Geändert	-10.4241
▁Dienste	-10.4241
▁Bl	-10.4245
▁Kritik	-10.4247
▁Auflösung	-10.425
▁stammen	-10.4251
▁UND	-10.4255
▁Überprüfung	-10.4259
▁liefern	-10.426
Welt	-10.4261
▁Brief	-10.4262
▁Salz	-10.4264
grad	-10.4264
▁Aktien	-10.4265
▁Liefer	-10.4268
▁Regeln	-10.4269
▁erzielte	-10.4269
▁mehrfach	-10.427
▁Reform	-10.4275
ura	-10.4277
▁Überwachung	-10.4278
▁linken	-10.428
AS	-10.4282
▁genug	-10.4283
stück	-10.4284
cia	-10.4291
▁Archiv	-10.4299
▁ungefähr	-10.4303
▁sofern	-10.4305
häuser	-10.4307
▁gewährt	-10.4308
▁Lizenz	-10.4311
ric	-10.4311
▁westlichen	-10.4315
beschreibung	-10.4318
▁Sonnen	-10.4322
wissenschaft	-10.4323
dt	-10.4324
Lo	-10.4324
▁schwarz	-10.4328
▁amerikanischen	-10.4333
▁Heizung	-10.4338
▁mag	-10.4339
ost	-10.434
▁Nationen	-10.4342
van	-10.4344
▁südlichen	-10.4347
▁einzigen	-10.4348
klasse	-10.4349
▁Orts	-10.4351
teilen	-10.4354
▁Gegend	-10.4355
▁1963	-10.4357
▁erinnert	-10.4358
vin	-10.4361
▁Bestellung	-10.4362
▁Technologien	-10.4363
▁Verlag	-10.4365
▁Geschäft	-10.4366
▁Suchen	-10.4369
ull	-10.437
▁41	-10.4375
▁Gong	-10.4376
tung	-10.4377
▁Arm	-10.4377
▁kon	-10.438
are	-10.438
ria	-10.438
vent	-10.4383
züge	-10.4383
▁bisherigen	-10.4384
zog	-10.4384
bruch	-10.4385
bett	-10.4385
▁Ausführungen	-10.4387
▁Festlegung	-10.4394
▁Media	-10.4395
▁Herkunft	-10.4395
pl	-10.4397
▁fällt	-10.4399
▁1962	-10.4401
▁Santa	-10.4403
▁offensichtlich	-10.4414
Rechtsvorschrift	-10.4415
▁Finnland	-10.4415
▁Anhang	-10.4416
▁Balkon	-10.4421
▁River	-10.4431
▁höheren	-10.4438
gesellschaftlich	-10.4438
▁Bedarf	-10.4439
▁Flächen	-10.4439
vis	-10.4446
▁Weiss	-10.445
ME	-10.4451
▁Vergütung	-10.4451
▁Unfall	-10.446
setzen	-10.4461
▁Hinzugefügt	-10.4461
port	-10.4462
▁Organ	-10.4465
▁Schauspieler	-10.4466
ku	-10.4469
▁Ku	-10.447
planung	-10.447
äl	-10.4474
▁BFH	-10.448
▁Untersuchungen	-10.4483
▁Aspekte	-10.4484
ris	-10.4489
wirkung	-10.4489
▁Sub	-10.4494
acht	-10.4495
▁manchmal	-10.4502
▁kommenden	-10.4504
▁Punkten	-10.4507
▁finanziellen	-10.4516
▁Flugzeug	-10.4519
▁Ke	-10.4522
▁verlor	-10.4524
▁Landgericht	-10.4526
▁diejenigen	-10.453
▁Beamten	-10.4531
▁Bonn	-10.4532
▁gingen	-10.4538
▁Autoren	-10.4544
stätte	-10.455
▁bessere	-10.4554
▁erzeugt	-10.4554
kopf	-10.4558
EC	-10.4562
▁zugelassen	-10.4563
verständlich	-10.4563
▁Regierungs	-10.4564
DI	-10.4565
▁Maler	-10.457
▁Versorgung	-10.457
▁grosses	-10.4571
▁geöffnet	-10.4575
ary	-10.4578
scheid	-10.4582
▁Mag	-10.4587
▁Black	-10.4588
▁Homepage	-10.4594
▁Friedhof	-10.4596
▁erbaut	-10.4596
▁Methode	-10.46
▁Aufhebung	-10.4604
▁Experten	-10.4605
▁aufgestellt	-10.4613
▁Gro	-10.4614
Stadt	-10.4614
▁lebte	-10.4616
▁Eigentümer	-10.4616
▁Vorschläge	-10.4618
▁Nutzen	-10.4619
▁Vorstand	-10.462
anstalt	-10.4621
▁hängt	-10.4622
▁international	-10.4622
▁gelegen	-10.4625
management	-10.4627
richtung	-10.463
▁Hu	-10.4631
Or	-10.4631
▁Internationale	-10.4632
▁Kredit	-10.4635
Vertrag	-10.4636
▁rein	-10.4641
▁früh	-10.4641
off	-10.4642
▁kurzen	-10.4645
Projekt	-10.4648
▁wesentlichen	-10.4649
▁Hi	-10.4649
els	-10.4649
▁Sea	-10.4652
▁Tom	-10.4654
▁Gebieten	-10.4656
▁belegte	-10.4662
gon	-10.4664
/2	-10.4665
▁250	-10.4669
▁Gefühl	-10.4673
▁erkennbar	-10.4674
▁rechten	-10.4674
rin	-10.4676
▁Schriftsteller	-10.4677
▁Eingang	-10.468
fahrer	-10.4683
▁Vorschrift	-10.4688
▁Bett	-10.4688
▁Überblick	-10.4693
oc	-10.4699
▁Häuser	-10.471
cc	-10.4711
illa	-10.4713
▁verstärkt	-10.4714
▁Automobil	-10.4718
qualität	-10.4723
lat	-10.4723
▁vermeiden	-10.4723
▁Herzog	-10.4724
musik	-10.4724
▁besitzen	-10.4725
4/	-10.4728
ō	-10.4728
rahmen	-10.4728
mässig	-10.4729
▁natürliche	-10.473
EF	-10.4733
kur	-10.4738
▁Heim	-10.4738
▁Übernahme	-10.4738
service	-10.4742
▁Protokoll	-10.4747
echt	-10.475
▁Freitag	-10.4752
reise	-10.4753
▁Philosophie	-10.4759
fallen	-10.4759
▁Lohn	-10.476
preise	-10.4761
▁Publikum	-10.4764
▁Str	-10.4767
▁Jobs	-10.4768
Bo	-10.4768
▁Station	-10.477
▁ursprünglichen	-10.4771
▁Wissenschaftler	-10.4771
▁Adresse	-10.4773
▁Kaffee	-10.4773
▁sorgen	-10.4775
▁Definition	-10.4775
▁Strategie	-10.478
cke	-10.4781
▁Transfer	-10.4781
ish	-10.4782
sort	-10.4784
▁1958	-10.4786
länge	-10.4787
yr	-10.479
gemeinschaftlich	-10.4794
▁Stunde	-10.4795
▁Verhandlungen	-10.4796
▁Schiffe	-10.4796
let	-10.4802
▁At	-10.4802
▁anmelden	-10.4804
rechtliche	-10.4806
handlung	-10.4806
PA	-10.4806
schein	-10.4807
ast	-10.4809
▁Mu	-10.4816
▁Finale	-10.4817
▁Studio	-10.4819
▁Katalog	-10.482
▁nahezu	-10.4822
lust	-10.4824
▁aufgeführt	-10.4825
▁Arbeitsplatz	-10.4827
gerät	-10.4831
▁Trainer	-10.4833
▁Insbesondere	-10.4835
▁Louis	-10.4835
▁Gleich	-10.4836
▁Falls	-10.4843
karten	-10.4847
▁täglich	-10.4848
▁regionalen	-10.4849
UNG	-10.485
itt	-10.4852
▁Engagement	-10.4853
Württemberg	-10.4859
▁Institutionen	-10.486
reform	-10.4862
▁beinhaltet	-10.4864
▁bestehende	-10.487
ug	-10.4872
geben	-10.4874
pt	-10.4875
▁Mat	-10.4879
▁Paar	-10.4879
möglichkeiten	-10.4882
▁erstreckt	-10.4884
3/	-10.4884
▁Navigation	-10.4887
ual	-10.4888
ata	-10.4891
▁Philipp	-10.4891
Urteil	-10.4895
ür	-10.4898
▁Zi	-10.4899
5%	-10.4901
▁Br	-10.4902
version	-10.4906
▁verläuft	-10.4907
pan	-10.491
▁Botschaft	-10.4913
▁schützen	-10.4918
of	-10.4918
▁Albert	-10.4918
▁Bel	-10.4922
lag	-10.4924
▁zentrale	-10.4924
stoffe	-10.4925
▁Forum	-10.4926
ies	-10.4929
treffen	-10.4931
▁legen	-10.4934
▁hinzufügen	-10.4938
Se	-10.4938
▁Muster	-10.4939
mehr	-10.494
ans	-10.4941
▁leisten	-10.4942
cha	-10.4943
lt	-10.4946
än	-10.4948
führen	-10.4948
Westfalen	-10.4951
▁1948	-10.4951
▁Tagung	-10.4952
▁Montag	-10.4958
▁Chemie	-10.4959
▁natürlichen	-10.4963
▁berichtet	-10.4965
▁Char	-10.4967
▁Engel	-10.4968
▁vergangenen	-10.4968
▁Mode	-10.4968
stern	-10.4968
▁jederzeit	-10.497
mission	-10.497
▁Beruf	-10.4973
position	-10.4977
▁Bra	-10.4978
▁Applikation	-10.4979
▁Quartal	-10.4981
▁Vereins	-10.4981
gänge	-10.4983
▁William	-10.4983
▁möglichst	-10.4984
misch	-10.4987
▁Division	-10.4987
▁wiederholt	-10.4987
▁Erb	-10.499
▁Spa	-10.4993
▁Durchmesser	-10.4995
▁Halb	-10.4996
gemeinde	-10.4997
▁historische	-10.4998
▁Verständnis	-10.4998
▁Merkmale	-10.5
▁Filter	-10.5001
AC	-10.5001
▁anerkannt	-10.5003
losen	-10.5008
▁Spezial	-10.5009
ober	-10.5016
▁tritt	-10.5016
▁andererseits	-10.5018
▁1957	-10.5018
glas	-10.5023
▁müsse	-10.5024
era	-10.5025
▁Güter	-10.5031
▁Anlass	-10.5031
titel	-10.5032
▁nahmen	-10.5032
ank	-10.5033
▁James	-10.5035
▁ZR	-10.5035
▁Ursprung	-10.5038
eur	-10.5041
▁Generation	-10.5042
▁Pop	-10.5044
▁Option	-10.5045
schul	-10.5045
▁Milliarden	-10.5047
Ko	-10.5048
ations	-10.5048
▁Labor	-10.5049
▁anzu	-10.5052
TS	-10.5052
▁Sc	-10.5055
▁Del	-10.5056
gasse	-10.506
▁BVerwG	-10.5062
▁Veränderung	-10.5063
▁Frühjahr	-10.5065
kurs	-10.507
▁Innovation	-10.5075
▁Richtlinien	-10.5079
ID	-10.5079
isches	-10.508
▁Ö	-10.5085
▁54	-10.5085
▁wodurch	-10.5088
minister	-10.5091
▁Spitze	-10.5092
▁sämtliche	-10.5098
strich	-10.5099
turm	-10.5101
▁Breite	-10.5108
▁Fo	-10.5109
▁Verfassung	-10.5115
ative	-10.5115
▁Bauern	-10.5118
▁Zeitschrift	-10.5121
▁Show	-10.5122
▁organisiert	-10.5122
▁46	-10.5124
▁Zugriffe	-10.5124
geführt	-10.5127
äch	-10.5129
▁Dokument	-10.5129
amerikanischen	-10.5132
kauf	-10.5134
▁Ansprüche	-10.5136
▁Ferner	-10.514
dig	-10.5143
▁Tipps	-10.5148
säure	-10.5151
▁Verbreitung	-10.5151
▁Viertel	-10.5154
▁ferner	-10.5154
▁Werbung	-10.5159
VG	-10.5161
▁Bibliothek	-10.5162
▁Lehre	-10.5163
▁Ruf	-10.5166
fluss	-10.5168
sätze	-10.5168
▁Bay	-10.517
▁CO	-10.5172
▁We	-10.5172
▁Men	-10.5176
▁Hilfs	-10.5182
tar	-10.5186
▁Multi	-10.5187
▁Früh	-10.5193
▁tief	-10.5193
▁eng	-10.5194
▁benötigen	-10.5197
▁1943	-10.5197
▁Aufmerksamkeit	-10.5199
▁Vo	-10.52
▁47	-10.5201
▁richtige	-10.5204
▁Geburt	-10.5205
▁Gesetzgeber	-10.5207
▁Donnerstag	-10.5207
test	-10.5212
▁gespeichert	-10.5213
grenzen	-10.5213
Um	-10.5214
dra	-10.5216
bt	-10.5218
▁1956	-10.5219
▁zer	-10.5221
▁‚	-10.5228
gerechnet	-10.5228
san	-10.5231
▁Wesentlichen	-10.5232
▁abhängig	-10.5234
▁betroffenen	-10.5237
▁übernehmen	-10.5238
▁Boot	-10.5238
betrag	-10.5239
▁Bor	-10.5241
zo	-10.5242
ise	-10.5243
gin	-10.5244
▁Asien	-10.5246
▁belegt	-10.5247
anteil	-10.525
▁keiner	-10.5252
VO	-10.5253
shop	-10.5253
ppen	-10.5254
▁Ti	-10.5254
ture	-10.5257
▁braucht	-10.5258
▁Voraussetzung	-10.5258
▁Werkzeug	-10.5259
▁Umständen	-10.526
▁Prüf	-10.5261
nden	-10.5261
Li	-10.5262
hang	-10.5264
▁installiert	-10.5265
▁beziehen	-10.5265
▁starken	-10.5266
cm	-10.5266
tritt	-10.5266
▁Abstimmung	-10.5268
ssystem	-10.5272
▁van	-10.5274
▁geltenden	-10.5275
fabrik	-10.5276
▁#	-10.5277
alle	-10.528
mand	-10.528
Land	-10.5281
bu	-10.5285
SI	-10.5287
wärts	-10.5289
▁Dreh	-10.5289
alität	-10.5293
—	-10.5293
▁Madrid	-10.5296
▁versehen	-10.5303
▁Amerika	-10.5304
▁Zuständigkeit	-10.5305
sprozess	-10.5306
▁einerseits	-10.5306
Mar	-10.5307
▁angesichts	-10.5309
▁Flüge	-10.5311
▁Wesen	-10.5311
Wenn	-10.5312
▁Brücke	-10.5313
▁verteilt	-10.5314
▁Leit	-10.5315
▁Internationalen	-10.5315
halt	-10.5315
old	-10.5316
▁nunmehr	-10.5318
▁1952	-10.532
tre	-10.5321
▁Technische	-10.5326
▁Nieder	-10.5333
▁Grossen	-10.5334
▁konkreten	-10.5336
▁zeigte	-10.5338
▁1949	-10.5338
hl	-10.5339
az	-10.534
▁Verteilung	-10.534
ure	-10.5347
▁Norm	-10.5354
▁Cap	-10.5354
ona	-10.5355
▁Grundsatz	-10.5357
▁1959	-10.5358
upp	-10.5359
win	-10.5361
verhältnis	-10.5362
▁Amsterdam	-10.5363
▁Glauben	-10.5364
▁ersichtlich	-10.5364
▁1941	-10.5368
etz	-10.5373
▁Erlass	-10.5375
Bahn	-10.5376
▁Schnee	-10.5378
▁Hügel	-10.5379
▁DM	-10.538
MI	-10.5384
▁Gespräch	-10.5388
▁Samstag	-10.5388
äng	-10.5392
FR	-10.5393
1/	-10.5396
▁Twitter	-10.5401
▁Antragsgegnerin	-10.5402
österreichischen	-10.5403
▁unterscheiden	-10.5406
produkte	-10.5407
Unter	-10.541
▁bestimmter	-10.5413
▁dennoch	-10.5416
bewertung	-10.5421
▁Ganz	-10.5423
▁Ag	-10.5425
farben	-10.5425
har	-10.5426
mir	-10.5426
▁Produkten	-10.5427
▁verliehen	-10.543
▁Gesicht	-10.5434
▁Diskussion	-10.5435
for	-10.5437
▁Dienstag	-10.5439
ebene	-10.5439
▁Dadurch	-10.544
▁erwarb	-10.5442
▁Fu	-10.5442
▁nutzt	-10.5442
▁1942	-10.5443
nimmt	-10.5449
verhalten	-10.5455
▁wären	-10.5456
▁Mrd	-10.5458
dor	-10.5461
Me	-10.5463
▁wahr	-10.5464
▁Texte	-10.5464
▁erhöhen	-10.5465
sanspruch	-10.5466
ib	-10.5469
zeiten	-10.5471
▁Sk	-10.5472
▁Mus	-10.5474
▁Küste	-10.5482
nutzung	-10.5483
hä	-10.5484
▁Ei	-10.5486
▁Spitzen	-10.5487
▁gefördert	-10.5489
ST	-10.5492
▁Beschäftigungs	-10.5494
sicherung	-10.5497
▁russischen	-10.5497
liga	-10.5497
verkehrs	-10.5502
iff	-10.5504
▁Massnahme	-10.5504
pflege	-10.5509
▁Reaktion	-10.5512
wart	-10.5512
▁Marine	-10.5513
▁gespielt	-10.5514
▁Mitgliedern	-10.5515
▁hast	-10.5517
▁geregelt	-10.552
ique	-10.5521
▁Cu	-10.5525
▁hören	-10.5528
▁CHF	-10.5528
▁schönen	-10.553
▁Regisseur	-10.5533
▁Moskau	-10.5535
linien	-10.5539
▁NRW	-10.5539
wan	-10.5543
▁Spe	-10.5544
▁grösser	-10.5544
ā	-10.5547
▁Glück	-10.5549
▁Niveau	-10.5549
bewegung	-10.5551
▁Aktion	-10.5552
▁überprüfen	-10.5557
▁Ehefrau	-10.5562
▁wuchs	-10.5563
nie	-10.5564
herr	-10.5571
ero	-10.5574
▁Cha	-10.5575
▁Ram	-10.5576
vel	-10.5578
Ka	-10.5582
▁beendet	-10.5589
eo	-10.5591
schloss	-10.5591
graf	-10.56
lingen	-10.5602
uri	-10.5606
▁Mini	-10.5607
eb	-10.561
▁Termin	-10.5615
▁Gemälde	-10.5618
▁geplant	-10.5618
las	-10.5619
▁ergänzt	-10.562
▁Architekten	-10.562
schicht	-10.5621
▁Videos	-10.5621
▁Stimme	-10.5622
lit	-10.5629
gegangen	-10.5629
▁folgten	-10.5633
fällig	-10.5635
▁Agrar	-10.5636
▁Kra	-10.5637
▁Nu	-10.5639
sein	-10.564
▁Sam	-10.5646
▁oberen	-10.5646
▁Code	-10.565
▁Zeitung	-10.565
nes	-10.5651
red	-10.5655
▁Renn	-10.566
drück	-10.5667
verfahrens	-10.5667
▁Power	-10.5669
▁Parkplatz	-10.5671
▁deutsch	-10.5672
▁Gipfel	-10.5673
▁bislang	-10.5677
▁Royal	-10.5683
▁Errichtung	-10.5683
rn	-10.5687
▁Abbildung	-10.5691
▁Modelle	-10.5691
▁verfolgt	-10.5692
ET	-10.5694
Dollar	-10.5703
▁angepasst	-10.5704
▁Ol	-10.571
▁Zahn	-10.5712
▁Erwerb	-10.5713
RO	-10.5718
grün	-10.5719
atur	-10.572
macht	-10.572
RE	-10.572
▁Alpen	-10.5721
▁trifft	-10.5721
falls	-10.5724
2001	-10.5728
smöglichkeiten	-10.5729
▁Oberfläche	-10.5731
Gra	-10.5737
▁halb	-10.5741
einander	-10.5747
▁hierfür	-10.5749
trieb	-10.575
▁Faktoren	-10.5753
rit	-10.5753
haupt	-10.5755
▁entsteht	-10.5757
fin	-10.5757
▁Prag	-10.5758
austausch	-10.5761
▁Unterschiede	-10.5763
▁eben	-10.5764
▁Preisen	-10.5764
analyse	-10.577
hab	-10.5772
dom	-10.5775
steht	-10.5775
gegen	-10.5778
post	-10.5779
▁Last	-10.5779
kl	-10.5783
dung	-10.5785
Qu	-10.5788
▁Ergänzung	-10.5792
cho	-10.5793
ky	-10.5794
▁Zeugen	-10.5801
tieren	-10.5803
▁Haftung	-10.5805
▁einiger	-10.5806
▁Gestalt	-10.5806
▁legt	-10.581
▁Bord	-10.581
▁Ste	-10.5811
urteil	-10.5812
▁Steuern	-10.5812
▁Treffen	-10.5813
arbeiter	-10.5813
richter	-10.5816
bro	-10.5817
▁Kr	-10.5818
▁erteilt	-10.5818
▁1955	-10.5824
▁dein	-10.5825
▁Ziffer	-10.5828
▁Award	-10.5829
▁Maschine	-10.583
▁tatsächlichen	-10.5832
▁Jung	-10.5833
tür	-10.5835
▁Komponenten	-10.5836
räumen	-10.5838
▁leitete	-10.584
ama	-10.5844
▁umgeben	-10.5849
schw	-10.585
▁Konzern	-10.5852
▁Pre	-10.5855
▁gehörten	-10.5859
▁Ve	-10.586
▁Erhöhung	-10.5862
▁Daniel	-10.5862
▁Blatt	-10.5863
▁voller	-10.5864
▁Gleichzeitig	-10.5864
▁ehemaliger	-10.5869
▁Autovermietung	-10.5872
sbescheid	-10.5872
▁Besitzer	-10.5874
▁basiert	-10.5879
▁Single	-10.5882
▁rasch	-10.5882
krieg	-10.5887
ux	-10.5887
▁Fünf	-10.5887
▁Charles	-10.5888
eten	-10.5889
ergebnisse	-10.589
Bei	-10.589
▁1954	-10.5891
▁integriert	-10.5892
tet	-10.5894
▁Besuche	-10.5896
wohn	-10.5897
▁Ereignisse	-10.5902
ney	-10.5905
▁Meeres	-10.5907
santrag	-10.5908
▁Pin	-10.5909
▁Angriff	-10.5909
▁infolge	-10.5911
information	-10.5912
▁Hermann	-10.5913
▁gestaltet	-10.5913
▁Kapelle	-10.5913
▁IP	-10.5914
schi	-10.5916
▁51	-10.5916
▁positive	-10.5919
▁Tempel	-10.592
▁Norwegen	-10.5924
▁Vereinigte	-10.593
AP	-10.5934
▁Vereinigung	-10.5935
berger	-10.5936
▁Einfuhr	-10.5936
▁1953	-10.5937
▁vorbei	-10.5939
▁menschlichen	-10.5941
not	-10.5944
▁72	-10.5946
▁lösen	-10.5947
wi	-10.5949
zahlung	-10.5949
reiche	-10.5955
rei	-10.5958
produkt	-10.5961
transport	-10.5962
Wei	-10.5963
▁Einkommen	-10.5965
▁Vaters	-10.5966
sti	-10.5969
▁Green	-10.597
sicht	-10.5971
▁Allgemeine	-10.5972
▁Atmosphäre	-10.5979
▁Daneben	-10.598
hersteller	-10.5981
▁Tanz	-10.5986
Na	-10.599
team	-10.5995
exe	-10.5999
lar	-10.6001
freie	-10.6001
frage	-10.6001
uff	-10.6002
▁49	-10.6002
▁Vorlage	-10.6002
▁aufgebaut	-10.6007
▁nördlichen	-10.601
aktiv	-10.6012
Dr	-10.6014
Für	-10.6018
200	-10.6023
▁Ufer	-10.6024
▁Ci	-10.6026
▁Cre	-10.6027
▁Behörde	-10.6029
geht	-10.6029
gesellschaften	-10.603
▁Hall	-10.603
rechtlich	-10.6033
nah	-10.6034
▁langsam	-10.6036
▁erworben	-10.6036
▁1934	-10.6038
amerikanische	-10.6038
▁positiv	-10.604
▁Fabrik	-10.6041
hard	-10.6045
▁American	-10.6047
▁Rundfunk	-10.6048
▁03	-10.6048
▁by	-10.6049
▁Krebs	-10.605
cker	-10.6051
▁möglichen	-10.6052
▁falsch	-10.6054
▁beendete	-10.6054
▁1947	-10.6054
▁verlieren	-10.6054
▁umfassende	-10.6058
leg	-10.6058
▁angefochtenen	-10.6061
▁Fakultät	-10.6061
2002	-10.6063
Beschwerdeführer	-10.6065
essen	-10.6066
part	-10.6068
well	-10.6068
▁Weiterbildung	-10.6077
IG	-10.6078
kampf	-10.6081
▁Flügel	-10.6084
▁Ferien	-10.6084
▁p	-10.6087
▁Walter	-10.6089
▁dürfte	-10.6096
Service	-10.6102
▁welchem	-10.6102
▁Stern	-10.6103
Ra	-10.6105
▁Graf	-10.6105
Serie	-10.6108
design	-10.611
▁Festsetzung	-10.611
▁Mittwoch	-10.6113
▁Meisterschaft	-10.6114
Alle	-10.6117
mail	-10.6118
systems	-10.6124
▁offiziell	-10.613
▁Hinsicht	-10.6131
▁Gebühren	-10.6132
▁Eintritt	-10.6133
förderung	-10.6134
¤	-10.6134
tan	-10.6136
mes	-10.6136
▁Gr	-10.6141
▁erfordert	-10.6142
Sa	-10.6143
▁1936	-10.6146
▁Welche	-10.6151
▁Pol	-10.6153
▁Eu	-10.6153
▁Verbindungen	-10.6155
▁erzielt	-10.6159
▁As	-10.616
statt	-10.616
ologische	-10.6165
dal	-10.6169
▁Wappen	-10.6169
▁Département	-10.617
▁finanzielle	-10.6173
▁Abstand	-10.6175
teilung	-10.6176
▁Komfort	-10.6177
▁Stock	-10.6177
pre	-10.6179
He	-10.618
▁unterscheidet	-10.6182
stat	-10.6182
▁eingetragen	-10.6187
▁beeinflusst	-10.6187
▁53	-10.6187
horn	-10.6188
▁Nachweis	-10.6189
ehr	-10.6189
▁BGH	-10.619
▁Real	-10.6191
setzt	-10.6193
▁weg	-10.6193
▁Gang	-10.6194
LA	-10.6195
ora	-10.62
▁Feder	-10.6201
▁Eigentum	-10.6202
pat	-10.6203
chten	-10.6203
▁praktisch	-10.6208
▁1919	-10.621
fassung	-10.621
▁Klassen	-10.6218
AM	-10.6221
gezogen	-10.6221
▁elf	-10.6222
wer	-10.6227
▁traditionellen	-10.6228
▁erstes	-10.6229
▁08	-10.6232
▁Sektor	-10.6232
CE	-10.6235
ple	-10.6237
▁welchen	-10.6237
ohne	-10.6238
▁Konstruktion	-10.6239
boden	-10.624
▁Il	-10.6242
▁Marketing	-10.6243
▁bestimmen	-10.6244
▁notwendigen	-10.6248
▁Klavier	-10.6248
▁Schritte	-10.625
▁DVD	-10.6252
deutschen	-10.6252
▁bequem	-10.6256
HO	-10.6256
▁Mexiko	-10.6257
▁vierten	-10.6258
▁Solar	-10.626
brücke	-10.6267
dar	-10.6268
▁mündlichen	-10.6268
▁Söhne	-10.6272
▁Pri	-10.6273
▁Brasilien	-10.6273
sing	-10.6274
▁auswählen	-10.6274
▁Zusätzlich	-10.6275
▁informiert	-10.6275
dis	-10.6276
▁erhebliche	-10.6276
kom	-10.628
ili	-10.6283
▁schneller	-10.6285
▁garantiert	-10.6291
▁Fr	-10.6292
ausbildung	-10.6295
▁Damen	-10.6296
▁Forscher	-10.6297
▁Weil	-10.6298
▁deaktiviert	-10.6298
kla	-10.63
▁Küsten	-10.6301
▁Andreas	-10.6302
ball	-10.6302
▁Angel	-10.6303
lei	-10.6304
▁Chef	-10.6304
▁perfekt	-10.6304
▁startete	-10.6305
▁Dokumente	-10.6309
europa	-10.6309
1994	-10.6311
▁personenbezogen	-10.6312
▁Fett	-10.6312
ech	-10.6312
▁Münster	-10.6314
technologie	-10.6315
▁Friedens	-10.6316
theater	-10.6318
luft	-10.6318
▁Stadtzentrum	-10.6318
▁1951	-10.6319
▁zutreffend	-10.632
▁Best	-10.6321
▁Fischer	-10.6321
▁Josef	-10.6326
OP	-10.633
▁Play	-10.6333
sie	-10.6343
▁Wählen	-10.6344
▁wirkte	-10.6344
▁existiert	-10.6345
ida	-10.6346
bri	-10.6348
▁Arbeitsmarkt	-10.6348
lagen	-10.6349
▁Vertrauen	-10.6349
▁Gegner	-10.635
▁Format	-10.6351
▁1918	-10.6352
▁lebten	-10.6352
zy	-10.6353
▁Niederlanden	-10.6354
olo	-10.6355
▁Regie	-10.6356
▁100%	-10.6356
▁zusätzlichen	-10.6357
▁Rechtsanwalt	-10.6357
kow	-10.6359
▁Freude	-10.6363
▁festzustellen	-10.6364
▁informieren	-10.6366
▁Back	-10.6369
1999	-10.637
▁bekannte	-10.6374
▁Rücken	-10.6378
▁Free	-10.6381
▁Ermittlung	-10.6383
gibt	-10.6384
▁Such	-10.6384
▁Services	-10.6385
▁Auflage	-10.6386
▁vergeben	-10.6388
stell	-10.6388
lieb	-10.6388
formen	-10.6389
PS	-10.639
schar	-10.6391
SC	-10.6396
▁Statistik	-10.6396
ings	-10.6399
▁schliesst	-10.6399
▁Einheiten	-10.64
▁Beihilfen	-10.64
▁wonach	-10.6406
wege	-10.6407
▁nötig	-10.6411
▁Variante	-10.6412
▁lief	-10.6413
serie	-10.6414
▁dargelegt	-10.6414
ose	-10.6417
organ	-10.642
mil	-10.6423
▁Ägypten	-10.6423
▁konkrete	-10.6429
▁interessiert	-10.643
▁ausgerichtet	-10.6431
▁Campingplatz	-10.6432
▁Alten	-10.6432
▁Gutachten	-10.6432
ht	-10.6433
▁gelangen	-10.6435
ev	-10.6437
▁Betriebe	-10.6439
▁geschützt	-10.6439
▁USD	-10.6443
▁Erfüllung	-10.6443
▁Lieder	-10.6445
▁Cal	-10.6445
Ta	-10.6447
▁Zucker	-10.6447
sammlung	-10.6447
▁offenen	-10.6448
▁Aufstieg	-10.6452
▁führten	-10.6452
menge	-10.6453
▁treten	-10.6457
row	-10.646
▁breit	-10.6461
▁aufzu	-10.6462
Kl	-10.6464
einheiten	-10.6465
DR	-10.6469
▁begrenzt	-10.647
▁zugeordnet	-10.6471
▁berechnet	-10.6471
▁Washington	-10.6474
▁Drogen	-10.6479
ox	-10.648
partner	-10.6481
griff	-10.6481
bb	-10.6488
pur	-10.6488
▁Hin	-10.6489
▁Hoffnung	-10.6492
Vi	-10.6493
▁56	-10.6497
IP	-10.65
▁Beschäftigten	-10.6503
▁Kohle	-10.6505
▁namens	-10.6506
▁Wahrscheinlich	-10.6507
▁benutzen	-10.6507
▁ha	-10.6513
institut	-10.6516
▁englischen	-10.6517
▁Pferde	-10.6523
▁Dritten	-10.6523
▁herunterladen	-10.6523
▁ausgetragen	-10.6525
stellt	-10.6527
▁Neubau	-10.653
Com	-10.6531
▁vorgestellt	-10.6534
▁Spanisch	-10.6536
▁Filme	-10.6536
Zeit	-10.6538
▁Voraus	-10.6539
▁funktioniert	-10.6539
▁einfachen	-10.654
staaten	-10.654
ient	-10.6542
▁Umstand	-10.6544
▁perfekte	-10.6551
ua	-10.6564
▁Ebenso	-10.6565
günstig	-10.6566
ander	-10.6568
▁Chance	-10.6568
▁offene	-10.657
▁Nachbar	-10.6574
▁Ch	-10.6574
niveau	-10.6576
ante	-10.6577
▁Ph	-10.6577
▁Che	-10.6585
reisen	-10.6588
halb	-10.659
▁parallel	-10.6593
AU	-10.6597
▁erlassen	-10.6598
▁überzeugt	-10.6599
west	-10.6604
▁Entstehung	-10.6604
gg	-10.6607
ati	-10.661
▁Poly	-10.6611
Fi	-10.6611
▁Zugriff	-10.6613
▁Auseinandersetz	-10.6615
▁Ker	-10.6615
fort	-10.6617
geber	-10.6621
RS	-10.6626
▁Wolfgang	-10.6628
▁Aussage	-10.6628
▁führenden	-10.6631
▁standen	-10.6632
spflicht	-10.6632
fenster	-10.6633
verbrauch	-10.6635
CH	-10.6639
▁Hinweise	-10.664
▁Beihilfe	-10.6641
ware	-10.6641
▁Jeder	-10.6642
▁Erste	-10.6648
GA	-10.6651
▁Unterlagen	-10.6653
bon	-10.6654
Neu	-10.6654
kat	-10.6655
▁Export	-10.6656
schutzerklärung	-10.6661
▁Brüder	-10.6665
▁Ritter	-10.6667
mor	-10.6668
▁600	-10.6669
▁vorgesehenen	-10.6672
▁Bremen	-10.6673
▁110	-10.6674
▁Spielzeit	-10.6674
oli	-10.6676
▁EStG	-10.668
▁wichtigste	-10.6683
DS	-10.6684
phe	-10.6687
▁Fälle	-10.6688
bas	-10.669
situation	-10.6693
Ent	-10.6695
▁Schau	-10.6697
energie	-10.6699
▁Zivil	-10.6699
▁Übergang	-10.67
▁glauben	-10.6704
web	-10.6708
▁Vers	-10.6709
▁Bewohner	-10.6713
▁Fax	-10.6713
▁Prä	-10.6714
Her	-10.6717
▁Rohr	-10.6718
▁Bezirks	-10.672
▁staatlichen	-10.6721
▁ziemlich	-10.6724
▁Schön	-10.6724
▁Baby	-10.6728
▁Registrieren	-10.6729
▁United	-10.674
▁North	-10.674
▁EN	-10.6741
▁begleitet	-10.6746
▁Fahrrad	-10.6746
▁Bas	-10.6746
▁Ban	-10.6748
▁aussen	-10.6749
▁zentralen	-10.6753
▁Prozesse	-10.6753
▁1937	-10.6754
▁jemand	-10.6755
▁IN	-10.6755
▁Koch	-10.6756
2/	-10.6756
▁Prinzip	-10.6757
nitz	-10.6758
▁ausgewählt	-10.6758
▁Wohnzimmer	-10.6759
ministerium	-10.676
▁Senats	-10.676
▁Tele	-10.6766
▁Uni	-10.6767
▁berufliche	-10.6767
▁Arbeitszeit	-10.6768
ssen	-10.6768
▁Leder	-10.6768
▁Dokumentation	-10.6769
▁Email	-10.6771
▁Block	-10.6772
▁Tatsachen	-10.6777
ram	-10.6781
▁Befehl	-10.6783
▁Platten	-10.6786
2004	-10.6787
▁Aluminium	-10.6787
stunden	-10.6787
▁verbindet	-10.6791
▁geringer	-10.6791
▁Jakob	-10.6792
motor	-10.6794
▁kannst	-10.6795
▁Urteils	-10.6796
▁Namens	-10.6796
▁Monats	-10.6801
sehen	-10.6801
▁Haustiere	-10.6802
▁Verkaufs	-10.6803
eg	-10.6804
stra	-10.6806
ütz	-10.6807
▁mittlerweile	-10.6807
▁Grosse	-10.6813
▁Ausrüstung	-10.6816
▁genehmigt	-10.6818
RI	-10.6819
$	-10.6819
pri	-10.6822
▁Win	-10.6823
▁Krieges	-10.6824
var	-10.6825
hr	-10.6825
strecke	-10.6829
▁Worte	-10.6829
weil	-10.6833
ré	-10.6834
▁Konflikt	-10.6836
ologischen	-10.6841
zig	-10.6842
▁Fernsehen	-10.6845
oo	-10.6845
runde	-10.6848
▁klassischen	-10.6849
▁Tief	-10.6849
▁1935	-10.6851
▁anbieten	-10.6852
▁voran	-10.6855
▁Niederschlag	-10.6858
▁Wohl	-10.6862
▁Gründer	-10.6867
▁Formel	-10.687
▁sorgt	-10.6877
▁Existenz	-10.6883
▁Bearbeitung	-10.6885
▁Autobahn	-10.6886
grenze	-10.6886
bit	-10.6887
▁Weiteren	-10.6887
▁Einzelheiten	-10.6891
rung	-10.6894
▁Job	-10.6899
▁wirksam	-10.69
▁inkl	-10.69
skosten	-10.69
▁akzeptiert	-10.6903
▁Party	-10.6904
▁Hochschul	-10.6909
▁gewisse	-10.6911
▁britische	-10.6911
▁Az	-10.6912
▁bewegen	-10.6913
▁Galerie	-10.6913
kirchen	-10.6928
▁Hauses	-10.6929
▁vorhandenen	-10.6929
▁falls	-10.693
▁Jagd	-10.6931
NA	-10.6932
▁Südafrika	-10.6933
▁Schlaf	-10.6935
sor	-10.6935
▁unzulässig	-10.6936
▁Sil	-10.6938
▁Verbot	-10.6941
▁Gemäss	-10.6942
Pfalz	-10.6942
▁schwierig	-10.6942
uf	-10.6943
▁Orgel	-10.6948
kal	-10.6952
kette	-10.6954
▁Krankheit	-10.6956
▁Ortschaft	-10.6957
▁Vielfalt	-10.6957
▁UN	-10.6959
kra	-10.6964
auer	-10.6964
▁Musiker	-10.6966
▁Einzelfall	-10.6967
AN	-10.6969
bauten	-10.6972
▁Fähigkeiten	-10.6973
▁kontaktieren	-10.6974
▁Vogel	-10.6976
▁Kühlschrank	-10.6977
▁Beste	-10.6977
pon	-10.6979
▁getan	-10.6986
ello	-10.6989
▁rot	-10.6991
▁angeordnet	-10.6991
▁kleinere	-10.6993
▁Strecken	-10.6994
▁finanziert	-10.6995
▁Haushalt	-10.6999
▁regionale	-10.7006
▁Sowjetunion	-10.7011
ABI	-10.7012
▁mögliche	-10.7013
box	-10.7013
▁Apartment	-10.7014
▁Spass	-10.7015
erweise	-10.7015
▁Mineral	-10.7016
▁Modul	-10.7016
▁Identität	-10.7018
▁Willen	-10.7019
SA	-10.702
Berichterstatter	-10.7022
gal	-10.7024
▁Mund	-10.7031
▁Wohnungen	-10.7037
wei	-10.7039
▁Kranken	-10.704
▁Völker	-10.7041
▁inter	-10.7043
▁beschreibt	-10.7044
▁Sta	-10.7047
Man	-10.7051
lob	-10.7053
▁Hart	-10.706
▁Kindes	-10.7064
▁Unabhängigkeit	-10.7065
tern	-10.707
nehmer	-10.707
gro	-10.7071
och	-10.7075
▁Miet	-10.7078
▁Hat	-10.7078
typen	-10.708
▁verlängert	-10.708
▁persönlich	-10.7084
1998	-10.7084
▁sonstigen	-10.7085
▁Bund	-10.7085
▁aufgehoben	-10.7085
▁Para	-10.7086
▁Berge	-10.7087
▁Pat	-10.7087
GB	-10.7087
▁Dienstleistungs	-10.7089
begriff	-10.7092
ij	-10.7095
kapital	-10.7096
▁Hel	-10.7099
▁aufgelöst	-10.71
▁beschädigt	-10.7103
gebracht	-10.7106
wind	-10.7107
met	-10.711
▁getragen	-10.7113
▁Laden	-10.7116
reihe	-10.7121
▁Geschmack	-10.7121
▁Sel	-10.7123
lassen	-10.7128
Spielfreie	-10.7129
▁Haltung	-10.7129
▁gem	-10.7133
▁genannte	-10.7133
▁Durchschnitt	-10.7135
▁hierbei	-10.7137
▁Alkohol	-10.7137
El	-10.7137
▁Banken	-10.7137
▁trug	-10.7139
zellen	-10.7146
▁angeschlossen	-10.7146
▁abgelehnt	-10.7147
ile	-10.7149
EX	-10.715
▁bildete	-10.7153
▁PS	-10.7153
▁Aktionen	-10.7153
▁Referenz	-10.7154
zentren	-10.7158
▁Heil	-10.7159
▁angewandt	-10.716
▁Kas	-10.7162
▁gewährleistet	-10.7162
▁63	-10.7165
mass	-10.7166
▁Sekunden	-10.7166
▁Teams	-10.7167
▁Lü	-10.7167
▁Betten	-10.7176
▁Landschafts	-10.7176
▁Seele	-10.7177
stehenden	-10.7177
dischen	-10.7177
▁Ausgangs	-10.7179
▁Nordosten	-10.7183
zeug	-10.7186
▁Kontroll	-10.7186
▁Entwicklungen	-10.7187
▁Schaden	-10.7188
IE	-10.719
ning	-10.7191
mühle	-10.7192
▁bezogen	-10.7192
▁Hektar	-10.7194
ng	-10.7195
▁Sol	-10.7195
▁weshalb	-10.7197
▁Publikationen	-10.7197
öss	-10.7198
chs	-10.7199
baum	-10.7201
fassen	-10.7202
▁Symbol	-10.7202
Du	-10.7204
▁Formular	-10.7206
▁überall	-10.7207
▁gelegenen	-10.7207
▁95	-10.7208
kenn	-10.721
ün	-10.7212
MO	-10.7214
▁Tar	-10.7221
Wie	-10.7223
▁laufen	-10.7225
▁Südwesten	-10.7226
▁Ukraine	-10.7228
serv	-10.723
▁Umgang	-10.723
▁Vorgänger	-10.7235
▁Sche	-10.7236
▁Funk	-10.7236
ado	-10.7236
Strasse	-10.7241
▁09	-10.7241
▁Mir	-10.7242
▁Mc	-10.7248
▁älteste	-10.7249
▁Seminar	-10.725
▁1,5	-10.7251
▁Zahlungs	-10.7255
â	-10.7257
stil	-10.7263
rum	-10.7264
▁richtet	-10.7265
▁sobald	-10.7265
▁schön	-10.7268
▁Qualitäts	-10.727
▁kombiniert	-10.7272
▁AS	-10.7272
▁Lern	-10.7277
▁Bewusstsein	-10.7277
sozial	-10.7281
▁betroffen	-10.7283
▁Betreuung	-10.7285
▁liefert	-10.7285
▁Les	-10.7286
format	-10.7291
▁Digital	-10.7293
ii	-10.7293
messen	-10.7296
▁Lokal	-10.7296
▁Staates	-10.7299
▁Erwachsene	-10.73
sal	-10.7303
▁Blüten	-10.7305
▁wesentliche	-10.7311
zeichnen	-10.7317
uro	-10.7318
artikel	-10.732
▁Besonders	-10.7321
▁Music	-10.7322
▁siehe	-10.7322
▁kostenlose	-10.7324
temperatur	-10.7324
rol	-10.7332
aussergewöhnlich	-10.7333
ON	-10.7334
▁inklusive	-10.7334
▁ehe	-10.7336
▁Lernen	-10.7339
▁Artikels	-10.7339
▁Em	-10.734
TI	-10.7342
▁schweren	-10.7343
▁Gewährung	-10.7344
▁Renten	-10.7346
▁Rumänien	-10.7351
2003	-10.7353
Po	-10.7354
▁individuell	-10.7356
akte	-10.7356
ration	-10.7357
anda	-10.7359
▁Ausübung	-10.736
▁Fähigkeit	-10.7365
fern	-10.7365
▁behauptet	-10.737
▁Street	-10.737
▁hingewiesen	-10.7371
▁Gal	-10.7376
ult	-10.7378
▁Berichte	-10.7379
RT	-10.738
mond	-10.7382
gewinn	-10.7383
▁gering	-10.7383
▁Gewerbe	-10.7386
▁1900	-10.7386
lev	-10.7388
▁Mangel	-10.7391
SD	-10.7391
▁Kommunikations	-10.7394
▁Schönheit	-10.7394
ink	-10.7394
▁Schi	-10.7397
▁Händler	-10.7398
fu	-10.7399
ue	-10.7399
ence	-10.74
antrag	-10.74
▁gezogen	-10.7402
▁Kroatien	-10.7403
ock	-10.7404
▁eigener	-10.7404
PE	-10.7405
▁Luxus	-10.7411
▁bewegt	-10.7413
deckt	-10.7413
gan	-10.7414
ym	-10.7415
▁Menschenrechte	-10.7415
▁geblieben	-10.7415
witz	-10.7419
▁Ankunft	-10.742
ef	-10.7423
ausstattung	-10.7424
▁Wa	-10.7425
▁Ed	-10.7433
▁löschen	-10.7435
SCH	-10.7436
steigen	-10.7437
▁Warum	-10.7438
ava	-10.7439
▁Müller	-10.7441
oma	-10.7444
▁mittleren	-10.7446
CC	-10.7446
▁stehenden	-10.7448
▁Pension	-10.745
▁wirkt	-10.745
kunft	-10.7451
▁Register	-10.7454
endorf	-10.7455
▁Wortlaut	-10.7456
▁Info	-10.7458
xi	-10.7459
scha	-10.7469
▁Feststellungen	-10.7471
still	-10.7476
▁Widerstand	-10.7476
sverhältnis	-10.7476
▁Handlung	-10.7476
▁Ticket	-10.7477
▁Wolf	-10.7478
quelle	-10.7484
▁umfangreiche	-10.7487
national	-10.749
▁vorgetragen	-10.7491
Ex	-10.7492
▁Verlängerung	-10.7492
▁verbindlich	-10.7495
▁sonstige	-10.7496
lon	-10.7498
verarbeitung	-10.7498
▁Angst	-10.7498
▁Programms	-10.7499
▁Höhen	-10.7499
stände	-10.7506
händler	-10.7511
▁Lind	-10.7516
▁Box	-10.7516
▁Geschenk	-10.7518
gebühren	-10.7518
▁versuchte	-10.752
▁Altar	-10.7524
▁Bundesver	-10.7528
ct	-10.7529
▁Todes	-10.7529
ón	-10.7532
▁endete	-10.7533
▁Basel	-10.7541
▁spanischen	-10.7544
▁Erhaltung	-10.7544
▁WC	-10.7549
treten	-10.7549
▁Währung	-10.755
▁Spiegel	-10.7552
▁Normen	-10.7554
▁Kupfer	-10.7554
verhältnisse	-10.7555
▁Roh	-10.7563
ea	-10.7563
lü	-10.7566
▁Sicherung	-10.7567
▁griechischen	-10.7568
Dateiendung	-10.7571
▁Kalender	-10.7572
▁Mission	-10.7572
▁Strukturen	-10.7574
AD	-10.7576
▁Gemein	-10.7577
rennen	-10.7579
▁vollständige	-10.758
ous	-10.7582
▁Eindruck	-10.7583
Arbeitslosigkeit	-10.7583
▁letztlich	-10.7584
▁Zell	-10.7585
▁Hill	-10.7587
▁Kontext	-10.7589
IL	-10.7591
▁Dar	-10.7591
▁Verkäufer	-10.7593
▁Angelegenheiten	-10.7594
▁Universitäten	-10.7595
▁geleistet	-10.7596
▁Manager	-10.7596
▁Simon	-10.7596
isierte	-10.7598
▁Audio	-10.7598
stärke	-10.7606
dienste	-10.7609
▁lokale	-10.7612
▁Antworten	-10.7614
▁Ter	-10.7615
▁freie	-10.7616
▁erinnern	-10.7617
hör	-10.7619
ionen	-10.7621
▁LED	-10.7624
▁Fer	-10.7625
▁Abgeordneten	-10.7626
▁Siedlung	-10.763
▁breite	-10.7632
▁Ak	-10.7635
▁gestalten	-10.7636
▁Anhänger	-10.7637
bilder	-10.7639
▁klein	-10.7644
▁entdecken	-10.7646
▁1914	-10.7646
ova	-10.7647
werten	-10.7649
▁1928	-10.765
lle	-10.7652
staat	-10.7653
▁Südosten	-10.7655
▁Cam	-10.7655
▁Zunächst	-10.7658
Ja	-10.7659
▁Op	-10.7665
▁hinein	-10.7667
deutsch	-10.7669
▁bestellt	-10.7672
▁Blau	-10.7672
▁entwickelten	-10.7676
án	-10.7676
▁Cur	-10.7676
cht	-10.768
▁bestanden	-10.7681
▁Zinsen	-10.7683
projekte	-10.7684
bezirk	-10.7685
▁Standpunkt	-10.7686
▁Mittelalter	-10.7692
tig	-10.7692
▁jener	-10.7695
Pa	-10.7699
äre	-10.77
▁Erstattung	-10.77
▁Rollen	-10.7701
▁Allgemein	-10.7702
lern	-10.7704
▁Kapazität	-10.7705
▁Hor	-10.7706
▁chinesischen	-10.7706
elli	-10.7707
▁Anton	-10.7707
è	-10.7708
▁Ware	-10.771
▁South	-10.771
km	-10.7716
▁Partnerschaft	-10.7717
▁Adam	-10.7722
▁Nordwesten	-10.7724
▁Wall	-10.7727
▁Gemüse	-10.7727
▁Ohne	-10.7727
▁zweimal	-10.7728
konferenz	-10.7733
▁kulturellen	-10.7736
wehr	-10.7736
Un	-10.7737
lim	-10.7739
▁durchaus	-10.7739
hält	-10.7741
▁ausgegangen	-10.7741
▁Insolvenz	-10.7742
▁Mengen	-10.7742
▁Dollar	-10.7749
▁beruflichen	-10.7749
▁Detail	-10.7753
konzept	-10.7753
▁gefertigt	-10.7755
▁Obst	-10.7755
▁1929	-10.7759
kühl	-10.7759
▁hilft	-10.7763
▁älteren	-10.7766
▁Gri	-10.7766
▁einzigartige	-10.7766
▁Monte	-10.7767
▁verbundenen	-10.7768
▁Schäden	-10.7768
▁Anstieg	-10.7772
werb	-10.7772
▁Entgelt	-10.7773
nehm	-10.7774
ktion	-10.7777
gy	-10.7778
▁Institute	-10.7778
kern	-10.778
Kon	-10.778
code	-10.7783
▁Rosen	-10.7784
bestand	-10.7784
▁Deutschlands	-10.7786
▁betreffen	-10.7786
urlaub	-10.7791
▁Spar	-10.7792
heute	-10.7793
politische	-10.7795
▁Kle	-10.7799
▁Theorie	-10.7801
▁Datenbank	-10.7804
▁vorgeschlagen	-10.7805
▁Instrumente	-10.7806
dan	-10.7806
lie	-10.7808
sheim	-10.7809
▁Beschlüsse	-10.7809
flügel	-10.781
▁1932	-10.7812
rohr	-10.7812
stieg	-10.7815
II	-10.7818
ace	-10.7818
▁bewertet	-10.7823
oren	-10.7825
▁Forderung	-10.783
▁Tro	-10.783
▁Hör	-10.7832
▁Grundlagen	-10.7834
▁leer	-10.7834
bogen	-10.7836
ical	-10.7843
ade	-10.7844
▁160	-10.7845
▁beitragen	-10.7847
▁örtlichen	-10.7847
▁Demokratie	-10.7849
▁Ser	-10.7849
▁derselben	-10.785
Diese	-10.7852
▁speziellen	-10.7853
▁digitalen	-10.7853
▁Museen	-10.7853
▁Umfeld	-10.7859
▁Android	-10.7859
war	-10.7863
▁verhindert	-10.7864
Str	-10.7864
▁Erinnerung	-10.7867
▁Worten	-10.7868
▁empfohlen	-10.7868
▁Mittelmeer	-10.7868
▁OVG	-10.787
ios	-10.787
schreibung	-10.7871
zweck	-10.7871
politischen	-10.7871
▁Orchester	-10.7871
wettbewerb	-10.7875
gue	-10.7877
unterricht	-10.7879
▁Cup	-10.7883
▁beider	-10.7884
▁umgesetzt	-10.7888
gor	-10.7892
ausserordentlich	-10.7895
▁freuen	-10.7896
▁Grafen	-10.7899
▁Alternative	-10.79
info	-10.7902
▁Oper	-10.7903
▁erzählt	-10.7905
▁Drittel	-10.7908
▁Kosmetik	-10.791
▁geprüft	-10.7913
lot	-10.7915
▁Beförderung	-10.7917
zone	-10.7917
▁niemand	-10.7919
▁erhielten	-10.7922
att	-10.7925
ack	-10.7926
Spiel	-10.7927
▁Mannschaften	-10.7927
▁Bedürfnisse	-10.7928
▁Kol	-10.7931
raten	-10.7932
▁PDF	-10.7934
Fluggesellschaft	-10.7934
▁manuell	-10.7935
▁Tore	-10.7939
▁offiziellen	-10.794
▁Siehe	-10.7941
▁Gre	-10.7941
▁Dein	-10.7941
zugeben	-10.7945
kanal	-10.7947
▁gekennzeichnet	-10.7949
set	-10.7949
▁Kap	-10.7952
▁jüdischen	-10.7954
/3	-10.7954
▁Dennoch	-10.7954
cl	-10.7959
▁130	-10.7959
▁Getreide	-10.7959
▁hinzugefügt	-10.7959
▁verboten	-10.7961
▁echte	-10.7963
▁Gesetze	-10.7963
▁Steuerung	-10.7964
stufen	-10.7965
▁Haft	-10.797
ø	-10.797
nau	-10.7972
▁staatliche	-10.7972
▁Mad	-10.7972
▁Bronze	-10.7973
▁Mitarbeitern	-10.7975
▁MwSt	-10.7978
▁Plattform	-10.798
FA	-10.798
▁Einnahmen	-10.7981
WE	-10.7987
sky	-10.799
▁Inhaber	-10.7991
▁Sat	-10.7991
West	-10.7992
thal	-10.7993
wein	-10.7994
▁Schnitt	-10.7995
werfen	-10.7996
▁gesprochen	-10.7999
▁ausgesetzt	-10.8
▁Landtag	-10.8001
▁Company	-10.8001
▁Tee	-10.8002
Und	-10.8003
field	-10.8004
▁BSG	-10.8006
dos	-10.8007
▁gezahlt	-10.8012
lehrer	-10.8014
▁stattfinden	-10.8019
▁Rechtsmittel	-10.8021
PC	-10.8024
▁Dan	-10.8024
ssel	-10.8026
ationen	-10.8027
▁hell	-10.8027
▁Besetzung	-10.8033
▁aktuell	-10.8034
▁Erstellung	-10.8035
▁zweiter	-10.8036
▁beobachtet	-10.8039
eller	-10.8039
▁stellvertretend	-10.8041
▁existieren	-10.8042
sau	-10.8044
▁800	-10.8045
▁Fund	-10.8047
▁erkannt	-10.8047
can	-10.8049
weiss	-10.805
▁Sound	-10.8051
▁offenbar	-10.8051
▁italienische	-10.8052
▁Kino	-10.8056
▁Anzeigen	-10.8057
▁festen	-10.8058
▁Ausstellungen	-10.806
ord	-10.8061
verkauf	-10.8061
qu	-10.8064
▁festgesetzt	-10.8064
tiv	-10.8068
▁richtigen	-10.8069
▁endet	-10.8072
▁registriert	-10.8072
sgesetz	-10.8073
▁versch	-10.8077
zustand	-10.8079
▁Schuld	-10.808
▁erreichbar	-10.8081
SP	-10.8082
schluss	-10.8091
▁Down	-10.81
▁verfassungs	-10.8102
iker	-10.8103
laufen	-10.8104
▁Fremd	-10.8105
▁Nahrungsmittel	-10.8106
▁Hy	-10.8106
▁Dor	-10.8107
bund	-10.811
non	-10.811
▁Angeklagten	-10.811
▁Label	-10.8111
▁traf	-10.8111
chte	-10.8113
▁Religion	-10.8114
lung	-10.8114
▁massgeblich	-10.8115
▁Set	-10.8115
▁Jack	-10.8116
▁unbekannt	-10.8116
▁Klicken	-10.8118
studium	-10.8121
▁Auskunft	-10.8122
▁Hände	-10.8123
▁Absicht	-10.8123
▁Signal	-10.8125
▁Oberflächen	-10.8126
▁Gau	-10.8126
profil	-10.8131
▁EP	-10.8132
▁Kit	-10.8133
ierenden	-10.8133
▁Weltbank	-10.8134
nacht	-10.8135
/4	-10.8135
▁handeln	-10.8136
cal	-10.8136
schreiben	-10.8138
NV	-10.8141
▁Investitions	-10.8143
Bau	-10.8145
▁Beispiele	-10.8147
ions	-10.8148
▁nachgewiesen	-10.815
▁Rudolf	-10.8152
▁Darlehen	-10.8153
▁ABI	-10.8153
geordnet	-10.8154
int	-10.8154
tis	-10.8154
kin	-10.8154
verbindung	-10.8155
▁66	-10.8159
▁Sendung	-10.816
▁Ir	-10.816
BS	-10.816
Jahre	-10.8161
▁Pra	-10.8163
▁aktiven	-10.8163
Süd	-10.8164
▁kulturelle	-10.8165
beratung	-10.8166
▁Arzneimittel	-10.8167
▁Verpflichtungen	-10.8169
▁unterhalb	-10.8171
▁schicken	-10.8172
▁östlichen	-10.8174
▁fordert	-10.8175
▁BIP	-10.8177
▁eingegangen	-10.8179
liches	-10.818
lach	-10.818
▁verwendeten	-10.8182
▁natur	-10.8183
▁Bou	-10.8184
▁nennen	-10.8185
▁Kontakte	-10.8185
▁Komponist	-10.8187
▁Serien	-10.8188
tat	-10.8189
▁Magazin	-10.8192
▁Versammlung	-10.8198
amp	-10.8199
▁Element	-10.8201
▁Grössen	-10.8203
▁Touristen	-10.8204
anti	-10.8208
▁Ferienhaus	-10.8212
▁Vorstellung	-10.8218
▁Bier	-10.822
▁blieben	-10.822
Con	-10.8222
geschrieben	-10.8224
▁Camping	-10.823
▁Netto	-10.8231
▁Fin	-10.8231
▁Quer	-10.8232
▁Anhörung	-10.8232
▁niedriger	-10.8233
ED	-10.8235
▁Blätter	-10.8235
▁Microsoft	-10.8236
ith	-10.8239
▁guter	-10.824
rent	-10.8241
▁Extension	-10.8247
▁Kenntnisse	-10.8248
ew	-10.8248
▁Check	-10.8252
▁Reg	-10.8253
platte	-10.8253
ks	-10.8255
▁Gefängnis	-10.8256
▁Han	-10.8259
tem	-10.826
▁Angabe	-10.8263
mü	-10.8264
hy	-10.8264
▁Nordrhein	-10.8266
1996	-10.8266
organisationen	-10.8268
▁Männern	-10.8269
gau	-10.827
▁FR	-10.8271
abend	-10.8271
▁Pen	-10.8272
▁Bekämpfung	-10.8274
▁Tennis	-10.8276
▁glaube	-10.8278
▁Tausende	-10.828
▁Route	-10.828
▁direkte	-10.8282
▁Ärzte	-10.8283
▁Brandenburg	-10.8284
▁Can	-10.8284
OR	-10.8287
▁Social	-10.8287
swert	-10.8289
▁WM	-10.829
▁Risiken	-10.8291
▁Bäume	-10.8292
▁Tickets	-10.8292
Bar	-10.8294
behandlung	-10.8296
▁Angeles	-10.8298
regelung	-10.8299
▁Fortschritt	-10.8299
▁Sei	-10.83
sand	-10.8303
▁KMU	-10.8305
▁Justiz	-10.8306
▁Branchen	-10.8307
tha	-10.8307
▁wollten	-10.831
öll	-10.8313
▁angeblich	-10.8317
▁zufolge	-10.8319
nik	-10.8319
weit	-10.8319
▁Altstadt	-10.8319
▁berechtigt	-10.8322
▁gegebenenfalls	-10.8322
▁anlässlich	-10.8325
▁schwach	-10.8326
holen	-10.8326
▁Jerusalem	-10.833
zel	-10.8331
my	-10.8337
ics	-10.834
▁geliefert	-10.8342
▁angebracht	-10.8343
▁1924	-10.8345
▁eventuell	-10.8346
beginn	-10.8347
▁Dass	-10.8348
▁aufmerksam	-10.8349
▁abgegeben	-10.8353
oth	-10.8354
▁Fortschritte	-10.8354
▁Infos	-10.8354
▁62	-10.8355
▁speichern	-10.8356
gestaltung	-10.8357
leit	-10.8357
▁Bed	-10.8358
▁individuelle	-10.8359
▁Hessen	-10.836
hotel	-10.836
gio	-10.8363
ographie	-10.8364
Sachverständigen	-10.8368
▁ausgewiesen	-10.8368
▁88	-10.837
▁Bohr	-10.8371
▁erfolgreiche	-10.8372
▁Sänger	-10.8375
meter	-10.8376
†	-10.8377
bezogene	-10.8377
schlüsse	-10.8379
roll	-10.838
▁Gebet	-10.838
▁Wahlen	-10.8384
▁Christen	-10.8386
▁Frucht	-10.8387
▁Mut	-10.8389
▁Getränke	-10.839
por	-10.8394
▁Sha	-10.8395
▁Bemühungen	-10.8396
▁Luc	-10.8398
back	-10.8399
tiere	-10.8399
▁Weltkriegs	-10.8402
▁Antragsgegner	-10.8402
▁FG	-10.8404
▁herum	-10.8409
behörde	-10.8409
▁denken	-10.8411
▁geringen	-10.8412
▁Regierungen	-10.8413
▁Museums	-10.8415
dro	-10.8415
sec	-10.8419
air	-10.8422
▁Ingenieur	-10.8422
▁läuft	-10.8423
▁Epi	-10.8424
▁nachhaltige	-10.8424
zustellen	-10.8425
Shop	-10.8429
▁Vorbringen	-10.843
LE	-10.8431
▁teilnehmen	-10.8432
▁erbracht	-10.8432
aff	-10.8433
med	-10.8434
▁Führer	-10.8435
▁Empfehlungen	-10.8435
▁Anders	-10.8435
▁Fan	-10.8436
ehn	-10.8438
wal	-10.8438
▁Bö	-10.8438
geb	-10.8439
gh	-10.8439
▁genaue	-10.844
▁Gegenwart	-10.844
▁Stoffe	-10.8447
▁Beigeladenen	-10.8447
branche	-10.8451
▁Tabellen	-10.8453
lesen	-10.8459
▁1925	-10.8462
▁Freiburg	-10.8465
behörden	-10.8466
▁laufenden	-10.8467
ement	-10.8468
▁Vermögens	-10.8469
dien	-10.8472
▁Gemeinsamen	-10.8474
bücher	-10.8475
Ch	-10.8477
▁Weihnachts	-10.8478
▁Auge	-10.8479
person	-10.8479
widrig	-10.8483
▁Christi	-10.8484
▁DIE	-10.8484
▁Kiel	-10.8487
smittel	-10.8487
▁86	-10.8487
ble	-10.8488
▁Empfehlung	-10.8488
▁aktive	-10.8488
▁Springe	-10.8488
rik	-10.8492
▁Grundsätze	-10.8492
▁begrüsst	-10.8492
▁1927	-10.8493
▁traditionelle	-10.8495
beck	-10.8496
register	-10.8496
▁Empfänger	-10.8497
▁besass	-10.8497
▁Textil	-10.8497
blätter	-10.8497
▁Räume	-10.8498
▁Haben	-10.8499
ath	-10.85
▁Salzburg	-10.8501
▁Stoff	-10.8503
▁Abenteuer	-10.8506
intern	-10.8508
kasse	-10.8511
Haus	-10.8511
▁Möbel	-10.8512
spannung	-10.8514
sieg	-10.8516
▁Montage	-10.8521
landschaft	-10.8523
▁Mainz	-10.8526
rate	-10.8528
▁Fri	-10.853
▁Freunden	-10.853
oberfläche	-10.8532
▁Dritte	-10.8533
üss	-10.8538
▁Reparatur	-10.8539
▁Übernachtung	-10.8542
cu	-10.8542
▁schlug	-10.8543
▁Plätze	-10.8544
ucht	-10.8546
▁Grossteil	-10.8553
hlen	-10.8553
▁84	-10.8554
graben	-10.8555
bibliothek	-10.8557
▁offizielle	-10.8561
▁Klaus	-10.8562
▁Extra	-10.8563
änderung	-10.8564
▁Jugendlichen	-10.8567
Version	-10.8569
▁Stefan	-10.8572
▁eure	-10.8572
▁Dampf	-10.8574
▁längst	-10.8574
▁Wird	-10.8574
archiv	-10.8575
▁auftreten	-10.8581
opfer	-10.8582
▁gerecht	-10.8583
▁Qua	-10.8583
▁Verteidigung	-10.8583
▁58	-10.8584
▁Mauer	-10.8589
▁schriftlich	-10.8592
kommission	-10.8594
▁planen	-10.8594
angebote	-10.8596
stätten	-10.8596
stock	-10.8598
llen	-10.8601
schulen	-10.8603
▁Hard	-10.8604
▁neuesten	-10.8604
familie	-10.8604
förmig	-10.8606
▁Apartments	-10.8608
▁schreibt	-10.861
ato	-10.861
gre	-10.8611
▁Dir	-10.8612
act	-10.8613
▁Effizienz	-10.8613
Technologie	-10.8616
▁Orten	-10.8618
▁Deine	-10.8618
▁Einhaltung	-10.8623
▁76	-10.8625
bie	-10.8626
▁Mittelpunkt	-10.863
▁Mobilität	-10.8632
cr	-10.8632
▁Forderungen	-10.8633
▁Gefahren	-10.8634
▁hochwertige	-10.8634
▁Athen	-10.8634
▁Jede	-10.8635
▁selber	-10.864
NE	-10.8642
▁Belastung	-10.8642
▁Ac	-10.8642
▁Anbau	-10.8642
▁verlegt	-10.8644
▁Mas	-10.8645
ı	-10.8646
▁Kirch	-10.8647
▁Qualifikation	-10.865
eng	-10.8653
▁Lin	-10.8654
▁May	-10.8654
▁vorübergehend	-10.8655
▁unge	-10.8655
CD	-10.8655
kunden	-10.8655
litz	-10.8656
▁menschliche	-10.8659
sicher	-10.866
▁unbedingt	-10.866
To	-10.8661
regeln	-10.8663
region	-10.8666
wertung	-10.8667
▁Nürnberg	-10.8671
▁Fokus	-10.8673
1997	-10.8674
▁gelb	-10.8675
▁gehabt	-10.8675
▁mittlere	-10.8676
▁Laser	-10.8677
onne	-10.8677
▁SC	-10.8677
▁Miss	-10.8678
▁Figuren	-10.8681
▁Stich	-10.8682
▁internationaler	-10.8682
▁erleben	-10.8682
▁Budapest	-10.8683
gabe	-10.8683
geist	-10.8684
▁sucht	-10.8685
▁Fla	-10.8686
▁entschied	-10.8686
▁vergleichen	-10.8686
▁wenden	-10.8687
▁Bestand	-10.8687
sverfahrens	-10.8691
▁Vertrages	-10.8695
ffer	-10.8697
▁spät	-10.8699
zum	-10.87
zweig	-10.8704
▁geringe	-10.8706
▁Grafik	-10.8706
Mö	-10.8707
▁King	-10.8708
ú	-10.8708
▁liegenden	-10.8708
▁Italienisch	-10.871
▁verarbeitet	-10.8711
▁Hohen	-10.8713
▁südöstlich	-10.8713
▁Geburtstag	-10.8713
best	-10.8715
▁Ausrichtung	-10.8716
▁schnelle	-10.8716
▁Parallel	-10.8718
▁Fonds	-10.8719
▁rechtlichen	-10.8721
▁Gymnasium	-10.8722
▁geschätzt	-10.8724
▁Stufe	-10.8724
PO	-10.8725
▁sichern	-10.8725
▁weisen	-10.8726
▁gleichnamigen	-10.8728
weiter	-10.8728
▁Flucht	-10.873
▁schwere	-10.8734
gung	-10.8735
norm	-10.8741
▁einfacher	-10.8742
▁Vollstreckung	-10.8743
▁Vorbild	-10.8744
▁Vertrieb	-10.8746
iten	-10.8747
▁mehrerer	-10.8747
spekt	-10.8748
▁südwestlich	-10.8748
▁Therapie	-10.8748
▁direkten	-10.8752
weisen	-10.8753
▁Keller	-10.8755
verlust	-10.8755
▁verbinden	-10.8756
▁78	-10.8762
gesetzt	-10.8763
frist	-10.8763
sc	-10.8769
▁Tauch	-10.8769
▁römisch	-10.8772
▁Vertretung	-10.8777
gerichts	-10.8777
basis	-10.8777
unk	-10.8781
halter	-10.8787
▁Ros	-10.8787
spiegel	-10.8787
dr	-10.8787
start	-10.8792
▁Hunde	-10.8799
▁Probe	-10.88
▁gesichert	-10.8802
▁Schreib	-10.8804
▁weissen	-10.8805
▁57	-10.8805
▁polnischen	-10.8805
▁Traum	-10.8807
▁Aussagen	-10.8809
lösung	-10.8812
▁Atom	-10.8814
▁AGB	-10.8818
▁Venedig	-10.8819
dern	-10.8819
tzen	-10.8819
▁starten	-10.8819
arzt	-10.8819
agen	-10.882
kn	-10.8822
wachstum	-10.8822
▁Rheinland	-10.8822
▁deiner	-10.8824
prä	-10.8826
pul	-10.8827
Ri	-10.883
NS	-10.8832
hafte	-10.8832
▁Ernährung	-10.8834
tas	-10.8834
▁Gesellschafter	-10.8835
ausgleich	-10.8836
National	-10.8836
CI	-10.8837
eisen	-10.8837
▁Zuschauer	-10.8838
▁Figur	-10.8839
▁Safe	-10.8839
col	-10.884
▁Parameter	-10.8841
klär	-10.8842
▁erzielen	-10.8843
▁nannte	-10.8845
tte	-10.8845
▁endgültig	-10.8846
▁Beitritt	-10.8847
▁Vision	-10.885
▁geboten	-10.8852
▁Roll	-10.8852
▁185	-10.8852
▁Bedienung	-10.8856
Europa	-10.8857
tech	-10.8858
▁zieht	-10.8862
▁Summe	-10.8868
▁1910	-10.8869
▁Ferienwohnung	-10.8869
nder	-10.8872
▁Heidelberg	-10.8873
▁letzter	-10.8876
press	-10.8877
besuch	-10.8878
speicher	-10.8878
Ne	-10.8879
ane	-10.888
▁enger	-10.8881
▁Berater	-10.8881
ward	-10.8881
▁Erkenntnisse	-10.8883
▁aufge	-10.8884
▁Mur	-10.8888
▁Eingriff	-10.8888
Schlussfolgerung	-10.8888
▁Festung	-10.8888
▁breiten	-10.8891
▁Erzbischof	-10.8897
anzeige	-10.8897
kunde	-10.8899
▁Va	-10.89
▁73	-10.8901
genommen	-10.8902
▁verstanden	-10.8902
▁wirken	-10.8903
Zimmer	-10.8904
Funktion	-10.8908
▁gefallen	-10.8909
studien	-10.8914
bezeichnung	-10.8917
bescheid	-10.8917
▁Kann	-10.8917
▁Stärke	-10.8918
▁Lake	-10.892
rolle	-10.892
▁unbegründet	-10.892
▁bedeutende	-10.8922
▁zurückgewiesen	-10.8923
lement	-10.8924
▁Anwesen	-10.8925
▁Vol	-10.8925
vermögen	-10.8927
▁Hals	-10.8928
freiheit	-10.8931
▁Schalt	-10.8935
via	-10.8936
ali	-10.8938
▁Optionen	-10.8939
stift	-10.8941
▁On	-10.8942
CS	-10.8946
▁Stau	-10.8947
▁Login	-10.895
jan	-10.895
büro	-10.895
▁Distrikt	-10.8951
▁Minute	-10.8951
direktor	-10.8951
yn	-10.8953
▁Pfarrer	-10.8955
linge	-10.8956
▁betont	-10.8956
icht	-10.8959
▁Las	-10.896
qua	-10.8963
würdig	-10.8964
▁Schiffs	-10.8965
▁befasst	-10.8966
▁Unterricht	-10.8966
▁umbenannt	-10.8966
FG	-10.897
fähig	-10.8971
▁nordwestlich	-10.8972
▁Präsentation	-10.8973
nt	-10.8974
▁Eurostat	-10.8975
▁Sind	-10.8975
▁mögen	-10.8977
▁vorliegend	-10.8978
▁Jedoch	-10.8979
▁Mitteln	-10.8979
Mehr	-10.8979
▁Camp	-10.8986
▁Dra	-10.8987
gesetzes	-10.8988
▁Pr	-10.8989
▁1931	-10.899
▁Kräfte	-10.8993
▁Autos	-10.8996
▁Verhältnisse	-10.8996
▁Allein	-10.8998
link	-10.8998
_1	-10.8999
▁Natürlich	-10.8999
ergebnis	-10.9
▁Standards	-10.9001
gründen	-10.9002
▁Bühne	-10.9002
▁Satzung	-10.9002
▁68	-10.901
Film	-10.9011
▁Audi	-10.9013
fertig	-10.9013
▁Glaubens	-10.9014
mobil	-10.9014
▁Plus	-10.9014
leid	-10.9017
▁BStBl	-10.902
▁durchzuführen	-10.9022
▁Bundesliga	-10.9023
▁87	-10.9023
ierende	-10.9026
▁NJW	-10.9028
▁Grill	-10.9033
mos	-10.9033
▁Lieb	-10.9033
▁Diplom	-10.9035
saal	-10.9035
▁nationaler	-10.9036
lohn	-10.9038
▁04	-10.9039
▁Bauernhof	-10.904
rau	-10.904
▁Verträge	-10.9044
lect	-10.9044
▁generell	-10.9047
▁Sar	-10.9047
billig	-10.9049
▁Persönlichkeit	-10.9049
▁berühmten	-10.9052
▁gelegentlich	-10.9055
▁Neuen	-10.9056
▁Kundenservice	-10.9058
nur	-10.9059
▁Lau	-10.906
Berufungsgericht	-10.9061
▁Früchte	-10.9061
▁Sieger	-10.9062
▁Laufbahn	-10.9063
ves	-10.9066
▁japanischen	-10.9068
schuld	-10.9073
felder	-10.9074
▁Überzeugung	-10.9075
Ober	-10.9075
▁¡	-10.9076
▁1926	-10.9077
▁korrekt	-10.9078
▁lautet	-10.9078
UR	-10.9079
▁61	-10.908
EA	-10.9081
rischen	-10.9085
▁Betroffenen	-10.9085
▁Geschäfte	-10.9086
▁Bewerbung	-10.9087
▁Rechtssache	-10.9088
▁ideale	-10.9089
▁Reserve	-10.9091
1995	-10.9091
▁Hamburger	-10.9092
NO	-10.9092
miss	-10.9094
kol	-10.9094
▁Gran	-10.9094
richt	-10.9094
legt	-10.9098
▁heiligen	-10.9098
▁zwingend	-10.91
▁Avis	-10.9101
fuhr	-10.9103
gold	-10.9105
▁Aufklärung	-10.9105
▁Donau	-10.9106
300	-10.9106
▁hundert	-10.9109
▁öffnet	-10.911
iden	-10.911
gelassen	-10.9112
isation	-10.9115
▁entnehmen	-10.9115
portal	-10.9115
auto	-10.9117
Kommission	-10.9117
güter	-10.9118
oxid	-10.9119
▁endlich	-10.9122
▁Wochenende	-10.9123
NL	-10.9126
cio	-10.9126
▁wechseln	-10.9127
Alt	-10.9129
▁Vielmehr	-10.9132
sha	-10.9133
▁Jedes	-10.9143
▁zitiert	-10.9145
▁Fürsten	-10.9147
sol	-10.9148
denkmal	-10.9148
▁Arbeitskräfte	-10.9149
yer	-10.9154
▁übersetzt	-10.9158
▁bestätigen	-10.9159
▁Ya	-10.916
▁umfassen	-10.916
lösungen	-10.9161
▁spezifische	-10.9163
▁dauert	-10.9163
▁drucken	-10.9163
▁Realität	-10.9165
SV	-10.9166
▁Grunde	-10.9167
SG	-10.9168
fel	-10.9168
anischen	-10.9169
▁individuellen	-10.9171
▁Erscheinung	-10.9175
▁besetzt	-10.9176
hauses	-10.9179
▁Reservierung	-10.9182
No	-10.9184
▁Human	-10.9185
▁Log	-10.9186
wahr	-10.9187
IA	-10.9189
▁römischen	-10.919
▁1921	-10.919
▁59	-10.919
tätig	-10.9191
▁Global	-10.9192
▁Abkommens	-10.9193
▁fliesst	-10.9194
▁Bot	-10.9198
▁nordöstlich	-10.9199
▁Paket	-10.92
▁Sim	-10.9204
▁Training	-10.9211
▁1922	-10.9212
▁Bildschirm	-10.9214
▁gekauft	-10.9214
▁vertrat	-10.9217
KA	-10.922
▁kontrolliert	-10.9223
zugehen	-10.9223
▁ausgebildet	-10.9223
Band	-10.9226
▁Abitur	-10.9228
nahm	-10.9228
▁Befreiung	-10.923
▁1923	-10.923
▁seitdem	-10.9235
▁Diesen	-10.9237
▁innovative	-10.9238
Staaten	-10.9239
Hotel	-10.924
▁Koordinierung	-10.9244
▁behandeln	-10.9248
▁vermittelt	-10.925
▁sicherzustellen	-10.925
▁97	-10.9254
▁vorliegen	-10.9254
▁genügt	-10.9255
Klasse	-10.9256
▁Aufenthalts	-10.9259
hon	-10.9259
▁realisiert	-10.9261
verteilung	-10.9262
Eine	-10.9263
▁02	-10.9263
▁Kunde	-10.9263
wissenschaftler	-10.9264
▁versetzt	-10.9264
▁Zer	-10.9267
fonds	-10.9267
elemente	-10.9269
▁Leib	-10.927
Berlin	-10.9275
quellen	-10.9278
▁verzeichnet	-10.9284
▁Bell	-10.9284
▁Bill	-10.9285
▁nominiert	-10.9286
rass	-10.9291
▁Kanal	-10.9294
rü	-10.9297
schwer	-10.9298
rats	-10.9299
▁Vorgaben	-10.9301
▁Hal	-10.9302
▁beziehungsweise	-10.9302
▁Anträge	-10.9304
mund	-10.9306
▁Wunder	-10.9306
isse	-10.9309
▁Bade	-10.9309
adi	-10.931
messung	-10.9312
more	-10.9318
PL	-10.932
▁Betreiber	-10.9323
schuss	-10.9323
▁beruhen	-10.9325
MP	-10.9327
kräfte	-10.9328
▁vieler	-10.9328
zeichnung	-10.933
▁medizinische	-10.933
Ba	-10.9333
ausgaben	-10.9336
▁Hä	-10.9337
▁Reinigung	-10.9338
nu	-10.9339
zin	-10.934
sinn	-10.9344
tom	-10.9346
▁Verband	-10.9348
▁Satelliten	-10.9348
▁SA	-10.9351
▁Gemeinsam	-10.9351
▁diskutiert	-10.9352
▁übermittelt	-10.9353
▁Gerichte	-10.9357
▁Gl	-10.936
▁Vermögen	-10.936
▁Amateur	-10.9361
▁sicheren	-10.9361
fällen	-10.9363
▁fördert	-10.9364
küste	-10.9368
tive	-10.9368
▁Bulgarien	-10.9368
▁Christoph	-10.9369
▁Pläne	-10.937
▁Photo	-10.9371
AF	-10.9371
mas	-10.9373
▁Panzer	-10.9378
▁anzuwenden	-10.9379
▁Graz	-10.9379
▁Feuchtigkeit	-10.9382
▁unver	-10.9383
vergleich	-10.9384
▁Ly	-10.9385
▁Registrierung	-10.9386
til	-10.9389
▁Karlsruhe	-10.9391
▁erfolgreichen	-10.9391
▁bauen	-10.9393
schläge	-10.9396
TR	-10.9396
▁Life	-10.9399
▁Durchschnitts	-10.9399
▁Krise	-10.9409
▁bedarf	-10.941
▁beteiligten	-10.9411
PT	-10.9413
▁gegründeten	-10.9415
wirken	-10.9419
Ca	-10.942
saison	-10.942
tain	-10.9423
▁dauerhaft	-10.9424
▁verlangen	-10.9428
Wert	-10.9429
▁spezialisiert	-10.9431
▁Millimeter	-10.9432
▁Leser	-10.9433
DC	-10.9434
sweise	-10.9434
▁eingeschränkt	-10.9441
▁Freien	-10.9445
vorschriften	-10.9445
svertrag	-10.9445
lis	-10.9447
gger	-10.9449
wen	-10.945
▁Bundesstaat	-10.9451
▁elektrische	-10.9452
ufer	-10.9456
Stell	-10.9458
▁Wandel	-10.9458
▁Nor	-10.9458
gekommen	-10.946
▁Beton	-10.9462
ž	-10.9463
lebens	-10.9464
▁Agentur	-10.9464
▁Auftrags	-10.9465
▁fühlen	-10.9466
▁gestützt	-10.9466
▁Denkmal	-10.9468
medizin	-10.947
alt	-10.947
kus	-10.947
OC	-10.947
ital	-10.9474
▁Horn	-10.9474
▁Alfred	-10.9474
▁abschliessend	-10.9474
▁interessante	-10.9481
▁Kühl	-10.9483
▁ISBN	-10.9483
▁×	-10.9483
▁Volumen	-10.9485
▁Versandkosten	-10.9486
trat	-10.9494
▁Bewerber	-10.9496
LI	-10.9496
▁zurückzuführen	-10.9497
▁Cho	-10.9497
auftrag	-10.9497
aria	-10.9499
▁Bü	-10.9504
▁Lieferzeit	-10.9506
▁140	-10.9509
Fa	-10.9512
▁Aufnahmen	-10.9513
▁RdNr	-10.9513
▁inhaltlich	-10.9515
▁Records	-10.9516
Artikel	-10.9518
streit	-10.952
▁Rio	-10.9525
▁Vermittlung	-10.9526
▁Index	-10.9528
praxis	-10.9528
▁Solo	-10.9528
iti	-10.953
▁Fritz	-10.953
▁absolut	-10.953
GE	-10.953
▁reichen	-10.9534
▁gelegene	-10.9535
▁vorbereitet	-10.9535
▁nennt	-10.9535
▁Jugendliche	-10.9536
▁nebst	-10.9537
▁ausgestellt	-10.9537
▁Erfolge	-10.9538
▁Costa	-10.9538
▁gestattet	-10.9538
chef	-10.9538
nig	-10.9538
▁keinerlei	-10.9539
▁Schriftsatz	-10.9539
tour	-10.954
▁digitale	-10.9541
▁Kostenlose	-10.9542
▁69	-10.9542
▁KG	-10.9543
▁67	-10.9543
▁Schild	-10.9544
▁katholischen	-10.9544
▁Pal	-10.9546
SS	-10.9549
TO	-10.9552
▁Arbeitsplätze	-10.9552
stabil	-10.9557
programme	-10.9557
▁empfangen	-10.9558
▁Science	-10.956
▁White	-10.9561
front	-10.9563
▁gelangt	-10.9565
▁Alters	-10.9566
▁Umweltschutz	-10.9568
▁beobachten	-10.9573
▁angegebenen	-10.9575
platten	-10.9577
▁Geistes	-10.9581
▁DES	-10.9581
▁praktische	-10.9581
IF	-10.9581
▁leitet	-10.9581
▁bewerten	-10.9582
▁Sonstige	-10.9582
▁Abbau	-10.9582
regierung	-10.9583
▁Eck	-10.9584
▁Dublin	-10.9584
massen	-10.9585
▁Ven	-10.9585
awa	-10.9592
▁befördert	-10.9595
Fr	-10.9598
▁ursprüngliche	-10.9599
▁Sur	-10.9599
etten	-10.96
lekt	-10.9602
▁SS	-10.9605
▁Hell	-10.9606
▁Statistiken	-10.9609
▁Schlag	-10.9612
king	-10.9612
Produkte	-10.9613
Ru	-10.9613
Stunden	-10.9614
▁anzusehen	-10.9616
▁Rückgang	-10.9616
erklärung	-10.9617
▁82	-10.9621
▁Sir	-10.9624
▁Forst	-10.9624
▁Big	-10.9627
▁Av	-10.9627
▁Einkaufs	-10.9628
▁Griff	-10.9631
fremd	-10.9634
▁Zentimeter	-10.9635
▁bearbeiten	-10.9636
▁ausgewählten	-10.964
tta	-10.9642
▁Bekannt	-10.9644
▁Bevölkerungs	-10.9649
dach	-10.9649
▁Erdgeschoss	-10.965
uelle	-10.965
Car	-10.9652
sum	-10.9653
▁betrachten	-10.9655
▁globalen	-10.9656
personal	-10.9656
▁Wahlkreis	-10.9658
▁ausgebaut	-10.9662
▁Werken	-10.9663
▁FA	-10.9667
▁Sterne	-10.9669
▁Lei	-10.9671
▁Logistik	-10.9672
▁Somit	-10.9673
abschluss	-10.9673
▁And	-10.9673
▁Antragstellers	-10.9674
▁qualitativ	-10.9674
▁unterzeichnet	-10.9675
▁Mathematik	-10.9675
▁Vereinbarungen	-10.9675
▁reine	-10.9676
rk	-10.9677
▁Hund	-10.9678
▁One	-10.9678
metall	-10.9678
▁Wander	-10.9679
▁Alles	-10.9679
IR	-10.9679
▁+49	-10.9679
therapie	-10.9683
▁wirtschaftlich	-10.9683
▁Bon	-10.9683
▁Klang	-10.9684
anspruch	-10.9685
get	-10.9686
▁leider	-10.9688
▁Ortes	-10.9689
institution	-10.9692
▁Wirksamkeit	-10.9692
lein	-10.9694
inhaber	-10.9695
stehende	-10.9697
▁1912	-10.9697
▁Aktiv	-10.9697
▁gerichtet	-10.9697
▁Beendigung	-10.9698
▁Blei	-10.9699
steuerung	-10.97
▁Bahnstrecke	-10.97
▁schlecht	-10.9701
▁Effekt	-10.9701
▁gemessen	-10.9702
nom	-10.9702
▁96	-10.9703
▁dortigen	-10.9706
ole	-10.9708
▁Buchst	-10.9708
det	-10.9708
▁Initiativen	-10.9709
▁Werner	-10.971
mauer	-10.971
Unternehmen	-10.9712
Holstein	-10.9716
400	-10.9719
uhr	-10.972
▁Staub	-10.972
▁Einer	-10.9721
▁Schleswig	-10.9722
▁veranstaltet	-10.9724
▁Mischung	-10.9724
▁späten	-10.9724
richten	-10.9725
geboren	-10.9725
▁Ach	-10.9726
▁Trend	-10.9726
MT	-10.9727
▁Bibel	-10.9727
abel	-10.9728
▁geschehen	-10.9732
▁seitens	-10.9733
phi	-10.9734
volle	-10.9735
1990	-10.9735
▁Verstoss	-10.9735
▁Performance	-10.9736
hart	-10.9738
leute	-10.974
ě	-10.9742
▁sog	-10.9745
▁Wirklichkeit	-10.9748
Ho	-10.9748
eder	-10.975
▁Sender	-10.975
Bi	-10.9752
▁Einklang	-10.9752
▁gewidmet	-10.9753
▁Gouverneur	-10.9755
▁Ross	-10.9756
▁Theologie	-10.9758
▁geplanten	-10.976
▁05	-10.9761
einrichtung	-10.9763
▁feststellen	-10.9764
▁Farm	-10.9764
▁Fussballspieler	-10.9765
kle	-10.9769
wiesen	-10.977
▁Yu	-10.9771
bol	-10.9772
▁Vereinten	-10.9773
▁Designer	-10.9773
▁BE	-10.9774
▁Kn	-10.9775
▁Tode	-10.9777
▁forderte	-10.9778
▁getötet	-10.9779
▁beraten	-10.978
freien	-10.978
folgen	-10.9782
polizei	-10.9783
srechts	-10.9787
sgebiet	-10.9787
▁Konsum	-10.9787
▁1913	-10.9789
▁Sanierung	-10.979
▁bist	-10.979
gefahren	-10.9792
Liber	-10.9794
TEN	-10.9794
▁erlauben	-10.9794
tarif	-10.9797
▁bezeichnete	-10.9797
▁besonderer	-10.98
▁Beach	-10.9801
gie	-10.9804
▁Toten	-10.9805
▁Ebenfalls	-10.9805
Sieg	-10.9807
▁VIII	-10.9807
▁erforderliche	-10.9808
▁Valencia	-10.9809
▁Wahrnehmung	-10.9811
▁Einen	-10.9812
steuern	-10.9813
▁Schauspielerin	-10.9813
▁Varianten	-10.9814
▁konkret	-10.9815
tus	-10.9817
▁Trennung	-10.9819
▁Kalifornien	-10.982
▁Elisabeth	-10.982
▁erzeugen	-10.9824
▁wusste	-10.9828
▁Chicago	-10.9831
siedlung	-10.9831
▁Mord	-10.9832
regen	-10.9834
feuer	-10.9837
papier	-10.9839
ase	-10.984
schlüssel	-10.9841
▁französischer	-10.9842
gna	-10.9842
▁Aachen	-10.9843
viertel	-10.9844
▁Öffnung	-10.9845
▁Ursache	-10.9845
▁Marie	-10.9847
TER	-10.9847
▁Brust	-10.9848
▁Physik	-10.9851
▁Promotion	-10.9851
▁Keramik	-10.9852
logisch	-10.9853
schä	-10.9853
ago	-10.9855
tten	-10.9858
erhebung	-10.9859
pal	-10.9859
pper	-10.9862
▁schuf	-10.9862
EP	-10.9862
kehr	-10.9862
▁Interview	-10.9864
▁Events	-10.9865
waltungsgericht	-10.9865
▁Wil	-10.9865
▁Vel	-10.9866
▁Dich	-10.9867
▁leichter	-10.987
▁Inc	-10.987
▁Pf	-10.9874
▁Aktivität	-10.9874
▁Sachverhalt	-10.9876
▁Stimmung	-10.9877
▁Weltkrieges	-10.9878
sgrundlage	-10.9878
▁Tunnel	-10.9878
ausschuss	-10.988
hir	-10.988
▁Dol	-10.9881
▁Favoriten	-10.9882
taucht	-10.9883
▁solches	-10.9885
▁Universitäts	-10.9888
gne	-10.9888
▁verfolgen	-10.9888
hoff	-10.9888
▁bezahlt	-10.9889
▁Szene	-10.989
▁zufrieden	-10.9893
VA	-10.9894
▁Frequenz	-10.9896
▁hiess	-10.9898
hafen	-10.9899
issen	-10.9899
▁verwiesen	-10.99
▁warten	-10.9904
ries	-10.9908
▁Ablehnung	-10.9908
▁Bestimmungsort	-10.9909
▁Palm	-10.9912
▁Edition	-10.9912
HA	-10.9913
anc	-10.9913
mächtig	-10.9915
yo	-10.9916
aufnahme	-10.9916
kos	-10.9916
▁Erhalt	-10.9917
▁eingebaut	-10.9917
▁gewissen	-10.9917
oire	-10.9919
board	-10.992
▁schied	-10.9922
AV	-10.9922
▁KOM	-10.9922
Kontakt	-10.9923
▁Instanz	-10.9923
enstein	-10.9924
▁Stabilität	-10.9926
AB	-10.9929
▁Via	-10.993
▁ersetzen	-10.9931
▁Besondere	-10.9932
▁Rod	-10.9936
▁Ausländer	-10.9936
▁gesetzlich	-10.9937
losigkeit	-10.9937
gelegt	-10.9939
lands	-10.994
▁kleines	-10.9943
star	-10.9947
oy	-10.9947
▁sammeln	-10.995
▁Solche	-10.9951
bre	-10.9956
listen	-10.9956
becken	-10.9956
▁Bereitstellung	-10.9957
dische	-10.9957
▁Waschmaschine	-10.9958
ais	-10.9959
▁dringend	-10.9961
enbach	-10.9962
szeitraum	-10.9962
konto	-10.9965
Geb	-10.9965
▁Stab	-10.9966
▁kleineren	-10.9967
stücke	-10.9968
▁Grundstücks	-10.997
Ad	-10.9971
▁Mikrowelle	-10.9971
▁Erzeugung	-10.9972
▁Rz	-10.9972
ila	-10.9973
▁Os	-10.9975
▁eigenständige	-10.9978
▁Besatzung	-10.9982
▁Finden	-10.9987
▁gewöhnlich	-10.9988
▁Ursachen	-10.9989
▁1917	-10.9991
▁Fehl	-10.9991
▁geleitet	-10.9991
▁Inhaltsstoffe	-10.9994
bereiche	-10.9995
▁Massgabe	-10.9999
▁vollkommen	-11
▁spätestens	-11.0002
pin	-11.0002
▁schönsten	-11.0004
▁Brot	-11.0005
geschlagen	-11.0006
▁Fast	-11.0007
haushalt	-11.0008
dler	-11.0011
▁Songs	-11.0011
brand	-11.0012
macher	-11.0013
▁Einstellungen	-11.0014
▁glaubt	-11.0016
▁Islam	-11.002
sgrad	-11.002
▁74	-11.0021
://	-11.0022
▁höchst	-11.0023
▁180	-11.0024
▁State	-11.0026
eil	-11.0028
▁Nachhaltigkeit	-11.0031
▁Operation	-11.0031
▁glücklich	-11.0033
Gesellschaft	-11.0035
▁Positionen	-11.0036
Si	-11.0036
▁Verbrauch	-11.0036
tau	-11.0037
▁Road	-11.0038
▁Vertriebs	-11.0042
▁SozR	-11.0042
▁verringert	-11.0044
modul	-11.0048
▁Zins	-11.0049
EIN	-11.005
▁Malerei	-11.0051
möglich	-11.0052
stufe	-11.0053
▁115	-11.0054
▁vorwiegend	-11.0054
seits	-11.0055
1992	-11.0055
▁SPD	-11.0055
▁Adolf	-11.0056
▁gearbeitet	-11.0058
▁einst	-11.0059
▁Hierbei	-11.006
▁spezifischen	-11.006
▁lieben	-11.0061
▁Mandat	-11.0062
bay	-11.0063
▁Kompetenz	-11.0065
Wer	-11.0065
ness	-11.0066
▁Ham	-11.0067
▁Problemen	-11.0072
▁Rose	-11.0072
▁Mol	-11.0072
handels	-11.0073
phase	-11.0075
▁Europcar	-11.0079
▁Einkommens	-11.0079
▁Leicht	-11.0079
kov	-11.0079
schutzgebiet	-11.008
▁gleicher	-11.008
▁Zusammensetzung	-11.0084
betriebe	-11.0086
▁Up	-11.0088
glo	-11.0089
aut	-11.0093
▁Ausgangspunkt	-11.0096
▁verbrachte	-11.01
ici	-11.0101
▁Golden	-11.0102
▁ältesten	-11.0102
▁Spring	-11.0102
▁Portal	-11.0103
▁keinem	-11.0105
▁derartige	-11.0106
▁Sh	-11.0106
volumen	-11.0112
▁Werkzeuge	-11.0112
▁Ordens	-11.0114
▁ISO	-11.0114
▁125	-11.0115
FI	-11.0116
AK	-11.0117
▁Event	-11.0118
sträger	-11.0118
▁desto	-11.0119
▁Mailand	-11.012
dri	-11.0122
standen	-11.0122
nutz	-11.0124
uell	-11.0125
uv	-11.0126
schied	-11.0127
▁Shi	-11.0129
Tag	-11.0131
kabel	-11.0132
▁Hinzu	-11.0133
▁Vorjahr	-11.0133
▁Kenn	-11.0136
▁77	-11.0137
▁France	-11.0139
▁Gor	-11.0141
▁Protest	-11.0144
▁Naturschutz	-11.0146
▁analysiert	-11.0146
▁Pla	-11.0148
▁́	-11.0148
Tech	-11.015
ül	-11.0151
OK	-11.0153
lett	-11.0153
gesteuert	-11.0153
▁europäischer	-11.0155
▁eröffnete	-11.0155
zell	-11.0156
▁plötzlich	-11.0157
▁Bass	-11.0159
▁verändern	-11.0159
rig	-11.0165
ore	-11.0165
▁identisch	-11.0166
max	-11.0166
▁Aussprache	-11.0166
ats	-11.0167
sson	-11.0171
iat	-11.0173
▁Suite	-11.0174
▁Cas	-11.0175
Per	-11.0177
▁Bri	-11.0178
▁unterstellt	-11.0179
▁Einträge	-11.0179
▁Niederlage	-11.0179
▁gefordert	-11.018
▁englische	-11.018
▁Konkurrenz	-11.0181
▁vereinbart	-11.0181
BGH	-11.0183
BL	-11.0184
▁erhöhte	-11.0189
beziehungen	-11.0189
▁Wachstums	-11.0189
▁Flachbild	-11.019
▁betreut	-11.0192
effizient	-11.0194
stag	-11.0195
▁Tiefe	-11.0195
BB	-11.0196
▁ausgelegt	-11.0196
▁Franc	-11.0197
orientierte	-11.0198
▁konzentriert	-11.0199
▁sichere	-11.0201
▁teils	-11.0201
Go	-11.0204
▁Scha	-11.0205
hat	-11.0205
▁untergebracht	-11.0206
rungen	-11.0208
▁Jesu	-11.0208
▁übernimmt	-11.0213
▁Marien	-11.0214
bot	-11.0216
▁anwendbar	-11.0218
SL	-11.0219
▁Beschlusses	-11.0221
▁optimale	-11.0222
▁Abgabe	-11.0226
denken	-11.0227
Wa	-11.0227
▁Sex	-11.0229
▁handelte	-11.0229
▁Programmen	-11.023
merk	-11.0234
▁positiven	-11.0234
▁Klinik	-11.0235
paket	-11.0237
▁ältere	-11.0239
▁Haartrockner	-11.0243
Daten	-11.0243
▁RE	-11.0243
▁Express	-11.0244
Gross	-11.0244
isierten	-11.0245
▁verfasste	-11.0245
Mi	-11.0249
▁Bildern	-11.0249
tragen	-11.0251
▁politisch	-11.0257
pflanzen	-11.0258
▁freundlich	-11.0258
▁durfte	-11.0262
▁eingelegt	-11.0264
▁Elektronik	-11.0264
änd	-11.0265
▁Verzeichnis	-11.0265
▁Ali	-11.0265
club	-11.0267
graph	-11.027
▁vollem	-11.027
▁fertig	-11.0271
▁Vorder	-11.0272
▁niemals	-11.0272
▁Gesellschaften	-11.0273
▁maximale	-11.028
▁Schaf	-11.028
▁Wissens	-11.028
▁geb	-11.0283
▁Sektion	-11.0284
gefühl	-11.0285
▁fertiggestellt	-11.0286
FS	-11.0287
▁Normal	-11.0287
▁Nachfolge	-11.0289
▁Zahlungen	-11.0289
▁Ideal	-11.029
▁bestritt	-11.029
▁East	-11.0292
▁ansehen	-11.0292
▁Benutzung	-11.0295
strassen	-11.0298
▁Aspekt	-11.0299
▁Kal	-11.03
asse	-11.0301
ets	-11.0302
pu	-11.0302
LO	-11.0302
sprung	-11.0305
SK	-11.0305
use	-11.0306
▁gegründete	-11.0308
▁HD	-11.0309
▁Urlaubs	-11.0312
tos	-11.0314
▁meint	-11.0315
▁optimal	-11.0322
▁gesetzliche	-11.0324
▁Konzentration	-11.0324
RP	-11.0325
▁Verpackung	-11.033
▁Oder	-11.033
▁profitieren	-11.033
▁Stücke	-11.0331
cz	-11.0331
herrschaft	-11.0334
dreh	-11.0334
spann	-11.0338
mu	-11.034
fried	-11.034
▁abonnieren	-11.034
▁vergleichbar	-11.0342
marke	-11.0343
▁jegliche	-11.0344
▁Niederlassung	-11.0345
▁entlassen	-11.0346
agentur	-11.0347
▁Henry	-11.0347
▁wünschen	-11.0348
▁Gustav	-11.0348
gebieten	-11.0349
Benz	-11.0351
▁Glo	-11.0353
steck	-11.0356
▁erläutert	-11.0356
▁Spuren	-11.0357
reif	-11.0357
▁auszugehen	-11.0358
▁SGG	-11.0358
haften	-11.0358
▁chinesische	-11.0359
▁Ensemble	-11.0363
▁Heer	-11.0363
▁bedient	-11.0365
pot	-11.0365
▁Emil	-11.0368
▁Stra	-11.037
▁stimmen	-11.0371
▁Faktor	-11.0372
▁durchgeführten	-11.0372
ome	-11.0372
▁Kommissar	-11.0373
▁zzgl	-11.0374
arch	-11.0374
▁Amtsgericht	-11.0374
bil	-11.0375
▁entworfen	-11.0376
einsatz	-11.0376
▁Rie	-11.0377
haut	-11.0379
▁Lade	-11.0379
▁passiert	-11.0381
▁Iran	-11.0382
gefallen	-11.0383
▁übergeben	-11.0386
▁Hen	-11.039
äst	-11.0391
1993	-11.0401
▁Berufsbildung	-11.0401
RL	-11.0403
▁Weiterhin	-11.0403
tail	-11.041
▁Ähnliche	-11.041
▁Zurzeit	-11.0415
plant	-11.0416
house	-11.0418
▁industriellen	-11.0422
▁unmöglich	-11.0422
▁Fels	-11.0424
▁Differenz	-11.0424
▁Verfassungs	-11.0426
▁Bogen	-11.0426
▁Preussen	-11.0428
▁Märkte	-11.0429
▁93	-11.0432
▁Schriften	-11.0433
trau	-11.0433
sburg	-11.0433
verlauf	-11.0434
schätzt	-11.0436
▁Anwender	-11.0437
uz	-11.0437
▁Data	-11.0437
zt	-11.0438
▁Anne	-11.0442
▁liessen	-11.0445
/1	-11.0445
1991	-11.0447
vorhaben	-11.0448
▁konzipiert	-11.0449
gewerbe	-11.045
▁Mobile	-11.0451
kleid	-11.0452
▁Hierzu	-11.0455
▁begannen	-11.0455
▁Projekten	-11.0456
▁Handeln	-11.0456
▁Gla	-11.0458
/5	-11.0458
▁Badewanne	-11.0462
▁passt	-11.0463
▁wann	-11.0464
DO	-11.0466
▁Tim	-11.0466
▁diverse	-11.047
▁Versicherung	-11.0475
▁Kugel	-11.0476
▁Fortsetzung	-11.0479
▁verwendete	-11.0481
kam	-11.0482
▁1905	-11.0483
▁geschieht	-11.0483
▁Geo	-11.0488
Kr	-11.0491
work	-11.0491
farbe	-11.0493
▁Kre	-11.0494
▁nord	-11.0495
französisch	-11.0495
▁klassische	-11.0496
▁Brutto	-11.0497
▁grau	-11.0497
ois	-11.0498
rest	-11.0499
▁Akten	-11.0502
heben	-11.0502
▁Association	-11.0503
▁Erholung	-11.0504
gli	-11.0504
kontakt	-11.0506
Modell	-11.0507
▁Geschlecht	-11.0509
now	-11.051
stor	-11.0511
viel	-11.0511
ms	-11.0512
▁deswegen	-11.0512
▁1908	-11.0516
▁verfügbaren	-11.0517
▁Gehäuse	-11.0517
▁essen	-11.0519
ami	-11.0522
Ga	-11.0523
▁Cra	-11.0524
▁bitten	-11.0524
ogen	-11.0525
▁Währungs	-11.0527
▁UK	-11.0528
▁Saal	-11.0529
▁Society	-11.0529
▁Bergbau	-11.053
▁Assistent	-11.0531
▁Kurse	-11.0532
strahl	-11.0535
Schl	-11.0535
▁vorzunehmen	-11.0535
ativen	-11.0535
▁Zeitungen	-11.0536
Sterne	-11.0537
lege	-11.0537
rede	-11.0539
▁Day	-11.054
zukommen	-11.0543
▁71	-11.0545
▁Sammel	-11.0545
▁Konzerte	-11.0547
▁Doppelzimmer	-11.0548
▁Bildhauer	-11.0549
Jahren	-11.0549
dichte	-11.0551
show	-11.0551
▁Bettwäsche	-11.0557
▁gefährdet	-11.056
Anhalt	-11.056
▁Ap	-11.0562
▁81	-11.0562
▁Bestell	-11.0563
▁Fusion	-11.0564
rill	-11.0565
▁Schatten	-11.0565
▁Ausfuhr	-11.0566
▁Braunschweig	-11.0571
lösen	-11.0573
▁Buchstabe	-11.0573
▁Bol	-11.0573
▁genauso	-11.0573
▁Sy	-11.0576
▁errichtete	-11.0581
▁AKP	-11.0581
▁Franken	-11.0581
brief	-11.0584
HE	-11.0585
▁komplette	-11.0585
▁Ehemann	-11.0586
fangen	-11.0588
tec	-11.0589
Produkt	-11.0589
OM	-11.0589
▁vierte	-11.0591
▁Trag	-11.0591
▁Ebenen	-11.0591
▁Debatte	-11.0592
▁Fro	-11.0592
mengen	-11.0593
▁kurzer	-11.0593
▁Fra	-11.0594
ping	-11.0595
▁vorbehalten	-11.0596
▁Käufer	-11.0597
▁leichte	-11.0601
lock	-11.0603
▁Ursprungs	-11.0603
▁Reis	-11.0604
▁USB	-11.0605
deutsche	-11.0605
pläne	-11.0606
spruch	-11.0607
▁damalige	-11.0609
FC	-11.0611
vereinbarung	-11.0611
▁Zerstörung	-11.0612
cul	-11.0613
▁Wach	-11.0614
▁Research	-11.0614
schritt	-11.0618
▁normalerweise	-11.0619
▁frühere	-11.062
▁heran	-11.0622
ierungen	-11.0624
ban	-11.0625
▁sorgfältig	-11.0627
▁urkundlich	-11.0627
▁Daraufhin	-11.0629
▁Gleis	-11.063
▁Mari	-11.0632
▁grossem	-11.0632
▁Michel	-11.0632
abschnitt	-11.0637
ühl	-11.0638
▁baute	-11.0639
fang	-11.0642
▁BAG	-11.0643
Software	-11.0644
rische	-11.0644
▁Erteilung	-11.0645
hal	-11.0645
▁Centre	-11.0646
▁Trocken	-11.0646
▁Zellen	-11.0649
einkommen	-11.0651
SH	-11.0651
▁Innerhalb	-11.0651
▁grenzt	-11.0652
▁amerikanische	-11.0655
▁Wu	-11.0657
cus	-11.0657
samt	-11.0657
▁monatlich	-11.0657
pital	-11.0658
▁ausreichende	-11.0658
bundes	-11.0659
lor	-11.066
▁Ministerium	-11.0663
▁Nachwuchs	-11.0665
gleichen	-11.067
▁Ausgleich	-11.0672
▁Aufstellung	-11.0672
▁Erkenntnis	-11.0674
schlagen	-11.0675
▁1911	-11.0676
▁Debüt	-11.0676
▁Matt	-11.0678
▁fuhr	-11.068
liefer	-11.0681
▁Angesichts	-11.0681
▁Dichter	-11.0681
▁Flexibilität	-11.0686
▁Sehr	-11.0687
▁typische	-11.0688
▁gebunden	-11.0691
monat	-11.0695
▁Downloads	-11.0696
▁verhaftet	-11.0696
▁gewähren	-11.0697
▁Control	-11.0698
bung	-11.0698
App	-11.0701
pr	-11.0703
iges	-11.0706
Schwe	-11.0706
UN	-11.0709
masse	-11.0709
sfrist	-11.071
▁ländlichen	-11.071
inus	-11.0714
▁Academy	-11.0716
LS	-11.072
kapelle	-11.0722
▁schafft	-11.0723
▁Bilanz	-11.0723
▁Denken	-11.0725
▁sinnvoll	-11.0725
▁umfassenden	-11.0728
fett	-11.0733
▁99	-11.0734
▁Klub	-11.0735
▁medizinischen	-11.0735
▁erzählen	-11.0737
▁Liter	-11.0738
▁aufnehmen	-11.074
▁mittel	-11.074
▁Jungen	-11.0742
berechtigten	-11.0745
▁müsste	-11.0746
Mark	-11.0746
Ti	-11.0752
▁Alb	-11.0753
▁Dimension	-11.0757
▁Films	-11.0759
▁Steigerung	-11.0759
▁verbringen	-11.076
▁Folgenden	-11.0762
CA	-11.0763
▁Verwirklichung	-11.0763
▁betreibt	-11.0763
▁zuverlässig	-11.0765
rus	-11.0767
heil	-11.0769
▁Casino	-11.0776
▁Deck	-11.0777
▁manche	-11.078
ländern	-11.0781
▁gelungen	-11.0784
▁deinen	-11.079
▁Gewebe	-11.0792
▁Unterhaltung	-11.0792
▁üblichen	-11.0793
▁Schicht	-11.0794
atoren	-11.0794
▁Motorrad	-11.0794
▁Gesang	-11.0796
hren	-11.0796
wider	-11.0796
▁besseren	-11.0798
block	-11.0799
erzeugnisse	-11.0799
▁Cro	-11.0801
hagen	-11.0801
▁Rekord	-11.0804
schneiden	-11.0805
Praktizierende	-11.0805
▁Gemeindegebiet	-11.0806
WS	-11.0806
▁Orientierung	-11.0808
▁Samen	-11.0809
zubringen	-11.0809
▁Por	-11.081
▁Zoom	-11.0811
figur	-11.0812
termin	-11.0814
▁Scho	-11.0816
laub	-11.0817
▁Beitrags	-11.0818
▁Bruch	-11.0818
▁billiger	-11.0819
öck	-11.0819
▁beenden	-11.082
▁Sprecher	-11.0823
GO	-11.0824
lem	-11.0824
▁gefasst	-11.0825
landes	-11.0825
▁91	-11.0826
▁umfasste	-11.0826
▁700	-11.0826
fügt	-11.0827
▁gezwungen	-11.0827
▁sachlich	-11.0827
▁schwarzen	-11.0829
aire	-11.0833
▁LSG	-11.0837
▁Historiker	-11.0837
For	-11.0838
▁Diskriminierung	-11.084
▁Buchen	-11.084
▁Mercedes	-11.0842
▁geborene	-11.0843
▁Francisco	-11.0847
geschnitten	-11.0848
lassung	-11.0852
▁verwaltet	-11.0852
Edit	-11.0852
unt	-11.0853
belastung	-11.0856
reit	-11.0859
▁07	-11.086
seh	-11.0862
▁spätere	-11.0863
loch	-11.0865
bat	-11.0865
pack	-11.0866
rd	-11.087
erfahrung	-11.087
▁from	-11.0872
▁Kan	-11.0876
▁mitgeteilt	-11.0879
▁massgeblichen	-11.0879
▁Far	-11.088
▁Stift	-11.088
armen	-11.0881
▁Schwer	-11.0882
pra	-11.0882
▁Abfall	-11.0882
una	-11.0882
▁Brücken	-11.0883
▁Ferdinand	-11.0883
▁Planeten	-11.0883
Werk	-11.0884
▁Töchter	-11.0887
▁Weich	-11.0889
▁Heu	-11.089
▁reduzieren	-11.0893
istisch	-11.0894
▁Hochzeit	-11.0899
▁VII	-11.0899
boot	-11.0899
▁tut	-11.0904
▁erheblichen	-11.0908
▁Auslands	-11.0908
▁1907	-11.0912
▁Haushalte	-11.0912
▁gefolgt	-11.0914
HR	-11.0915
insel	-11.0915
▁gerechtfertigt	-11.0916
▁Erbe	-11.0917
ira	-11.0918
▁Knochen	-11.0919
▁Heiz	-11.0925
▁beschloss	-11.0926
versuch	-11.0927
▁98	-11.0929
▁Einkünfte	-11.093
aux	-11.0931
▁Tau	-11.0931
▁mündet	-11.0932
▁Einschätzung	-11.0933
▁HERR	-11.0933
fre	-11.0933
SB	-11.0934
▁Arn	-11.0935
▁Innenstadt	-11.0937
komplex	-11.0937
▁hinweg	-11.0939
leb	-11.0939
▁kurzfristig	-11.0939
▁Versionen	-11.0942
▁Wett	-11.0942
MC	-11.0943
▁entscheidend	-11.0945
▁formal	-11.0947
▁vorrangig	-11.0948
▁unterliegen	-11.0952
stedt	-11.0952
ls	-11.0953
mitteln	-11.0955
hem	-11.0955
▁Vgl	-11.0955
sex	-11.0959
Video	-11.0959
vertreter	-11.096
▁ggf	-11.0961
▁Nordamerika	-11.0964
▁unverändert	-11.0964
▁fein	-11.0964
▁günstige	-11.0965
▁Protein	-11.0967
OL	-11.0967
Tool	-11.0967
systemen	-11.0967
▁Stütz	-11.0968
▁Gehirn	-11.097
▁wendet	-11.0972
sendung	-11.0974
niederländischen	-11.0974
▁Schmidt	-11.0975
spe	-11.0975
automat	-11.0981
▁Herausgeber	-11.0983
lässt	-11.0983
▁Wel	-11.0985
▁Sig	-11.0987
LG	-11.0988
▁Erwerbs	-11.0989
▁Card	-11.0994
statistik	-11.0996
Teil	-11.0999
▁Metal	-11.0999
▁Thi	-11.1001
iter	-11.1004
▁Vizepräsident	-11.1005
basierte	-11.1006
materialien	-11.1007
wegen	-11.1009
▁solchem	-11.1009
▁Felder	-11.1011
▁Ltd	-11.1012
dessen	-11.1015
▁Präsidentin	-11.1016
▁Search	-11.1017
▁Einzelnen	-11.1018
▁einsetzen	-11.1019
▁Cat	-11.1019
schaften	-11.102
▁inne	-11.1022
fit	-11.1023
▁Telekommunikati	-11.1023
UM	-11.1025
winkel	-11.1025
▁geeignete	-11.1026
wandel	-11.1029
▁erneuert	-11.1029
▁Auszeichnung	-11.1034
Do	-11.1035
beiträge	-11.1036
esse	-11.1037
Mobil	-11.104
serklärung	-11.1041
▁rechtswidrig	-11.1042
▁Eingangs	-11.1044
▁·	-11.1045
▁führende	-11.1046
▁längere	-11.1049
hor	-11.105
bindung	-11.105
▁machten	-11.1051
▁Trainings	-11.1051
fr	-11.1052
äh	-11.1053
▁Vereinigtes	-11.1054
lik	-11.1056
▁erkennt	-11.1057
▁oberhalb	-11.1057
▁Logo	-11.1057
▁Königin	-11.1057
lam	-11.1063
fuss	-11.1063
zahlungen	-11.1064
wood	-11.1065
▁dokumentiert	-11.1065
▁Phänomen	-11.1065
kü	-11.1066
▁wächst	-11.1067
▁Doktor	-11.1069
▁aktualisiert	-11.1069
Typ	-11.1069
zunehmen	-11.1069
NI	-11.1072
▁Höhepunkt	-11.1072
▁Poker	-11.1072
▁reagieren	-11.1073
600	-11.1075
chel	-11.1078
▁elektronische	-11.1079
plattform	-11.1088
cor	-11.109
▁Kundenbewertung	-11.1091
grenz	-11.1093
▁elektronischen	-11.1094
schirm	-11.1095
▁Kommando	-11.1095
▁European	-11.1095
braun	-11.1096
only	-11.1096
▁Brit	-11.1097
quar	-11.1098
▁Künste	-11.1101
rät	-11.1102
▁Übereinstimmung	-11.1103
RR	-11.1106
▁Rü	-11.1109
ima	-11.111
▁Ausmass	-11.111
ifikation	-11.111
▁AB	-11.111
BE	-11.1113
▁83	-11.1114
▁anti	-11.1114
▁rechtzeitig	-11.1114
kul	-11.1114
nas	-11.1117
▁Handy	-11.1118
å	-11.1118
▁militärische	-11.112
▁Brenn	-11.1122
▁Ruhestand	-11.1124
ged	-11.1124
▁Schadensersatz	-11.1124
EI	-11.1125
Nur	-11.1128
▁Botschafter	-11.1129
▁Med	-11.1129
▁BFHE	-11.113
▁normalen	-11.1131
iki	-11.1132
schliess	-11.1133
▁Also	-11.1137
▁aufgeteilt	-11.1138
▁Aufwand	-11.1139
schliessen	-11.114
▁Dafür	-11.1143
▁Streitwert	-11.1144
ckel	-11.1146
artig	-11.1147
▁zusammengefasst	-11.1148
auftritt	-11.1157
▁Cla	-11.1159
muster	-11.116
▁fehlerhaft	-11.1161
wick	-11.1162
▁Zo	-11.1163
takt	-11.1166
kas	-11.1167
▁Aufwendungen	-11.1169
▁Dia	-11.1169
▁künftig	-11.117
▁gesammelt	-11.1171
▁Uhren	-11.1172
▁bedroht	-11.1173
▁Geschichten	-11.1173
▁nachträglich	-11.1173
ografische	-11.1174
Ost	-11.1178
geworfen	-11.1181
liess	-11.1181
transfer	-11.1184
▁Posten	-11.1186
▁Wissenschaften	-11.1189
smitglied	-11.119
▁Segment	-11.119
▁Entgegen	-11.1192
▁Schach	-11.1192
cin	-11.1192
▁Lebensjahr	-11.1193
Kreis	-11.1195
▁Ereignis	-11.1195
nor	-11.1198
▁Bestehen	-11.12
▁Has	-11.1201
▁eingereicht	-11.1202
sonder	-11.1203
▁Eigenschaft	-11.1204
▁ernst	-11.1206
stationen	-11.1207
vir	-11.1208
dol	-11.1208
stich	-11.121
Gu	-11.1212
▁Edelstahl	-11.1212
BO	-11.1215
Bereich	-11.1215
Frei	-11.1216
▁errichten	-11.1216
risiko	-11.1216
ritz	-11.1217
▁2,5	-11.122
▁typischen	-11.122
▁vermitteln	-11.1221
▁wind	-11.1224
spur	-11.1224
▁Alte	-11.1225
sko	-11.1225
▁Rathaus	-11.1225
SO	-11.1226
▁verkaufte	-11.1226
▁inneren	-11.1229
▁verweist	-11.123
▁Blue	-11.123
▁solange	-11.1232
\	-11.1233
▁rechtliche	-11.1234
willig	-11.1234
▁Wende	-11.1236
hus	-11.1237
▁Staatsangehörig	-11.1243
PP	-11.1243
▁bot	-11.1244
▁124	-11.1246
aufnahmen	-11.1247
▁tatsächliche	-11.1249
▁überprüft	-11.125
leih	-11.1253
▁Dörfer	-11.1254
iven	-11.1255
▁Hardware	-11.1257
▁fehlen	-11.1258
▁Gab	-11.1258
▁Vögel	-11.1259
▁German	-11.126
orden	-11.1262
kontrolle	-11.1262
▁üblich	-11.1263
tausend	-11.1264
001	-11.1264
▁Ozean	-11.1265
▁Offizier	-11.1266
▁Abhängigkeit	-11.1268
▁Pie	-11.1268
·	-11.1268
▁Sektoren	-11.127
▁Europe	-11.127
Musik	-11.127
End	-11.127
Bike	-11.127
vertretung	-11.1271
▁Bühnen	-11.1274
▁Nation	-11.1277
aki	-11.1277
▁doppelt	-11.1277
▁1500	-11.1279
▁Community	-11.1279
▁müssten	-11.128
▁Anhaltspunkte	-11.1284
▁verabschiedet	-11.1286
▁bemüht	-11.1289
hut	-11.1292
▁BR	-11.1292
▁Tsch	-11.1295
spitze	-11.1296
▁with	-11.1296
▁aufweisen	-11.1297
gew	-11.1299
aktion	-11.13
▁angemeldet	-11.13
bahnhof	-11.13
roh	-11.1301
▁Vorsitz	-11.1301
▁Warschau	-11.1301
nat	-11.1301
▁Wiederherstell	-11.1302
mitglieder	-11.1303
▁Vorliegen	-11.1306
▁meines	-11.1307
deckung	-11.1309
lig	-11.1311
▁beauftragt	-11.1313
index	-11.1314
ave	-11.1314
ín	-11.1316
▁Tank	-11.1317
▁ebenda	-11.1318
kurse	-11.1318
Pressemitteilung	-11.1323
▁Magnet	-11.1324
ington	-11.1324
▁1906	-11.1325
▁Bud	-11.1326
teilnehmer	-11.1328
▁Achtung	-11.1328
▁Sicher	-11.133
▁einheitliche	-11.1331
▁sortiert	-11.1331
Cl	-11.1331
weichen	-11.1331
▁analog	-11.1333
▁chemische	-11.1333
fehl	-11.1335
▁Menschheit	-11.1335
▁Erwartungen	-11.1336
▁Gras	-11.1337
▁Züge	-11.1337
▁nochmals	-11.1338
steigerung	-11.1339
▁Ul	-11.1339
DEN	-11.134
IK	-11.1342
▁Instituts	-11.1343
pert	-11.1343
▁Kö	-11.1346
aw	-11.1346
HS	-11.1347
hütte	-11.1347
sdauer	-11.1349
sucht	-11.1349
rund	-11.135
wall	-11.1352
▁Syrien	-11.1352
ständ	-11.1356
▁rechtfertigen	-11.1359
zusetzen	-11.1359
▁Etwa	-11.1364
▁wohnen	-11.1365
▁BVerfGE	-11.1366
tiert	-11.1369
▁begehrt	-11.137
▁Misch	-11.1371
Gr	-11.1374
▁Nar	-11.1375
▁154	-11.1376
▁Eier	-11.1376
duc	-11.1377
▁Acht	-11.1377
CP	-11.1378
▁russische	-11.1378
sfeld	-11.138
blau	-11.1381
▁Sankt	-11.1383
▁Winkel	-11.1383
▁Sturm	-11.1384
▁Ausstellungs	-11.1386
ester	-11.1388
▁British	-11.1391
▁Sä	-11.1391
▁voneinander	-11.1392
▁bearbeitet	-11.1396
▁einheitlichen	-11.1396
fiel	-11.1397
tags	-11.1398
▁Tam	-11.1401
sprechen	-11.1402
borg	-11.1402
▁Bucht	-11.1404
▁Amtszeit	-11.1405
szentrum	-11.1405
filter	-11.1406
spar	-11.1406
▁Freundschaft	-11.1409
mak	-11.1411
Nord	-11.1412
▁reich	-11.1412
ough	-11.1415
▁fehlende	-11.1415
haben	-11.1419
▁Krone	-11.1419
▁geweiht	-11.142
▁Moderne	-11.1421
▁Rückgabe	-11.1424
▁Gesetzgebung	-11.1424
▁basierend	-11.1424
▁Kam	-11.1425
kinder	-11.1426
iel	-11.1426
▁Verknüpfung	-11.1426
▁Mehrwertsteuer	-11.1426
ias	-11.143
Motor	-11.1434
trans	-11.1435
▁beeinflussen	-11.1435
Bild	-11.1437
▁Flüchtlinge	-11.144
FF	-11.144
aten	-11.1441
Stiftung	-11.1441
▁Lassen	-11.1441
▁Arrondissement	-11.1441
▁Mängel	-11.1441
▁volle	-11.1448
▁grob	-11.1449
On	-11.145
▁funktionieren	-11.145
sto	-11.145
englisch	-11.145
▁Lieblings	-11.1451
richtlinie	-11.1452
streifen	-11.1452
▁notwendige	-11.1452
▁eignet	-11.1453
▁Lissabon	-11.1455
▁Flotte	-11.1455
▁komme	-11.1457
▁Hockey	-11.1457
▁geteilt	-11.1457
▁Anreise	-11.1458
▁Bestätigung	-11.1459
Deutschland	-11.146
kind	-11.1462
1989	-11.1463
ér	-11.1464
▁Krankheiten	-11.1464
▁Lieferanten	-11.1465
verbot	-11.1466
▁Sav	-11.1467
jen	-11.1467
lied	-11.1468
▁Stockholm	-11.1468
▁Sorge	-11.1469
▁dargestellten	-11.1469
▁Neues	-11.147
hung	-11.1471
freundlich	-11.1475
ds	-11.1475
▁Long	-11.1475
Dur	-11.1478
ruhe	-11.1478
weite	-11.1478
▁Vize	-11.1479
▁max	-11.1481
▁Work	-11.1484
▁Gebot	-11.1484
▁Kein	-11.1485
▁Behinderung	-11.1485
werden	-11.1486
▁Lim	-11.1486
▁fu	-11.1487
breite	-11.149
▁Prüfungs	-11.149
▁post	-11.149
▁Apple	-11.1491
▁vorzeitig	-11.1491
▁NS	-11.1492
FE	-11.1493
aufwand	-11.1494
▁Schicksal	-11.1494
▁Hitler	-11.1495
▁Ermessen	-11.1496
PI	-11.1496
▁Bedenken	-11.1496
aka	-11.1497
cle	-11.1497
aktivitäten	-11.1498
▁diesbezüglich	-11.1499
▁Letzte	-11.1499
zip	-11.15
▁Final	-11.1502
▁Steve	-11.1504
ausstellung	-11.1509
gelände	-11.1509
mä	-11.1509
▁ernsthaft	-11.151
▁bestehend	-11.1513
sbach	-11.1514
▁aktiviert	-11.1515
▁Wellen	-11.1515
rates	-11.1517
▁Wellness	-11.1517
osa	-11.1518
EUR	-11.1519
▁Ferienwohnungen	-11.1519
▁interessant	-11.1521
sverhältnisses	-11.1521
ziehung	-11.1521
▁gern	-11.1522
▁österreichische	-11.1522
▁enge	-11.1524
▁Gnade	-11.1525
beruf	-11.1525
▁Treffer	-11.1526
FT	-11.1527
▁diskutieren	-11.1527
▁gesondert	-11.1527
▁Binnenmarkt	-11.1529
▁schwedischen	-11.153
bs	-11.1532
dic	-11.1533
▁jeweilige	-11.1534
emann	-11.1536
▁fünften	-11.1537
▁Dritt	-11.1538
▁kostenfrei	-11.1539
uc	-11.154
▁untersuchen	-11.154
¶	-11.1541
▁renoviert	-11.1541
▁Aufsichtsrat	-11.1541
geschlossen	-11.1541
▁Mose	-11.1543
▁Sachen	-11.1543
▁Bevor	-11.1547
ral	-11.1547
▁ausgesprochen	-11.1551
▁Leitlinien	-11.1552
binden	-11.1554
▁sicherlich	-11.1556
▁Kandidaten	-11.1557
▁vorläufig	-11.1557
erfolg	-11.1557
▁Brems	-11.1558
gehalten	-11.1562
▁Alex	-11.1564
mangel	-11.1567
Hand	-11.1569
▁Rabatt	-11.157
avi	-11.157
▁engagiert	-11.157
▁Mä	-11.1571
oz	-11.1572
▁Line	-11.1573
▁lernte	-11.1575
▁Kraftwerk	-11.1577
turnier	-11.1579
▁durchsuchen	-11.158
▁Armen	-11.158
▁Pflichten	-11.1584
▁christlichen	-11.1585
gast	-11.1587
▁herausgegeben	-11.1595
▁eingeleitet	-11.1595
▁solle	-11.1598
▁Projekts	-11.1599
▁Af	-11.16
▁Ulrich	-11.1601
itter	-11.1603
liegenden	-11.1605
mischen	-11.1605
äum	-11.1606
Dok	-11.1608
Anlage	-11.1609
▁stehende	-11.1609
aro	-11.1609
▁Schmuck	-11.161
▁1915	-11.161
▁Jahrzehnten	-11.161
▁erfolgten	-11.1611
▁Urt	-11.1614
▁Betrachtung	-11.1614
Trans	-11.1614
▁Gebäudes	-11.1615
▁Grafschaft	-11.1616
zeugen	-11.1618
▁Auftritt	-11.1618
rio	-11.1623
wohl	-11.1625
▁Roten	-11.1626
▁zentral	-11.1628
richtlinien	-11.163
▁Argentinien	-11.1632
▁Wann	-11.1633
BI	-11.1633
▁süd	-11.1636
▁befreit	-11.1636
▁■	-11.1637
▁Angeklagte	-11.1637
▁Neuseeland	-11.1641
▁Fitness	-11.1641
▁Gebühr	-11.1641
▁Armut	-11.1641
▁brach	-11.1643
▁Vis	-11.1648
▁abgewiesen	-11.1648
▁benachbarten	-11.1649
▁Institution	-11.1649
▁Distanz	-11.165
anne	-11.165
▁Bernhard	-11.1651
▁Apps	-11.1651
▁industrielle	-11.1652
BC	-11.1654
▁Einigung	-11.1655
▁Slowakei	-11.1656
▁Leucht	-11.1657
▁Umbau	-11.1658
▁installierten	-11.1658
▁jährliche	-11.1658
▁desselben	-11.1659
▁Wehr	-11.1659
protokoll	-11.1659
▁Lasten	-11.1662
shire	-11.1663
▁Artikeln	-11.1664
▁geschickt	-11.1664
ret	-11.1665
▁Kostüm	-11.1665
ähr	-11.1666
Sal	-11.1667
▁Kontinent	-11.1667
▁Erlebnis	-11.1668
LT	-11.1669
▁abgeleitet	-11.1669
▁Branche	-11.167
▁Zwangs	-11.167
▁schauen	-11.1671
ê	-11.1672
▁gehe	-11.1675
▁abgestimmt	-11.1677
▁Magdeburg	-11.1677
▁Batterie	-11.1677
bio	-11.1678
▁Motiv	-11.1679
▁Führungs	-11.1683
▁bestellen	-11.1685
▁angewendet	-11.1686
▁Nationalpark	-11.1687
▁Messen	-11.1689
Code	-11.1689
▁verstarb	-11.169
▁erreichten	-11.1692
ständig	-11.1693
▁Kleidung	-11.1693
▁Kleine	-11.1696
▁Jacob	-11.1697
▁fragen	-11.1697
▁kostet	-11.1697
änz	-11.1698
▁Periode	-11.1699
▁Feuerwehr	-11.1702
fund	-11.1702
town	-11.1703
▁Beratungs	-11.1703
▁effiziente	-11.1707
hallen	-11.1707
▁festgelegten	-11.1707
▁Verbände	-11.1708
▁Sollte	-11.1708
SU	-11.171
▁klare	-11.171
▁Akte	-11.171
▁Christ	-11.1711
▁begründen	-11.1711
▁Porto	-11.1713
streitgegenständ	-11.1717
aya	-11.1718
▁IX	-11.1719
▁versteckt	-11.1719
▁indirekt	-11.1722
aufenthalt	-11.1724
▁achten	-11.1724
sagen	-11.1724
HC	-11.1726
anfrage	-11.1727
Haupt	-11.173
theorie	-11.173
▁Kurt	-11.1731
wunder	-11.1733
▁Beseitigung	-11.1735
▁79	-11.1738
eau	-11.1738
▁sparen	-11.174
fertigung	-11.1747
sis	-11.1749
▁ermitteln	-11.1752
▁militärischen	-11.1752
▁politischer	-11.1754
marsch	-11.1757
▁Cloud	-11.1762
▁Junioren	-11.1764
DER	-11.1764
▁Villen	-11.1766
riss	-11.1767
paar	-11.1768
tagen	-11.1768
At	-11.1769
gelagert	-11.177
lack	-11.177
▁intensiv	-11.1773
▁Key	-11.1773
▁Pfarrkirche	-11.1775
▁tiefer	-11.1776
minder	-11.1776
standort	-11.1776
iva	-11.1778
▁Schr	-11.1784
ý	-11.1786
has	-11.1788
▁Français	-11.1789
wirt	-11.179
COM	-11.1791
kk	-11.1792
schütz	-11.1793
▁ausgehend	-11.1793
▁Kardinal	-11.1794
▁Organe	-11.1794
regel	-11.1795
MEN	-11.1795
▁zuständige	-11.1798
beschäftigung	-11.1801
▁Erlaubnis	-11.1801
pho	-11.1801
▁Grau	-11.1802
▁konzentrieren	-11.1805
▁Theodor	-11.1806
▁vorkommen	-11.1808
▁Handlungen	-11.1809
▁BvR	-11.181
▁gedacht	-11.181
▁Rauch	-11.1812
▁traten	-11.1814
▁günstigen	-11.1815
▁Arbeitsgericht	-11.1815
▁Container	-11.1816
▁Gene	-11.1819
Seite	-11.182
▁geriet	-11.1821
Dateien	-11.1821
strukturen	-11.1823
▁Ass	-11.1828
▁Million	-11.1835
stab	-11.1836
BAG	-11.1836
▁Flugtickets	-11.1837
▁womit	-11.1839
▁erheben	-11.1843
ierbar	-11.1846
ark	-11.1846
schön	-11.1847
stall	-11.1849
▁Ren	-11.1849
▁vermutet	-11.1851
▁Tabak	-11.1852
istik	-11.1854
▁Tieren	-11.1854
▁Kämpfe	-11.1859
include	-11.186
▁Beachtung	-11.186
will	-11.186
▁spielten	-11.1863
▁Entdeckung	-11.1863
hängen	-11.1864
▁AO	-11.1867
▁Sauna	-11.1867
▁Komp	-11.1867
gedruckt	-11.1869
Druck	-11.1869
▁Mü	-11.1873
▁präzise	-11.1874
fleisch	-11.1874
▁produzieren	-11.1876
▁Chancen	-11.1877
▁erleichtern	-11.1878
▁Zypern	-11.1881
▁Rob	-11.1881
▁Verteidigungs	-11.1882
▁Ausflug	-11.1883
ela	-11.1884
▁gelesen	-11.1884
▁gemachten	-11.1884
etti	-11.1886
sar	-11.1886
ös	-11.1886
▁Boots	-11.1887
DG	-11.1888
▁beschreiben	-11.1888
szene	-11.1889
▁Architekt	-11.189
▁Komponisten	-11.1891
▁Brun	-11.1891
iver	-11.1891
▁kW	-11.1892
Pl	-11.1893
AI	-11.1893
▁Reaktionen	-11.1895
alis	-11.1898
▁Antrags	-11.1899
▁Ergebnissen	-11.1899
wendung	-11.1901
▁Strassenbahn	-11.1902
▁Trends	-11.1904
auswahl	-11.1905
▁Tatbestand	-11.1907
pag	-11.1908
▁Alben	-11.1908
▁bezahlen	-11.1908
Har	-11.1909
splan	-11.1909
▁stärken	-11.1911
gest	-11.1913
▁Transparenz	-11.1913
▁bekommt	-11.1913
▁weisse	-11.1914
▁Schall	-11.1914
▁Buchstaben	-11.192
▁Bergen	-11.192
jung	-11.1922
▁Massstab	-11.1922
▁Landgerichts	-11.1923
▁täglichen	-11.1924
thek	-11.1924
behindert	-11.1924
VI	-11.1924
ism	-11.1924
▁Erweiterte	-11.1924
ecker	-11.1925
▁Inkrafttreten	-11.1927
verzeichnis	-11.1927
etwa	-11.1928
Hu	-11.1928
▁deutschsprachig	-11.1929
schaffen	-11.1931
▁heissen	-11.1933
Star	-11.1935
▁1904	-11.1936
▁genauer	-11.1937
fels	-11.1937
▁vollen	-11.1937
▁umgebaut	-11.1938
Tra	-11.1938
▁Betriebssystem	-11.1938
inhalt	-11.1939
All	-11.194
forderung	-11.194
▁angemessen	-11.1941
▁Gü	-11.1944
ssysteme	-11.1945
▁ändert	-11.1945
▁globale	-11.1945
▁Smart	-11.1948
▁enthielt	-11.1948
▁Dortmund	-11.1948
▁Gewässer	-11.195
▁Formulierung	-11.195
ior	-11.1952
▁Import	-11.1953
how	-11.1953
ansicht	-11.1954
LP	-11.1958
lade	-11.1958
▁Gall	-11.1958
sprech	-11.1959
ladung	-11.196
bein	-11.196
hundert	-11.1961
trainer	-11.1962
Karte	-11.1962
Bitte	-11.1963
▁Tru	-11.1963
üb	-11.1964
▁dicht	-11.1967
▁langer	-11.1969
Pf	-11.197
▁Know	-11.1971
bestimmung	-11.1971
▁Hochschulen	-11.1973
▁Schwimmbad	-11.1973
schriften	-11.1974
▁Behauptung	-11.1975
▁durchführen	-11.1975
russisch	-11.1977
▁HERRN	-11.1977
▁organisieren	-11.1978
eis	-11.1978
▁1909	-11.198
▁Gästen	-11.1981
▁ergab	-11.1982
▁Smartphone	-11.1982
▁externe	-11.1986
▁bezug	-11.1986
▁beurteilen	-11.1989
lenk	-11.199
gerichtliche	-11.199
onia	-11.1992
▁unzureichend	-11.1994
▁Helm	-11.1994
born	-11.1994
Tri	-11.1994
▁gebe	-11.1995
▁Ecke	-11.1996
▁Augenblick	-11.2
▁Bindung	-11.2
förmige	-11.2
▁Jos	-11.2
uni	-11.2001
dd	-11.2002
▁Chile	-11.2004
sdienst	-11.2004
Pi	-11.2005
▁Stephan	-11.2005
▁erwerben	-11.2006
▁Gehalt	-11.2006
▁By	-11.2007
treiben	-11.2007
▁Gehminuten	-11.2007
ref	-11.2008
/92	-11.2009
Exzellent	-11.201
Fin	-11.201
▁101	-11.201
▁genügend	-11.2011
▁komfortable	-11.2012
▁Lärm	-11.2012
nar	-11.2013
▁Dritter	-11.2013
spor	-11.2014
▁aktivieren	-11.2014
▁aufgeführten	-11.2015
▁Einbeziehung	-11.2016
summe	-11.2017
▁Kaufen	-11.2018
nnen	-11.2018
▁Nordirland	-11.2021
▁Wohnsitz	-11.2022
▁wahren	-11.2031
versicherungs	-11.2032
mul	-11.2032
▁gutes	-11.2033
▁Hil	-11.2034
time	-11.2035
▁qualifizierte	-11.2035
▁Schm	-11.2035
vert	-11.2039
▁enthaltenen	-11.2042
▁Gesichtspunkt	-11.2044
▁Stufen	-11.2045
stan	-11.2045
bet	-11.2049
▁Fein	-11.2049
▁Delegation	-11.2052
▁Thailand	-11.2054
künstler	-11.2057
▁berühmte	-11.2059
▁Beträge	-11.206
erst	-11.2061
▁Flüssigkeit	-11.2061
Wo	-11.2064
firma	-11.2065
▁Smith	-11.2066
▁kämpfen	-11.2069
ł	-11.2069
▁Sechs	-11.207
IV	-11.2072
Inter	-11.2072
▁gegenwärtig	-11.2075
▁Game	-11.2076
▁Wol	-11.2077
aj	-11.208
▁Print	-11.2082
Su	-11.2083
put	-11.2083
ray	-11.2083
funk	-11.2088
ländischen	-11.2088
▁roten	-11.2089
▁Fertigung	-11.2091
ption	-11.2092
▁Studierenden	-11.2092
▁eingeladen	-11.2094
▁liegende	-11.2094
▁eingetreten	-11.2095
▁Javascript	-11.2096
Wi	-11.2097
▁Puzzle	-11.2101
sphase	-11.2102
WI	-11.2106
▁Römer	-11.2108
▁Update	-11.2109
▁2014,	-11.2109
▁Slowenien	-11.211
▁teilte	-11.211
▁lehnte	-11.211
rock	-11.2112
▁1916	-11.2112
▁geschlossenen	-11.2113
▁unabhängige	-11.2114
lieferung	-11.2114
▁Gerechtigkeit	-11.2115
▁Schulter	-11.2115
▁She	-11.2118
empfindlich	-11.2122
▁hohem	-11.2123
▁anzunehmen	-11.2123
cam	-11.2125
▁interne	-11.2126
▁aufgegeben	-11.2128
▁erweiterten	-11.213
▁Florenz	-11.2131
▁kontinuierlich	-11.2132
Boot	-11.2135
▁Pay	-11.2135
▁trotzdem	-11.2136
Design	-11.214
▁Resort	-11.2141
▁Leiden	-11.2141
▁Folgende	-11.2141
▁installieren	-11.2148
▁Übergangs	-11.2148
▁Entwickler	-11.2149
instrument	-11.2151
▁erweiterte	-11.2154
▁Var	-11.2154
▁Brunnen	-11.2156
▁Temperaturen	-11.2157
▁Flach	-11.2157
▁Vas	-11.216
SM	-11.2161
immer	-11.2161
▁rechtmässig	-11.2161
▁Heinz	-11.2161
▁Seen	-11.2161
▁Bachelor	-11.2162
▁Vertretern	-11.2166
sichtig	-11.2167
▁Dun	-11.2167
TH	-11.2167
▁vertraut	-11.2169
▁Goethe	-11.2169
>*	-11.2169
▁Aussenminister	-11.2171
▁ausführlich	-11.2171
stimmen	-11.2172
ular	-11.2173
▁Verringerung	-11.2174
LC	-11.2175
verbindungen	-11.2175
ée	-11.2175
▁ausgeübt	-11.2175
fan	-11.2175
▁113	-11.2176
▁schlägt	-11.2176
▁Innovations	-11.2178
achse	-11.2178
▁Schatz	-11.2182
▁Braun	-11.2185
▁Brut	-11.2188
▁›	-11.219
▁erlangen	-11.219
▁Insoweit	-11.219
effekt	-11.2192
▁privat	-11.2193
▁stellten	-11.2194
▁öffentlicher	-11.2197
aud	-11.2198
▁Gebäuden	-11.2199
TRA	-11.2199
▁Diagnose	-11.22
▁Spi	-11.2201
▁schlicht	-11.2201
tim	-11.2201
straf	-11.2202
▁Produktivität	-11.2205
veranstaltungen	-11.2206
▁vorgelegten	-11.2206
▁wahre	-11.2208
▁Comp	-11.2208
Min	-11.2208
▁Felsen	-11.2209
▁350	-11.221
▁jährlichen	-11.221
▁Sowohl	-11.2212
kr	-11.2212
▁GE	-11.2214
lio	-11.2214
▁Weibchen	-11.2215
▁Central	-11.2216
rein	-11.222
weich	-11.2222
▁Gegenstände	-11.2223
▁abgesehen	-11.2225
▁Vorsitzende	-11.2227
▁fliegen	-11.2227
rain	-11.2229
sgeschichte	-11.2234
▁Lord	-11.2236
aga	-11.2236
klein	-11.2237
▁vertrieben	-11.2237
waltungsgerichts	-11.2239
rid	-11.2239
800	-11.224
Schnittstelle	-11.2242
▁frisch	-11.2245
▁Gerhard	-11.2247
personen	-11.2248
▁kennt	-11.2249
▁Gerade	-11.2251
lay	-11.2251
hier	-11.2253
▁erstklassigen	-11.2254
▁vorläufigen	-11.2255
▁unterrichtet	-11.2255
▁Vergabe	-11.2256
▁Pont	-11.2258
▁gebraucht	-11.2259
▁steigt	-11.2261
▁religiöse	-11.2262
▁gelöscht	-11.2264
▁Ausser	-11.2265
nischen	-11.2265
Oh	-11.2266
▁Auftraggeber	-11.2267
nov	-11.2267
▁Inserate	-11.2268
▁aaO	-11.2268
▁Reihen	-11.2268
▁inner	-11.227
einschliesslich	-11.2272
▁entspannen	-11.2273
svorschriften	-11.2274
▁zeichnet	-11.2277
Stat	-11.2278
▁gehandelt	-11.228
▁präsentieren	-11.2281
ograph	-11.2282
▁niedrigen	-11.2283
ären	-11.2286
▁Laufzeit	-11.2287
▁exakt	-11.2288
▁Gläubiger	-11.229
▁verbesserte	-11.229
▁Pfarr	-11.2291
▁bisherige	-11.2293
▁versteht	-11.2296
▁Schneider	-11.2296
▁verdient	-11.2297
▁Stadion	-11.2299
▁Händen	-11.2308
lehre	-11.2309
Best	-11.231
stechnik	-11.2312
▁Ausschluss	-11.2313
▁Filial	-11.2314
▁Einwohnerzahl	-11.2315
▁stetig	-11.2316
gab	-11.232
achtet	-11.232
▁Migration	-11.2323
▁Kristall	-11.2324
▁unterwegs	-11.2324
sabkommen	-11.2325
schuhe	-11.2326
▁1890	-11.2327
Dienst	-11.2327
owski	-11.2329
hau	-11.2329
ibi	-11.2329
▁reagiert	-11.233
▁einverstanden	-11.233
▁katholische	-11.2333
▁OLG	-11.2335
▁Stärkung	-11.2338
entwurf	-11.2338
dh	-11.234
▁vorherigen	-11.2343
▁Mannheim	-11.2344
▁integrierte	-11.2347
fte	-11.2347
▁Rechten	-11.2348
Als	-11.2348
erzeugung	-11.2349
▁angegriffen	-11.2351
stoffen	-11.2352
zwang	-11.2352
▁Texas	-11.2355
Stor	-11.2356
▁anfangs	-11.2357
ute	-11.2357
▁Ausgang	-11.2358
▁Beleuchtung	-11.236
▁auseinander	-11.236
▁Thron	-11.2361
▁zeitlich	-11.2361
▁blau	-11.2362
jew	-11.2362
▁Segel	-11.2363
▁relevanten	-11.2364
ING	-11.2366
▁Ursprünglich	-11.2369
▁105	-11.2369
▁geplante	-11.2375
zieht	-11.2376
▁alter	-11.2376
▁Experiment	-11.2376
rollen	-11.2377
www	-11.2378
▁Lar	-11.2387
▁1848	-11.2388
ologe	-11.2388
charakter	-11.239
▁Istanbul	-11.2391
▁angekündigt	-11.2391
▁garantieren	-11.2391
▁ruhig	-11.2391
Tour	-11.2391
▁angemessene	-11.2391
▁griechische	-11.2392
Weiss	-11.2392
▁zeitweise	-11.2392
▁deinem	-11.2395
▁beliebt	-11.2398
▁You	-11.2399
▁Erfassung	-11.24
burger	-11.2401
sensor	-11.2401
Op	-11.2404
ize	-11.2404
ecke	-11.2404
finanzierung	-11.2405
▁Reihenfolge	-11.2406
▁Pur	-11.2406
liberal	-11.2407
▁inbegriffen	-11.2407
ente	-11.2408
▁Res	-11.2408
heimer	-11.2412
▁denke	-11.2412
▁Roth	-11.2413
▁begangen	-11.2415
▁Talent	-11.2415
▁gefangen	-11.2418
▁vereinigt	-11.2418
▁Bla	-11.242
beteiligung	-11.2421
▁angefochtene	-11.2422
▁herrscht	-11.2422
▁registrieren	-11.2422
▁beabsichtigt	-11.2422
▁Weit	-11.2424
AA	-11.2426
pos	-11.2433
▁ausländischen	-11.2433
▁Halbinsel	-11.2434
▁grundlegende	-11.2435
chter	-11.2435
▁Sperr	-11.2436
tausch	-11.2437
tenden	-11.2438
▁Son	-11.2439
berichte	-11.244
▁BVerfG	-11.2441
fällt	-11.2442
verbände	-11.2442
technische	-11.2443
sbestimmungen	-11.2444
usch	-11.2447
StG	-11.2447
Schn	-11.2449
akademie	-11.2449
VP	-11.245
beitrag	-11.2451
light	-11.2451
▁Dorfes	-11.2452
▁Tin	-11.2453
▁1903	-11.2454
▁Münz	-11.2455
▁Wolken	-11.2455
card	-11.2456
▁zogen	-11.2457
War	-11.2459
▁Schreibtisch	-11.2464
wärme	-11.2464
•	-11.2466
schuldig	-11.247
orte	-11.2471
|	-11.2472
lokal	-11.2472
aba	-11.2472
media	-11.2474
▁SP	-11.2476
▁Widerruf	-11.2477
▁äusseren	-11.2478
▁einbezogen	-11.2478
▁mehrmals	-11.2478
anbieter	-11.2478
▁bewährt	-11.2483
▁Bayerischen	-11.2483
▁fühlte	-11.2484
▁kostenlosen	-11.2484
schöpf	-11.2487
▁gelangte	-11.2487
▁1902	-11.2487
iano	-11.2487
▁Marc	-11.2489
Buch	-11.249
ista	-11.249
▁Südamerika	-11.249
▁Cent	-11.249
▁Cross	-11.2492
▁FAQ	-11.2493
▁trans	-11.2495
svereinbarung	-11.2496
▁Wertpapier	-11.2496
probleme	-11.2497
DP	-11.2498
▁Light	-11.2499
lehn	-11.2501
▁Sky	-11.2502
ingenieur	-11.2502
nung	-11.2503
▁Taschen	-11.2504
hofen	-11.2504
WA	-11.2506
tek	-11.2506
▁Erz	-11.2507
Ni	-11.2508
Meter	-11.2509
▁Reiter	-11.2509
▁Asyl	-11.2509
▁willkommen	-11.251
▁Nein	-11.251
rüst	-11.251
▁Genre	-11.2513
▁Ok	-11.2514
side	-11.2516
▁übrig	-11.2518
▁Möchten	-11.2519
▁Read	-11.2519
charakteristisch	-11.2519
▁Corn	-11.252
▁Übung	-11.252
▁Pfund	-11.2521
▁Unterrichts	-11.2521
▁Edward	-11.2522
▁Entsprechend	-11.2522
lässig	-11.2522
rechtlicher	-11.2524
▁Vorgehen	-11.2524
▁Zeitschriften	-11.2525
▁religiösen	-11.2528
▁1870	-11.2529
▁Heck	-11.2531
meldung	-11.2531
▁preussischen	-11.2531
▁ID	-11.2531
▁Funktionalität	-11.2533
▁gesamt	-11.2535
verbandes	-11.2535
▁Mary	-11.2535
▁Nahrung	-11.2537
▁Hohe	-11.2538
New	-11.2539
chor	-11.254
▁erfolglos	-11.254
▁Kron	-11.254
▁Bauch	-11.2541
zit	-11.2542
▁gelingt	-11.2544
▁eigentlichen	-11.2549
ison	-11.255
▁Zeuge	-11.2551
▁Geschäftsjahr	-11.2551
▁zählte	-11.2551
▁Bonus	-11.2551
▁2012,	-11.2553
▁befestigt	-11.2556
ossen	-11.2556
mie	-11.2558
ierter	-11.2558
gard	-11.2558
▁vereint	-11.256
▁Premium	-11.2561
▁Partnern	-11.2564
▁tot	-11.2568
bauer	-11.2568
▁ähnlichen	-11.2571
▁häufigsten	-11.2571
klima	-11.2572
▁Schauspiel	-11.2573
▁Swiss	-11.2574
artige	-11.2574
▁aa	-11.2574
▁schlechte	-11.2576
▁Gleichgewicht	-11.2576
▁traditionell	-11.2577
▁stattfand	-11.2578
▁akzeptieren	-11.258
▁Š	-11.2581
▁Pos	-11.2584
▁Technischen	-11.2585
▁lebenden	-11.259
▁hervorragende	-11.2591
▁erlangte	-11.2592
▁Erklärungen	-11.2594
International	-11.2596
Kom	-11.26
▁Olympia	-11.26
entgelt	-11.2601
stuhl	-11.2602
▁Bauwerk	-11.2602
▁Water	-11.2602
▁reservieren	-11.2602
▁überzeugen	-11.2603
meer	-11.2603
té	-11.2605
raub	-11.2605
▁Generationen	-11.261
▁Handtücher	-11.2613
▁Wohnungs	-11.2614
▁rief	-11.2615
▁Finger	-11.2617
▁Schadens	-11.2622
bezogenen	-11.2624
▁internen	-11.2624
/93	-11.2625
▁erweitern	-11.2625
▁XII	-11.2626
▁bewohnt	-11.2627
schaden	-11.2628
▁Ortschaften	-11.2628
▁Erkrankung	-11.2628
vorstand	-11.2629
▁mwN	-11.263
eli	-11.2635
ars	-11.2635
▁jüdische	-11.2636
▁grün	-11.2637
▁Versuche	-11.2637
а	-11.2637
▁Verbindungs	-11.2637
ulation	-11.2638
day	-11.264
▁Network	-11.264
▁eigenem	-11.2644
▁Augsburg	-11.2645
wach	-11.2645
aufgaben	-11.2646
strecken	-11.2646
familien	-11.2646
▁Mecklenburg	-11.2647
▁nachvollziehbar	-11.2647
▁fortgesetzt	-11.2648
▁Head	-11.2648
▁Drill	-11.2649
▁Sauerstoff	-11.2655
▁Abfälle	-11.2655
Mein	-11.2655
▁Fre	-11.2656
its	-11.2656
aren	-11.2659
▁Kilometern	-11.2662
▁künstlerische	-11.2662
üt	-11.2662
▁É	-11.2663
▁rote	-11.2663
▁Werkstoff	-11.2664
▁gedreht	-11.2664
▁Ausschreibung	-11.2664
gebrochen	-11.2664
▁türkischen	-11.2666
▁befanden	-11.2667
over	-11.2668
ido	-11.2669
▁wandte	-11.267
▁SG	-11.267
▁strukturiert	-11.2672
kapazität	-11.2672
▁Ford	-11.2673
▁Demo	-11.2674
schwe	-11.2674
▁VG	-11.2675
getreten	-11.2677
Te	-11.2677
geh	-11.2678
Länder	-11.2679
▁Witwe	-11.2679
▁Pfad	-11.2681
bestände	-11.2681
uel	-11.2682
▁Auswertung	-11.2686
▁Kollektion	-11.2686
dringen	-11.2687
▁betreiben	-11.2688
bereichen	-11.2688
▁beurteilt	-11.2689
▁Features	-11.269
fahrzeuge	-11.2691
▁behalten	-11.2691
▁Inneren	-11.2692
sachen	-11.2693
▁ausgeprägt	-11.2694
gespielt	-11.2696
▁Pierre	-11.2697
dienstleistungen	-11.2697
Technik	-11.2699
egg	-11.27
▁städtischen	-11.2701
▁Gegenteil	-11.2701
▁Residenz	-11.2701
steller	-11.2704
▁Beck	-11.2706
▁stützt	-11.2709
sprachen	-11.2711
▁Modernisierung	-11.2712
dio	-11.2713
▁Taxi	-11.2714
▁vorliegt	-11.2715
▁günstigsten	-11.2719
mässigkeit	-11.272
RC	-11.2721
▁Hab	-11.2721
▁Ky	-11.2721
book	-11.2721
▁Vorsitzenden	-11.2723
tle	-11.2725
technischen	-11.2728
▁SV	-11.2732
▁Kopie	-11.2733
wig	-11.2736
▁Merkmal	-11.2736
▁Inn	-11.2736
▁markiert	-11.2738
▁herunter	-11.274
▁bereitgestellt	-11.274
▁Rettungs	-11.2741
▁Tatsächlich	-11.2742
▁sass	-11.2742
Mess	-11.2743
▁Seil	-11.2743
▁Casa	-11.2744
▁sowjetischen	-11.2745
▁bevorzugt	-11.2748
▁Malta	-11.275
▁Leer	-11.2752
▁Wörter	-11.2753
▁schnellen	-11.2754
konstruktion	-11.2755
Komm	-11.2755
▁zumeist	-11.2758
▁nachfolgenden	-11.276
Tre	-11.2761
▁Bro	-11.2761
vorgang	-11.2761
▁ausgedehnt	-11.2761
▁Mitgliedschaft	-11.2762
→	-11.2764
BM	-11.2766
▁Premierminister	-11.2766
▁Osteuropa	-11.2768
▁normale	-11.2769
▁Weltcup	-11.2772
▁unterteilt	-11.2772
waffen	-11.2775
letzte	-11.2775
▁selbstständig	-11.2776
jahres	-11.2776
▁Vitamin	-11.2777
▁1901	-11.2779
▁Neuro	-11.278
bevölkerung	-11.2781
▁wachsen	-11.2781
vest	-11.2782
0°	-11.2782
▁Verbrechen	-11.2784
▁BT	-11.2785
▁Bit	-11.2786
▁Nah	-11.2787
▁Vorstellungen	-11.2789
radikal	-11.2792
▁Zunahme	-11.2793
Sol	-11.2794
▁umstritten	-11.2794
▁Flagge	-11.2794
▁Denk	-11.2795
▁Gru	-11.2796
▁formuliert	-11.2797
uren	-11.2798
▁Werktage	-11.2799
▁Unterscheidung	-11.2801
vid	-11.2801
HL	-11.2801
▁mittelalterlich	-11.2803
▁Sprint	-11.2804
▁Irak	-11.2804
rea	-11.2804
▁Entschädigung	-11.2804
▁morgen	-11.2805
▁Mega	-11.2808
▁promovierte	-11.2809
▁Verluste	-11.2811
▁Niedersachsen	-11.2811
ähn	-11.2812
▁Arbeitsgruppe	-11.2812
verhältnismässig	-11.2813
▁Hinsichtlich	-11.2813
▁ST	-11.2814
ito	-11.2816
Jo	-11.2817
▁Löwen	-11.2818
▁Frankfurter	-11.2819
▁zwanzig	-11.2819
Charts	-11.282
▁Loch	-11.2821
▁Akteure	-11.2821
▁Tan	-11.2823
▁Hass	-11.2823
▁Press	-11.2824
▁170	-11.2824
▁richten	-11.2824
gelenk	-11.2824
▁zurückzuweisen	-11.2826
software	-11.2827
▁Geben	-11.2828
läufig	-11.2828
▁Glocken	-11.2829
räu	-11.2829
ī	-11.2829
▁Göttingen	-11.283
suchen	-11.2833
▁Inschrift	-11.2833
▁Schal	-11.2834
▁Kran	-11.2836
▁Begriffe	-11.2837
▁primär	-11.2837
mol	-11.2838
amin	-11.2839
▁Werkstatt	-11.2846
▁schwarze	-11.2846
▁Roche	-11.2848
▁Hut	-11.285
▁Bald	-11.2851
▁0,5	-11.2851
▁−	-11.2851
▁eingerollt	-11.2852
▁eigentliche	-11.2852
▁breiter	-11.2852
Linie	-11.2854
▁extra	-11.2854
gebirge	-11.2857
▁melden	-11.2857
fliessen	-11.2857
▁Sätze	-11.2859
▁Menschenrechts	-11.2859
▁Trieb	-11.286
▁Fans	-11.2862
treff	-11.2862
▁Act	-11.2863
▁Nie	-11.2864
▁Schuh	-11.2864
▁niedrig	-11.2868
▁Meyer	-11.2868
Pol	-11.2869
▁Pers	-11.2869
▁Schuldner	-11.287
BER	-11.2871
holt	-11.2872
▁ausgenommen	-11.2872
Rat	-11.2872
▁falsche	-11.2874
▁It	-11.2875
gol	-11.2876
▁Reit	-11.2876
▁Ihm	-11.2877
verträge	-11.2878
▁Kopenhagen	-11.288
zent	-11.288
▁scheiterte	-11.288
▁scheinen	-11.288
kut	-11.2881
feier	-11.2882
ausschusses	-11.2883
Reg	-11.2885
▁reiste	-11.2887
▁umgewandelt	-11.2887
fehler	-11.2887
erhöhung	-11.2888
▁Gratis	-11.2888
▁Testament	-11.289
▁Streitfall	-11.2894
öpf	-11.2896
union	-11.2898
▁Place	-11.29
▁aufzunehmen	-11.2901
▁2013,	-11.2902
▁stehe	-11.2903
▁Entdecken	-11.2905
▁Potsdam	-11.2905
▁professionelle	-11.2905
programms	-11.2907
▁Aktuelle	-11.2908
nack	-11.2908
läufer	-11.2909
▁Chat	-11.291
ress	-11.2911
bia	-11.2912
▁gestartet	-11.2915
▁Wartung	-11.2918
▁nachhaltig	-11.292
seitig	-11.2921
▁konstant	-11.2922
▁Sebastian	-11.2923
Hoch	-11.2925
ele	-11.2926
afrikanische	-11.2927
öhn	-11.2928
▁Oberst	-11.2928
vie	-11.2928
▁Bat	-11.2929
funktionen	-11.293
4,5	-11.293
▁zertifiziert	-11.2931
▁Grundsätzen	-11.2932
▁Kontaktieren	-11.2936
▁Western	-11.2938
▁Bert	-11.2938
▁Bewegungen	-11.2939
▁Baron	-11.2939
▁Chan	-11.294
▁unterstützte	-11.2942
▁voraussichtlich	-11.2944
▁Kir	-11.2944
signal	-11.2947
▁Ansichten	-11.2949
rücken	-11.295
▁BO	-11.2952
rüge	-11.2952
cn	-11.2953
/01	-11.2953
▁Herrscher	-11.2954
▁teilt	-11.2954
bor	-11.2955
▁Linz	-11.2955
▁bedeutenden	-11.2956
hell	-11.2956
▁umgekehrt	-11.2956
bürger	-11.2957
status	-11.2957
▁Qualifikations	-11.2958
▁Hub	-11.2959
ui	-11.296
wich	-11.2961
▁Streifen	-11.2961
itsch	-11.2962
anschluss	-11.2963
▁103	-11.2964
▁Büros	-11.2964
▁VER	-11.2965
örtlich	-11.2966
KOM	-11.2966
▁Medi	-11.2969
gramm	-11.297
▁Rücktritt	-11.297
▁löste	-11.2971
wür	-11.2971
▁Kabinett	-11.2971
▁Binnen	-11.2971
hing	-11.2971
▁mitten	-11.2972
▁Konfiguration	-11.2972
steig	-11.2974
▁Aussteller	-11.2974
▁dänischen	-11.2976
▁Universal	-11.2978
▁Qui	-11.2978
▁gewählten	-11.2979
stimmung	-11.298
▁Fortbildung	-11.298
▁Schottland	-11.2981
▁Phil	-11.2983
▁zugewiesen	-11.2983
▁Jurist	-11.2984
assoziiert	-11.2984
▁Mitwirkung	-11.2985
▁Finanzierungs	-11.2987
▁sauber	-11.2987
Server	-11.2988
real	-11.2988
▁anwesend	-11.2991
▁dick	-11.2992
▁Witt	-11.2993
▁Kamin	-11.2993
▁Will	-11.2994
▁geistige	-11.2994
▁Jugoslawien	-11.2997
▁Schwimm	-11.2997
/95	-11.2998
▁bekanntesten	-11.2998
▁Petersburg	-11.3001
▁Rosa	-11.3001
fügen	-11.3002
▁Hai	-11.3002
▁Lübeck	-11.3002
▁220	-11.3004
▁Aussehen	-11.3005
produkten	-11.3006
▁Tafel	-11.3006
▁Frühling	-11.3007
▁eigen	-11.3007
sorten	-11.3009
▁Aufsicht	-11.301
▁Love	-11.301
▁Pfarrei	-11.3011
▁Bundesregierung	-11.3013
▁Einfuhren	-11.3014
▁Urteile	-11.3014
▁Kölner	-11.3017
▁Schliessen	-11.3017
▁Würzburg	-11.3017
▁bemerkt	-11.3017
▁überliefert	-11.3018
▁Szenen	-11.3019
▁Abgeordneter	-11.3021
▁Demonstration	-11.3021
▁beherbergt	-11.3022
was	-11.3022
bul	-11.3024
wirtschaftlicher	-11.3025
▁Schrank	-11.3025
▁Chrome	-11.3027
könig	-11.3027
fekt	-11.3029
werks	-11.3029
ump	-11.3031
ografie	-11.3037
▁solch	-11.3038
▁Vordergrund	-11.3038
Region	-11.3039
lagerung	-11.3039
▁bewirkt	-11.304
halte	-11.3041
seit	-11.3044
reihen	-11.3044
▁Meta	-11.3046
wende	-11.3047
▁Bob	-11.3047
ffen	-11.3048
▁Angleichung	-11.305
une	-11.3051
▁Kathedrale	-11.3051
▁Aufführung	-11.3052
▁kurzem	-11.3052
matt	-11.3053
▁Leon	-11.3055
▁entfallen	-11.3056
besitz	-11.3057
pfen	-11.3057
Plan	-11.306
▁entstandenen	-11.3061
▁Einkommensteuer	-11.3063
▁Beleg	-11.3063
▁detaillierte	-11.3064
▁Ernennung	-11.3065
▁102	-11.3066
datum	-11.3066
▁Zone	-11.3067
/16	-11.3069
lov	-11.307
Beeinträchtigung	-11.3071
▁Abrechnung	-11.3073
▁Opern	-11.3074
▁hinten	-11.3077
▁Willkommen	-11.3077
▁1899	-11.3078
▁leiden	-11.3083
▁Weiterentwickl	-11.3083
▁Florida	-11.3085
▁Basketball	-11.3085
▁Gummi	-11.3086
wild	-11.3086
gemacht	-11.3086
▁verwandt	-11.3087
vil	-11.3088
▁Abzug	-11.3088
SR	-11.3089
▁States	-11.3089
▁MP	-11.3091
▁veröffentlichen	-11.3097
▁Bedrohung	-11.3098
▁Bundesamt	-11.3099
ersdorf	-11.3099
zur	-11.3101
▁Genf	-11.3104
liegen	-11.3108
▁handele	-11.3112
▁gemeldet	-11.3113
▁Board	-11.3113
nisch	-11.3113
▁123	-11.3116
geräten	-11.3116
▁steigern	-11.3118
qualifiziert	-11.3118
füllen	-11.312
schrieben	-11.3122
▁Aufzug	-11.3126
▁Erfindung	-11.3127
FL	-11.3128
▁Abwägung	-11.3128
▁Sonnenuntergang	-11.3128
▁Messung	-11.3129
▁Begegnung	-11.3129
rel	-11.313
▁Budget	-11.3131
▁einzelner	-11.3132
▁ungewöhnliche	-11.3133
▁Erzeuger	-11.3133
seiten	-11.3134
▁Weissen	-11.3134
▁Schulden	-11.3134
▁Reb	-11.3134
weisung	-11.3134
übersicht	-11.3135
bereit	-11.3136
▁widmete	-11.3138
▁freier	-11.314
vier	-11.314
▁bedienen	-11.3141
zahn	-11.3141
▁Expedition	-11.3141
▁Erster	-11.3141
▁transparent	-11.3141
sbericht	-11.3141
▁gratis	-11.3144
▁Gewinner	-11.3145
füllung	-11.3146
▁stattdessen	-11.3148
▁gestellten	-11.3148
▁Fil	-11.3149
▁praktischen	-11.315
▁Point	-11.315
ometer	-11.3153
▁identifiziert	-11.3154
▁vorne	-11.3155
▁Anruf	-11.3156
▁Versandrohr	-11.3158
▁1880	-11.3158
▁Mountain	-11.3159
räder	-11.316
dll	-11.3164
liegende	-11.3165
▁fordern	-11.3165
RU	-11.3168
srat	-11.317
bearbeitung	-11.317
▁Pack	-11.3171
toll	-11.3171
wenn	-11.3172
KO	-11.3173
Berg	-11.3174
berater	-11.3175
▁Cy	-11.3178
▁Heilige	-11.3179
▁Ple	-11.318
▁verglichen	-11.318
En	-11.3181
▁Vereine	-11.3182
core	-11.3183
alm	-11.3183
▁gelöst	-11.3184
▁Verhaltens	-11.3184
cer	-11.3187
▁Perspektive	-11.3187
▁EGKS	-11.3188
Sport	-11.3188
▁Akt	-11.3188
▁Eduard	-11.3188
/94	-11.3188
▁StGB	-11.3188
fahrten	-11.3189
Weltmeister	-11.3189
▁EIB	-11.3192
▁Schwert	-11.3193
▁Store	-11.3194
▁strategische	-11.3195
zehn	-11.3196
▁atemberaubend	-11.3196
▁herangezogen	-11.3196
▁Antonio	-11.3197
nahen	-11.3199
förder	-11.32
▁Panorama	-11.3201
bahnen	-11.3201
ule	-11.3202
cur	-11.3203
Mitglied	-11.3204
/88	-11.3205
▁José	-11.3205
▁dunkel	-11.3206
▁passende	-11.3207
▁benannte	-11.3207
▁Neuer	-11.3207
▁holte	-11.3212
▁Spül	-11.3212
Tage	-11.3215
▁aufzuheben	-11.3216
▁dis	-11.3217
▁feierte	-11.3221
▁Thor	-11.3222
▁kürzlich	-11.3222
▁erneute	-11.3223
ART	-11.3223
stamm	-11.3224
amo	-11.3225
▁Flugticket	-11.3225
▁Begleit	-11.3226
▁Zauber	-11.3226
▁Kos	-11.3226
▁lagen	-11.3227
klick	-11.3227
orts	-11.3228
rod	-11.3229
▁Spektrum	-11.323
▁2011,	-11.323
▁Rab	-11.323
▁Münchner	-11.3231
▁Rezept	-11.3233
▁min	-11.3234
zutreten	-11.3235
typisch	-11.3237
▁schaffte	-11.324
▁diesmal	-11.3241
bilanz	-11.3242
▁Scott	-11.3243
österreichischer	-11.3243
heilig	-11.3243
▁Barr	-11.3243
formation	-11.3244
▁Gebiets	-11.3244
▁braun	-11.3245
▁fern	-11.3247
quis	-11.3248
▁Hauptsache	-11.3248
▁FGO	-11.3251
▁Bin	-11.3251
operation	-11.3253
▁Unrecht	-11.3253
malige	-11.3254
▁Funktions	-11.3255
▁Vir	-11.3257
produktiv	-11.3257
▁verpflichten	-11.3257
▁unmittelbarer	-11.3262
katalog	-11.3262
förmigen	-11.3263
▁elektrischen	-11.3264
▁gesch	-11.3265
▁CA	-11.3268
▁Veranstaltungs	-11.327
▁Kaufmann	-11.327
▁Marktes	-11.327
▁900	-11.3271
▁Linux	-11.3271
▁Feind	-11.3272
▁Maus	-11.3274
kö	-11.3276
▁bedeckt	-11.3276
lia	-11.3276
▁Wiederaufbau	-11.3276
▁komplexe	-11.3276
~	-11.3277
▁Arabisch	-11.3278
▁Anstrengungen	-11.3278
▁Level	-11.3278
▁vollständigen	-11.3279
ario	-11.328
1988	-11.3281
▁Kompetenzen	-11.3281
nische	-11.3285
▁Renaissance	-11.3285
ibilität	-11.3285
▁abzuweisen	-11.3287
▁isoliert	-11.3288
Muster	-11.3289
▁negative	-11.3289
üch	-11.329
▁Verwaltungsakt	-11.329
▁1850	-11.329
▁Hei	-11.3291
liege	-11.3292
sausschuss	-11.3292
▁beliebte	-11.3293
spr	-11.3294
ICH	-11.3295
Analyse	-11.3295
aku	-11.3296
konzert	-11.3296
▁Pferd	-11.3298
▁Litauen	-11.3298
▁Rev	-11.3298
ming	-11.3299
▁Klosters	-11.3299
▁Anwendungs	-11.33
gestalt	-11.33
▁vorherige	-11.3301
▁Analysen	-11.3301
▁Gewerkschaften	-11.3302
▁Motoren	-11.3303
▁Spenden	-11.3303
schiffe	-11.3304
▁finde	-11.3307
▁Modus	-11.3307
▁UV	-11.331
▁Eng	-11.331
▁Eintragung	-11.3311
▁Brown	-11.3312
uliert	-11.3313
▁Fische	-11.3314
center	-11.3315
Pap	-11.3315
studio	-11.3318
▁jüngsten	-11.3318
▁versorgt	-11.3319
▁organisierte	-11.332
roman	-11.3321
▁intelligente	-11.3322
▁Religions	-11.3324
▁Fang	-11.3325
▁befindlichen	-11.3326
▁produzierte	-11.3328
▁Neo	-11.3329
rey	-11.3329
▁XI	-11.3331
nica	-11.3332
nick	-11.3334
Format	-11.3336
▁beschäftigte	-11.3338
▁Königreichs	-11.3339
samen	-11.3342
▁kürzer	-11.3343
ible	-11.3344
erheblich	-11.3346
gua	-11.3346
engl	-11.3346
▁Ohr	-11.3347
▁glatt	-11.3347
▁externen	-11.3348
matik	-11.3349
HG	-11.3349
▁Komposition	-11.3351
oid	-11.3353
lé	-11.3353
▁nützlich	-11.3355
ott	-11.3355
▁Zehn	-11.3355
▁Anteile	-11.3355
▁Report	-11.3356
räum	-11.3356
▁Einkauf	-11.3357
▁Geräten	-11.3358
▁Sing	-11.3358
▁bestehe	-11.3358
▁einzigartigen	-11.3358
7,5	-11.3359
ū	-11.3363
RF	-11.3363
scht	-11.3364
▁Tun	-11.3364
▁Daraus	-11.3365
▁tolle	-11.3365
▁108	-11.3366
▁Oster	-11.3368
schmerz	-11.3369
▁angesprochen	-11.3369
▁Korrektur	-11.3371
ition	-11.3371
▁Regime	-11.3372
▁zulässige	-11.3375
▁Student	-11.3375
▁Vermietung	-11.3378
▁weltweiten	-11.3379
schreiten	-11.3379
ött	-11.338
▁stimmt	-11.338
CR	-11.3382
oi	-11.3384
▁1898	-11.3384
Hier	-11.3384
▁Eingabe	-11.3385
sbeschluss	-11.3386
▁Gemeinsame	-11.3388
▁manchen	-11.3389
zügen	-11.339
▁entsprach	-11.3393
▁Lee	-11.3393
▁Würde	-11.3394
▁zweier	-11.3397
▁Adel	-11.3397
▁eingeräumt	-11.3397
nos	-11.3397
Pe	-11.3398
parti	-11.34
Sh	-11.3402
▁Gramm	-11.3402
▁Verschiedene	-11.3403
pression	-11.3405
▁Überlegungen	-11.3405
▁Netzwerke	-11.3405
▁sub	-11.3407
▁Küchen	-11.3407
▁Zelt	-11.3409
▁vorläufige	-11.3412
pla	-11.3412
▁Hang	-11.3412
▁chemischen	-11.3412
GT	-11.3414
ár	-11.3414
▁Halbfinale	-11.3416
mt	-11.3416
festsetzung	-11.3417
Netzwerk	-11.3418
▁Finanzen	-11.342
pet	-11.342
▁trocken	-11.342
kompetenz	-11.342
hochschule	-11.3421
▁Yacht	-11.3422
▁Host	-11.3422
oro	-11.3423
schränke	-11.3423
sgrund	-11.3424
▁Kla	-11.3424
▁Mind	-11.3424
wohnung	-11.3427
▁irgendwelche	-11.3428
▁Att	-11.3429
▁Bürgerkrieg	-11.343
▁Force	-11.3431
technologien	-11.3432
▁ansässig	-11.3432
▁potentiell	-11.3434
▁attraktiv	-11.3435
rop	-11.3436
omb	-11.3436
▁Scher	-11.3437
decke	-11.3438
ifizierung	-11.3439
dokument	-11.344
▁1896	-11.3442
getragen	-11.3443
übertragung	-11.3444
mis	-11.3444
malerei	-11.3444
▁Desktop	-11.3447
Standard	-11.3447
PG	-11.3448
▁Lust	-11.3449
dateien	-11.3451
▁Hö	-11.3452
▁Lande	-11.3453
▁Tagesordnung	-11.3455
▁Palette	-11.3456
UL	-11.3456
▁entscheidende	-11.3456
imp	-11.3456
▁http	-11.3457
▁Feier	-11.3457
▁Interpretation	-11.3459
ausgabe	-11.346
▁Micro	-11.346
gewalt	-11.3461
▁Sekretär	-11.3463
▁Volkszählung	-11.3464
▁lieferbar	-11.3464
▁Apostel	-11.3465
sichert	-11.3465
▁Besteuerung	-11.3466
magazin	-11.3466
▁Kalt	-11.3468
▁Lange	-11.3468
zeitlichen	-11.3469
Durch	-11.347
▁tausend	-11.347
▁Lenk	-11.347
rente	-11.347
esarbeitsgericht	-11.3472
▁Peking	-11.3475
vol	-11.3475
▁Standorte	-11.3476
kugel	-11.3476
▁formell	-11.3477
wir	-11.348
▁Kath	-11.3482
▁Männchen	-11.3485
▁Flüsse	-11.3485
▁Gil	-11.3486
gehörig	-11.3487
▁Breakfast	-11.3487
LD	-11.3488
▁begeistert	-11.3489
SW	-11.3489
BG	-11.349
▁CDU	-11.3491
▁Tests	-11.3492
lation	-11.3493
▁Rostock	-11.3494
bringt	-11.3495
schrank	-11.3496
Bu	-11.3496
OT	-11.3498
▁männliche	-11.3499
ordnen	-11.35
ister	-11.3501
▁grünen	-11.3502
Char	-11.3502
▁künstlerischen	-11.3502
ohn	-11.3502
versuche	-11.3504
▁spanische	-11.3504
▁verteidigt	-11.3506
▁heftig	-11.3506
▁Ämter	-11.3506
▁Rechtsgrundlage	-11.3507
▁vereinbarten	-11.3507
▁belegen	-11.3508
▁DIN	-11.3508
ader	-11.351
▁optimiert	-11.351
olf	-11.3511
▁Erwähnung	-11.3512
quote	-11.3512
▁Polar	-11.3514
▁Atem	-11.3515
cs	-11.3516
▁Blas	-11.3518
iers	-11.3523
▁sitzen	-11.3524
▁2010,	-11.3525
▁Säulen	-11.3525
▁Einbau	-11.3527
▁Merc	-11.3528
▁Special	-11.353
▁verknüpft	-11.3531
Ur	-11.3532
▁sterben	-11.3532
beauftragte	-11.3533
iana	-11.3533
offen	-11.3536
LU	-11.3538
deut	-11.3539
stark	-11.3539
äck	-11.354
arbeitet	-11.3541
▁rechtlich	-11.3541
staats	-11.3542
▁Songtext	-11.3543
▁Prinzipien	-11.3543
gross	-11.3544
▁eingestuft	-11.3544
KK	-11.3544
▁beeinträchtigt	-11.3547
unterschied	-11.3548
▁Anwesenheit	-11.3549
▁Anfangs	-11.3549
▁Tool	-11.3549
▁Harmonisierung	-11.355
▁Luis	-11.355
ARD	-11.3552
wähl	-11.356
▁unterschieden	-11.3561
▁Pariser	-11.3564
geschaltet	-11.3564
▁Fotografie	-11.3567
▁bedeutendsten	-11.3567
▁gezielt	-11.3567
sil	-11.3567
gegeben	-11.3569
▁Reifen	-11.3569
▁175	-11.3571
zusammenstellung	-11.3573
weiler	-11.3574
▁regelmässige	-11.3577
MD	-11.358
▁Jury	-11.358
▁Betriebsrat	-11.3581
▁Erziehung	-11.3582
▁Einladung	-11.3584
üg	-11.3584
▁Potenzial	-11.3585
Les	-11.3585
bohr	-11.3586
▁Action	-11.3588
▁Lor	-11.3591
chin	-11.3593
grössen	-11.3594
Player	-11.3594
nia	-11.3594
▁NT	-11.3596
Familie	-11.3597
▁Kara	-11.3597
sstelle	-11.3597
▁künftigen	-11.3599
gefasst	-11.3601
▁beantworten	-11.3601
ière	-11.3603
▁Site	-11.3603
▁Empfang	-11.3603
1987	-11.3604
▁Einleitung	-11.3604
▁Wood	-11.3605
▁erstinstanzlich	-11.3608
▁beantwortet	-11.3609
▁blosse	-11.361
▁Strategien	-11.3611
▁Meinungen	-11.3611
▁Infanterie	-11.3611
führt	-11.3612
▁integrierten	-11.3612
fisch	-11.3613
steiger	-11.3613
▁zukünftige	-11.3613
▁hoffe	-11.3616
▁seid	-11.3618
brenn	-11.3618
▁leistet	-11.3619
ansprüche	-11.3619
▁anstelle	-11.3619
▁belgischen	-11.362
▁ermordet	-11.362
mag	-11.362
▁technisch	-11.3621
▁beliebtesten	-11.3622
Verfahren	-11.3623
▁Gottesdienst	-11.3623
▁1897	-11.3625
▁Sprung	-11.3627
▁mobile	-11.363
▁örtliche	-11.3632
▁Rep	-11.3633
▁erarbeitet	-11.3633
räte	-11.3633
▁Cel	-11.3634
▁ergänzend	-11.3634
2%	-11.3636
Au	-11.3639
mach	-11.3644
▁Gespräche	-11.3644
▁Richtigkeit	-11.3646
Kirche	-11.3646
▁MB	-11.3647
quer	-11.3648
▁Tempo	-11.3648
▁para	-11.3649
▁Boy	-11.365
▁Cer	-11.3652
▁Extrem	-11.3653
▁Classic	-11.3653
▁erfassen	-11.3654
▁Ann	-11.3654
▁Wechselkurs	-11.3655
gründung	-11.3657
▁106	-11.3657
Test	-11.3657
▁mithilfe	-11.3658
dul	-11.3658
0,0	-11.3658
▁Din	-11.3658
▁Bewilligung	-11.3658
autor	-11.366
▁Aufruf	-11.3661
▁Weihnachten	-11.3661
klassen	-11.3662
▁Lan	-11.3664
▁Holland	-11.3665
▁89	-11.3666
▁gestorben	-11.3667
▁stabile	-11.3667
gri	-11.3669
▁Journalisten	-11.3669
rosa	-11.3669
▁basieren	-11.367
▁Engineering	-11.3672
▁Kapitän	-11.3672
▁Beschl	-11.3673
▁etabliert	-11.3673
▁Vietnam	-11.3675
▁Luftfahrt	-11.3676
▁Angelegenheit	-11.3676
▁BMW	-11.3676
▁Pause	-11.3677
▁Übereinkommen	-11.3677
▁Publikation	-11.3679
▁Solidarität	-11.368
▁94	-11.3682
geschäfte	-11.3682
▁Knoten	-11.3685
▁ausgestattete	-11.3686
illon	-11.3687
Gut	-11.3687
ziert	-11.3688
SF	-11.3689
Je	-11.3689
3%	-11.369
ecken	-11.3692
▁Vic	-11.3695
▁dieselbe	-11.3695
gezeichnet	-11.3695
▁Kassel	-11.3697
genehmigung	-11.3697
▁Diskussionen	-11.3698
▁Terra	-11.3701
▁rechnen	-11.3703
Platz	-11.3703
▁bezeichnen	-11.3703
▁Proben	-11.3706
▁verleiht	-11.3706
elf	-11.3707
samkeit	-11.3708
▁AufenthG	-11.3708
▁los	-11.3708
▁Major	-11.3708
▁Regiment	-11.3709
▁Übergabe	-11.3709
▁Wiesen	-11.3711
deck	-11.3712
kre	-11.3713
▁Nutz	-11.3715
RG	-11.3715
▁128	-11.3716
sah	-11.3718
▁Informatik	-11.3719
medien	-11.372
▁japanische	-11.372
▁AN	-11.3723
Bre	-11.3724
▁Schienen	-11.3725
▁Fürst	-11.3726
▁bedingt	-11.3726
▁Technology	-11.3727
▁YouTube	-11.3727
▁Zusammenschluss	-11.3728
▁startet	-11.3729
▁Offen	-11.373
▁Sende	-11.373
ländische	-11.3733
▁Pas	-11.3734
phy	-11.3735
▁Pharma	-11.3735
▁Füll	-11.3735
PD	-11.3736
eta	-11.3738
PU	-11.3738
▁Ast	-11.374
Internet	-11.374
▁Zen	-11.374
häusern	-11.374
▁Gabriel	-11.3741
▁Treiber	-11.3743
dam	-11.3744
▁verbundene	-11.3744
Spiele	-11.3745
manns	-11.3746
▁Estland	-11.3747
/90	-11.3748
▁Abwasser	-11.3748
▁Office	-11.3753
▁Nachteil	-11.3754
ić	-11.3754
▁vieles	-11.3755
▁verurteilen	-11.3755
▁Que	-11.3757
ments	-11.3757
ller	-11.3758
▁ml	-11.3759
▁Spannung	-11.376
Net	-11.376
▁verschieden	-11.376
▁Spr	-11.3761
chan	-11.3761
TT	-11.3761
EB	-11.3761
▁Belange	-11.3761
Unser	-11.3762
▁Anspruchs	-11.3763
▁Zusammenfassung	-11.3764
salz	-11.3764
▁Wirt	-11.3765
▁grosszügig	-11.3766
▁Gun	-11.3772
▁ruhigen	-11.3772
BFH	-11.3774
▁Bäumen	-11.3774
▁derzeitigen	-11.3774
unternehmer	-11.3776
ors	-11.3777
öffnung	-11.378
zucht	-11.3781
einer	-11.3785
▁gültig	-11.3788
▁Internetseite	-11.3788
▁3000	-11.3788
▁Innere	-11.3789
▁Ant	-11.379
stellbar	-11.379
▁Ansätze	-11.3792
▁Zertifizierung	-11.3793
temperaturen	-11.3793
linear	-11.3796
▁Display	-11.3796
imi	-11.3798
▁Kraftstoff	-11.3798
▁Nachmittag	-11.3802
▁Denkmalschutz	-11.3803
▁ergreifen	-11.3804
Send	-11.3804
▁Korn	-11.3809
▁Fair	-11.381
▁Lehrstuhl	-11.3811
▁Aufträge	-11.3811
schüsse	-11.3811
▁Noten	-11.3811
▁Lesung	-11.3814
▁super	-11.3814
kasten	-11.3815
heiss	-11.3815
▁ernannte	-11.3815
ulf	-11.3818
RK	-11.3818
Prima	-11.3819
▁belief	-11.3819
lad	-11.3819
▁Fahrzeugen	-11.382
▁lehrte	-11.3821
ç	-11.3822
▁alleine	-11.3822
Änderungsanträge	-11.3824
rium	-11.3825
▁Dokumenten	-11.3826
▁verfasst	-11.3827
▁Stuhl	-11.3828
lagern	-11.3829
▁Jünger	-11.383
000,00	-11.3831
ches	-11.3833
forscher	-11.3833
▁promoviert	-11.3835
▁ärztliche	-11.3836
▁Konrad	-11.3836
▁Flur	-11.3836
▁gegenwärtigen	-11.3839
▁Energien	-11.3839
▁Boston	-11.384
Infektion	-11.384
swerte	-11.3841
▁Speise	-11.3841
San	-11.3842
▁seinerzeit	-11.3843
▁beschäftigen	-11.3843
kamera	-11.3845
stel	-11.3846
▁habt	-11.3846
▁unterliegt	-11.3847
instrumente	-11.3847
objekt	-11.3848
▁Fur	-11.3848
▁Airport	-11.385
▁Arbeitslosen	-11.3851
rup	-11.3852
^	-11.3852
▁Verzögerung	-11.3852
▁Vorträge	-11.3855
▁Mich	-11.3856
verordnung	-11.3859
▁brachten	-11.386
EK	-11.3861
Fl	-11.3861
▁1/2	-11.3861
trop	-11.3862
▁Tags	-11.3862
uth	-11.3862
▁unverzüglich	-11.3863
▁135	-11.3868
▁Besonderheiten	-11.3868
▁bildeten	-11.3869
▁Fred	-11.387
unfall	-11.387
schild	-11.387
▁Sau	-11.3871
▁Ce	-11.3871
▁Leidenschaft	-11.3873
▁VO	-11.3874
▁tat	-11.3874
vereins	-11.3875
▁abstrakt	-11.3875
▁Spezifikationen	-11.3875
▁droht	-11.3877
reiz	-11.3878
▁wirst	-11.3878
fix	-11.3879
▁Fracht	-11.3882
schalten	-11.3884
▁Türen	-11.3884
tank	-11.3884
▁Darlehens	-11.3885
▁Barock	-11.3885
▁Künstlern	-11.3887
▁Turn	-11.3887
ail	-11.3888
▁Dal	-11.3888
Deutsch	-11.3888
dl	-11.3888
idae	-11.3892
▁Schwestern	-11.3892
▁Gewährleistung	-11.3892
▁Sofa	-11.3894
▁Käse	-11.3895
▁Entlassung	-11.3895
zier	-11.3896
▁umfangreichen	-11.3898
▁Barbara	-11.3899
Sc	-11.3902
▁entsprechender	-11.3902
iga	-11.3904
▁Wasch	-11.3906
▁BauGB	-11.3907
▁Thu	-11.3908
MG	-11.3909
▁Optimierung	-11.3911
▁horizontal	-11.3912
▁Nenn	-11.3913
▁Sardinien	-11.3913
FO	-11.3915
▁Heide	-11.3916
▁Streitkräfte	-11.3917
▁überraschend	-11.3917
Shar	-11.3919
ship	-11.3919
▁insofern	-11.3919
▁aufgefordert	-11.3919
▁Alltag	-11.392
▁Null	-11.392
Umstrukturierung	-11.3922
▁Genau	-11.3922
fon	-11.3924
Tal	-11.3925
▁1895	-11.3927
▁Dün	-11.3927
▁engagierte	-11.3929
tner	-11.393
▁überlassen	-11.3931
finden	-11.3932
ifi	-11.3933
sarbeiten	-11.3933
▁retten	-11.3933
Industrie	-11.3934
▁Petr	-11.3934
Kultur	-11.3934
▁Syn	-11.3935
▁Chin	-11.3936
frequenz	-11.3936
▁begründete	-11.3936
uli	-11.3937
▁Run	-11.3938
▁Muskel	-11.3938
▁Prince	-11.3939
▁normal	-11.394
▁132	-11.3941
ă	-11.3941
▁Häufig	-11.3943
PR	-11.3943
▁Zuverlässigkeit	-11.3944
streben	-11.3945
▁Bart	-11.3946
▁Kalk	-11.3946
▁Vermeidung	-11.3947
Steck	-11.3949
▁Bundestag	-11.3949
▁verursachen	-11.395
▁Grundstücke	-11.395
runden	-11.3951
schätzung	-11.3951
▁ausländische	-11.3951
video	-11.3953
offizier	-11.3953
▁gesucht	-11.3953
▁Vermarktung	-11.3956
▁seither	-11.3958
▁veranlasst	-11.3958
rä	-11.3958
▁Pilot	-11.3959
▁via	-11.3959
▁langfristig	-11.396
▁Einwilligung	-11.3961
▁Stadtgebiet	-11.3962
▁absolute	-11.3963
▁vertritt	-11.3963
hoch	-11.3964
märkte	-11.3964
strand	-11.3965
galerie	-11.3967
▁Relevanz	-11.3967
sfreiheit	-11.3967
▁Vin	-11.3967
▁Dy	-11.3968
▁stattgefunden	-11.3968
essel	-11.3969
vollen	-11.3969
▁Charter	-11.3969
▁Situationen	-11.397
▁Gehör	-11.397
Nachbargemeinden	-11.3971
▁Lese	-11.3971
▁bisschen	-11.3972
/98	-11.3972
fra	-11.3973
lief	-11.3974
▁Mitgliedstaats	-11.3976
▁Dimensionen	-11.3976
Spitz	-11.3976
STA	-11.3976
ragen	-11.3977
▁verschickt	-11.3978
▁minimal	-11.3981
▁musikalische	-11.3982
▁Drittländern	-11.3983
▁Leo	-11.3984
Text	-11.3987
▁inspiriert	-11.3987
▁sofortige	-11.3988
▁gewünschten	-11.3988
organische	-11.3991
▁Mario	-11.3991
▁Rou	-11.3991
▁Fundament	-11.3992
▁Deutscher	-11.3994
▁vorhandene	-11.3996
<	-11.3996
▁gemein	-11.3996
ř	-11.3997
gründe	-11.3997
▁verringern	-11.3998
▁Rechtsstreit	-11.3998
▁Innovationen	-11.3999
▁Marina	-11.3999
ija	-11.4
▁berührt	-11.4004
▁statistischen	-11.4004
▁Grünen	-11.4004
▁Unabhängig	-11.4004
▁verfügte	-11.4005
▁Mei	-11.4007
/96	-11.4007
tun	-11.4008
▁Mallorca	-11.4009
regionen	-11.401
▁Steine	-11.401
vertrags	-11.401
▁aufeinander	-11.4011
/91	-11.4011
▁schwerer	-11.4011
▁Klar	-11.4013
shi	-11.4014
▁Ara	-11.4015
Mon	-11.4015
▁Verbund	-11.4016
wirft	-11.4016
tia	-11.4017
▁restlichen	-11.4018
füllt	-11.402
NC	-11.402
▁Rechtsschutz	-11.4022
▁realen	-11.4024
greif	-11.4025
▁Wissenschafts	-11.4026
▁gaben	-11.4026
sgründe	-11.4027
▁geschah	-11.4027
öff	-11.4028
Flug	-11.4029
▁stolz	-11.4029
▁Systemen	-11.403
Arbeits	-11.4031
▁Orden	-11.4033
lö	-11.4034
nisse	-11.4034
mun	-11.4036
▁104	-11.4037
Grund	-11.4037
▁Times	-11.4037
list	-11.4039
▁innere	-11.4041
▁gefragt	-11.4043
omi	-11.4043
zuschlag	-11.4046
▁Blu	-11.4047
▁Priorität	-11.4049
spezifische	-11.4049
lum	-11.4049
▁vorliegende	-11.405
▁getestet	-11.4052
rac	-11.4053
▁Reichweite	-11.4053
illo	-11.4054
▁gewünschte	-11.4054
▁Eingliederung	-11.4054
▁schwache	-11.4055
▁Zeichnungen	-11.4056
brett	-11.4057
▁Hostel	-11.4058
▁Erwachsenen	-11.4059
▁Arbeitnehmern	-11.4059
▁Journalist	-11.406
▁Acker	-11.406
▁endgültigen	-11.4061
vorsitzende	-11.4061
▁Reiches	-11.4063
▁geklärt	-11.4063
▁Markus	-11.4064
▁Monument	-11.407
▁Copyright	-11.4071
▁1871	-11.4073
ministeriums	-11.4073
Rub	-11.4075
▁Nest	-11.4075
digen	-11.4075
▁Spo	-11.4076
stal	-11.4076
▁negativen	-11.4077
▁liebe	-11.4077
dies	-11.4079
▁angestrebt	-11.408
igte	-11.4082
Kanäle	-11.4083
▁Orange	-11.4085
hel	-11.4087
▁weibliche	-11.4089
▁you	-11.4089
▁Fell	-11.4089
Regiment	-11.4091
▁annehmen	-11.4092
ald	-11.4093
wil	-11.4093
zoll	-11.4093
▁Eigentums	-11.4096
▁Scan	-11.41
reifen	-11.4103
▁geheim	-11.4103
freundliche	-11.4104
srechte	-11.4104
▁betragen	-11.4105
▁Kü	-11.4105
▁SE	-11.4105
▁bewölkt	-11.4106
▁mithin	-11.4106
▁Feiertag	-11.4107
▁Hammer	-11.4109
▁Adler	-11.411
ific	-11.411
ausser	-11.4111
▁Anliegen	-11.4113
▁Kritiker	-11.4115
Registry	-11.4117
welle	-11.4117
labor	-11.4117
▁Watt	-11.4117
▁Jena	-11.4118
▁unabhängigen	-11.4119
▁Handlungs	-11.4119
▁Kulturen	-11.4119
▁berufs	-11.412
▁vollendet	-11.4121
▁vereinfacht	-11.4123
▁167	-11.4125
bestimmungen	-11.4125
▁Sobald	-11.4126
▁unteren	-11.4126
gangs	-11.4127
▁Ferienhäuser	-11.413
hain	-11.4131
▁künftige	-11.4131
▁ES	-11.4132
▁Tschechien	-11.4132
aufbau	-11.4135
▁Letztere	-11.4136
/6	-11.4139
sprüfung	-11.4139
▁Rinder	-11.4139
▁Kin	-11.414
▁Tur	-11.4141
▁Prinz	-11.4141
▁Nano	-11.4143
lic	-11.4143
▁Vieh	-11.4144
fÃ	-11.4146
▁jenen	-11.4148
▁überschritten	-11.415
Gleichbehandlung	-11.4151
▁bezeichneten	-11.4151
▁Korea	-11.4152
Mittel	-11.4152
▁kaufte	-11.4153
▁Peru	-11.4155
flu	-11.4155
**	-11.4155
▁Krim	-11.4157
▁Wurzeln	-11.4159
▁geeigneten	-11.4159
▁echten	-11.416
▁Sohnes	-11.4162
▁Angehörige	-11.4163
▁Falt	-11.4163
▁Opposition	-11.4164
fahrzeug	-11.4164
▁bloss	-11.4165
Link	-11.4165
iller	-11.4165
feindlich	-11.4166
Speed	-11.4166
▁Foundation	-11.4169
▁vergrössert	-11.4169
▁nachhaltigen	-11.417
▁wertvolle	-11.417
▁Workshops	-11.4171
▁Phasen	-11.4172
▁Volkes	-11.4173
▁Genuss	-11.4174
▁Zuletzt	-11.4175
▁Jäger	-11.4178
atter	-11.4178
sregelung	-11.4179
▁Entspannung	-11.418
Jahr	-11.4181
vergütung	-11.4181
о	-11.4181
▁Matthias	-11.4181
wendet	-11.4181
wertig	-11.4182
ML	-11.4183
hardt	-11.4184
kommt	-11.4185
▁360	-11.4185
▁engen	-11.4186
messe	-11.4187
▁Fakten	-11.4189
▁jüngeren	-11.4189
TP	-11.419
▁Woll	-11.419
▁Dissertation	-11.4192
▁namentlich	-11.4192
▁abgerissen	-11.4194
▁kompatibel	-11.4195
▁Terminal	-11.4196
leicht	-11.4196
▁grundlegenden	-11.4197
▁bereitet	-11.4197
stu	-11.4197
▁demnach	-11.4198
hai	-11.42
Information	-11.42
▁22:16:	-11.4201
▁Ausgleichs	-11.4201
▁Sto	-11.4201
▁Kant	-11.4202
laut	-11.4206
▁Palast	-11.4207
ehl	-11.4209
▁grenzüberschrei	-11.421
▁berichtete	-11.421
▁Exemplare	-11.421
▁Erschliessung	-11.4211
EE	-11.4212
▁sozialer	-11.4213
▁Domain	-11.4214
aufsicht	-11.4216
▁Law	-11.4222
▁Beitritts	-11.4222
dik	-11.4222
▁Mühle	-11.4223
▁dreimal	-11.4225
▁friedlich	-11.4226
wang	-11.4226
▁Ostsee	-11.4226
▁Corporation	-11.4228
zusehen	-11.4229
konsum	-11.423
▁effektiv	-11.4232
strategie	-11.4232
▁einzelstaatlich	-11.4233
See	-11.4233
fasst	-11.4233
▁Wagner	-11.4234
▁Reduzierung	-11.4234
▁Sensoren	-11.4234
▁Sünde	-11.4234
▁Decken	-11.4235
▁CB	-11.4239
izz	-11.4239
▁erlebt	-11.4239
▁109	-11.4239
▁Immer	-11.4239
▁฀	-11.4239
ätt	-11.424
betriebs	-11.424
hören	-11.4241
brach	-11.4242
IO	-11.4242
kredit	-11.4243
▁1860	-11.4244
▁Münzen	-11.4245
▁beeindruckend	-11.4247
iber	-11.4248
trakt	-11.4248
▁unmittelbaren	-11.4248
▁ausgerüstet	-11.4248
▁Umsatzsteuer	-11.4249
▁Nichtraucher	-11.4249
▁erobert	-11.425
▁Eintrag	-11.425
▁multi	-11.4251
▁Beamte	-11.4254
fal	-11.4255
▁Ges	-11.4256
reinigung	-11.4257
▁hart	-11.4259
Lu	-11.4259
▁Nahrungs	-11.4262
physik	-11.4262
▁Darlegung	-11.4263
▁umliegenden	-11.4263
cre	-11.4265
mod	-11.4265
▁sahen	-11.4265
▁Doppelbett	-11.4268
▁Riesen	-11.427
▁systematisch	-11.4271
CAD	-11.4272
▁anstatt	-11.4272
▁Festivals	-11.4273
▁Gedicht	-11.4274
steine	-11.4274
▁Messer	-11.4274
▁Kau	-11.428
▁Rente	-11.428
▁Joachim	-11.4282
▁untereinander	-11.4282
▁Spieltag	-11.4284
Leit	-11.4284
▁Serbien	-11.4285
▁wachsende	-11.4287
ckt	-11.4288
▁besiedelt	-11.4288
▁User	-11.4291
Rock	-11.4291
▁allmählich	-11.4294
▁konsequent	-11.4294
▁fachlich	-11.4294
▁beschränken	-11.4294
▁Comic	-11.4295
▁Artikelnummer	-11.4297
elektro	-11.4298
▁vertraglich	-11.4298
▁Jürgen	-11.43
▁wachsenden	-11.43
schaltung	-11.4302
ş	-11.4303
▁Juan	-11.4303
▁Datensatz	-11.4303
▁Sho	-11.4303
ZE	-11.4305
▁stiess	-11.4307
▁Pilz	-11.4308
▁Beat	-11.4309
dampf	-11.4309
▁Urheberrecht	-11.4309
▁Körperschaft	-11.431
▁sehe	-11.4311
▁Stornierung	-11.4311
sarbeit	-11.4312
/97	-11.4312
▁Kuba	-11.4313
KS	-11.4315
Gebiet	-11.4315
▁Alm	-11.4319
▁Schuhe	-11.4319
▁Öffentliche	-11.432
karriere	-11.4321
rien	-11.4321
owa	-11.4322
▁Behinderten	-11.4322
▁Spät	-11.4323
sbehörde	-11.4325
▁Herbert	-11.4326
▁Redaktion	-11.4331
helf	-11.4332
▁Frisch	-11.4332
▁Futter	-11.4333
▁Lat	-11.4333
▁Südwest	-11.4333
harmoni	-11.4334
▁Schleif	-11.4336
▁Viel	-11.4336
kau	-11.4344
Method	-11.4345
tipp	-11.4345
ahl	-11.4346
mitte	-11.4346
▁Kindheit	-11.4346
▁Stan	-11.4347
sentscheidung	-11.4347
▁Weber	-11.4348
▁Weinberg	-11.4348
▁unterlag	-11.4348
Nicht	-11.4348
▁Abt	-11.4349
▁restauriert	-11.4349
Cor	-11.435
▁geraten	-11.435
▁Stammbaum	-11.435
aktionen	-11.4351
▁Ausflüge	-11.4352
▁befristet	-11.4352
▁Bosch	-11.4356
nahmen	-11.4357
alisierung	-11.4358
▁Abfahrt	-11.4358
▁Bischofs	-11.4359
▁Bedingung	-11.436
Not	-11.4362
ère	-11.4363
Falls	-11.4363
fur	-11.4367
▁stammte	-11.4368
herren	-11.4369
▁Einschränkung	-11.4369
▁Henri	-11.4369
▁Aktualisierung	-11.437
het	-11.4372
▁rufen	-11.4372
präsidenten	-11.4374
▁ausgestrahlt	-11.4374
▁Kel	-11.4375
kommende	-11.4375
▁kompakte	-11.4376
ove	-11.4376
▁Konzepte	-11.4377
▁Marokko	-11.4379
▁Umwandlung	-11.4379
Bericht	-11.438
▁Umfrage	-11.438
plätzen	-11.4381
2500	-11.4381
▁Herd	-11.4382
▁Beschränkung	-11.4382
▁Produzenten	-11.4383
sach	-11.4384
▁ausgehen	-11.4384
leitungen	-11.4385
▁Mono	-11.4387
β	-11.4388
dass	-11.4388
Schule	-11.4391
▁Fassade	-11.4391
▁schriftliche	-11.4391
Web	-11.4392
▁Abwehr	-11.4392
irr	-11.4392
bte	-11.4393
▁Kostenloser	-11.4396
▁Schülern	-11.4396
▁häufiger	-11.4396
▁Hirsch	-11.4398
▁Ausnahmen	-11.4398
gler	-11.4399
▁Hütte	-11.4402
assi	-11.4402
▁dachte	-11.4403
▁herzlich	-11.4403
▁Seh	-11.4404
artigen	-11.4405
ont	-11.4405
zykl	-11.4406
gebühr	-11.4407
▁Schwanz	-11.4408
▁gefärbt	-11.4408
▁Antrieb	-11.4409
▁Hack	-11.4409
hom	-11.4409
▁angenehm	-11.4411
▁wahrgenommen	-11.4415
dre	-11.4416
▁Journal	-11.4416
add	-11.4416
Info	-11.4417
▁Techniken	-11.4418
disch	-11.4419
▁mangels	-11.4419
messer	-11.442
kriegs	-11.442
▁Kolonial	-11.442
▁Austria	-11.442
▁leiten	-11.4421
read	-11.4422
ketten	-11.4422
▁Kriegsende	-11.4422
▁Enterprise	-11.4423
▁technischer	-11.4423
wanderung	-11.4424
▁Dozent	-11.4426
bedürftig	-11.4427
▁moderner	-11.4427
gesch	-11.4428
adel	-11.4428
1985	-11.4429
▁Unterbrechung	-11.4429
▁Sieben	-11.4432
▁populär	-11.4434
▁eingeweiht	-11.4435
­1	-11.4435
▁Fächer	-11.4435
geleitet	-11.4436
Foto	-11.4438
▁Oberverwaltungs	-11.4439
kenntnisse	-11.4439
▁fielen	-11.444
▁con	-11.444
▁Mündung	-11.4444
▁grösstenteils	-11.4444
ENT	-11.4445
gift	-11.4445
KE	-11.4445
eiss	-11.4446
regional	-11.4447
5,00	-11.4448
ielle	-11.4448
anta	-11.4448
▁Bak	-11.4449
uit	-11.445
tl	-11.445
fordert	-11.445
kop	-11.445
▁Webseiten	-11.4451
▁Intel	-11.4452
▁Kleider	-11.4452
klinik	-11.4452
frau	-11.4454
▁Wille	-11.4455
▁Strassburg	-11.4455
▁musst	-11.4456
lösch	-11.4457
▁trennt	-11.4458
▁Täter	-11.4459
▁Patr	-11.4459
nehmbar	-11.4463
münd	-11.4463
▁Netzwerken	-11.4464
fühl	-11.4465
▁Zweit	-11.4465
▁Sammlungen	-11.4467
▁Singapur	-11.4467
zuhalten	-11.447
▁automatisiert	-11.4472
▁Einflüsse	-11.4472
▁iPhone	-11.4474
▁Mehrere	-11.4474
Präsident	-11.4474
▁Symptome	-11.4475
▁änderte	-11.4476
▁Weiterlesen	-11.4477
▁Teich	-11.4478
▁signifikant	-11.4479
▁Filmen	-11.448
rott	-11.448
▁Reste	-11.448
▁geschlagen	-11.4481
▁Vulkan	-11.4482
Kandidat	-11.4483
Soft	-11.4484
rose	-11.4484
▁Julius	-11.4485
▁dahingehend	-11.4485
▁datiert	-11.4485
▁qualifizierten	-11.4486
sgesellschaft	-11.4487
GH	-11.4488
nieder	-11.4489
TC	-11.449
bereichs	-11.4491
kehren	-11.4491
sus	-11.4492
▁Becken	-11.4492
▁Portfolio	-11.4492
Form	-11.4494
methoden	-11.4494
▁Missbrauch	-11.4494
▁Director	-11.4494
key	-11.4495
▁133	-11.4495
▁Pav	-11.4501
srate	-11.4501
einstellungen	-11.4503
▁verzichtet	-11.4504
▁Märkten	-11.4504
▁Herunterladen	-11.4506
▁Garden	-11.4506
teilig	-11.4508
▁entscheidet	-11.4509
▁oftmals	-11.451
Park	-11.4511
▁Warn	-11.4514
pool	-11.4514
▁negativ	-11.4514
sprozesse	-11.4514
gefunden	-11.4516
▁Victoria	-11.4517
arn	-11.4519
betrieben	-11.4524
▁Samuel	-11.4525
▁Schwierigkeit	-11.4528
▁Konditionen	-11.453
▁falschen	-11.4531
▁junger	-11.4531
klar	-11.4532
Gold	-11.4532
kant	-11.4533
▁gestiegen	-11.4533
Download	-11.4535
tron	-11.4535
▁Prognose	-11.4538
▁Eishockey	-11.4539
▁Innsbruck	-11.4539
oper	-11.4539
▁fährt	-11.4539
Markt	-11.454
▁Brü	-11.454
▁britischer	-11.454
▁Allianz	-11.4541
▁Og	-11.4543
pie	-11.4546
Box	-11.4547
linger	-11.4548
▁Fehlen	-11.4549
▁zufällig	-11.4549
gefährlich	-11.4551
witter	-11.4553
gehoben	-11.4554
GEN	-11.4554
▁Flash	-11.4555
iro	-11.4556
emp	-11.4556
rost	-11.4557
▁fr	-11.4558
Font	-11.4558
Russ	-11.4559
▁Cookie	-11.4561
Kunst	-11.4562
Abkommen	-11.4562
▁mieten	-11.4563
▁Bundeswehr	-11.4565
▁Night	-11.4565
▁Auszeichnungen	-11.4567
▁Afghanistan	-11.4572
▁Brennstoff	-11.4574
azi	-11.4574
slaw	-11.4574
▁Leider	-11.4575
▁Young	-11.4576
LAN	-11.4578
bänder	-11.4578
▁Model	-11.4579
▁umfassend	-11.4579
▁geistigen	-11.458
▁geringfügig	-11.4581
satzung	-11.4581
▁114	-11.4582
▁Enkel	-11.4584
▁Hänge	-11.4584
▁Zuordnung	-11.4584
egel	-11.4586
▁Klick	-11.4586
wenden	-11.4587
sbe	-11.4587
HT	-11.4591
▁inmitten	-11.4591
▁Studierende	-11.4593
▁Abendessen	-11.4594
zins	-11.4594
▁Hus	-11.4594
wissen	-11.4595
Monitor	-11.4595
mini	-11.4596
EV	-11.4597
▁Sant	-11.4598
beispiel	-11.4598
▁Over	-11.4598
▁Medium	-11.4599
▁Zentralbank	-11.46
▁Hallen	-11.4601
ringen	-11.4601
opp	-11.4602
kür	-11.4602
KV	-11.4603
lier	-11.4603
▁Mars	-11.4605
▁hörte	-11.4608
▁prä	-11.4608
ía	-11.4609
ching	-11.4609
Erstens	-11.4609
▁Bug	-11.461
hänge	-11.461
▁Liege	-11.4611
▁UNESCO	-11.4611
▁einschlägigen	-11.4611
spir	-11.4612
▁Quart	-11.4612
▁Feedback	-11.4614
zonen	-11.4614
▁Arthur	-11.4614
vereinigung	-11.4614
▁Hunger	-11.4615
▁Statistische	-11.4615
▁schlagen	-11.4617
äll	-11.4617
▁Gebirgs	-11.4617
▁professionellen	-11.4617
▁Siemens	-11.4617
▁Vorname	-11.4618
wacht	-11.4618
sätzen	-11.4619
▁Gärten	-11.462
Flor	-11.4621
▁Erwägungen	-11.4621
▁Image	-11.4624
TZ	-11.4624
▁Kampagne	-11.4625
▁ergänzen	-11.4625
▁Götter	-11.4626
lip	-11.4629
GI	-11.463
▁Helmut	-11.4632
/89	-11.4632
▁hoffen	-11.4633
▁sanft	-11.4633
leuchten	-11.4634
▁Werden	-11.4636
▁beanstanden	-11.4638
▁Präsidentschaft	-11.4639
▁Wähler	-11.4639
vas	-11.4639
rumpf	-11.4639
▁Virus	-11.4639
▁Jahrzehnte	-11.464
ory	-11.4642
Partner	-11.4644
heiten	-11.4645
▁Angehörigen	-11.4645
py	-11.4647
▁Gel	-11.4647
ional	-11.4647
▁Chip	-11.4648
Wasser	-11.4648
stin	-11.4648
doppel	-11.4648
Systeme	-11.4653
uba	-11.4653
VR	-11.4653
▁bedeuten	-11.4656
▁hängen	-11.4657
▁Geheim	-11.4657
▁Rechnungs	-11.4658
differenz	-11.4658
▁Pionier	-11.4659
asi	-11.4663
ej	-11.4663
▁Herzogtum	-11.4663
rüstung	-11.4664
machen	-11.4666
▁Sensor	-11.4668
▁Geltung	-11.4668
▁antiken	-11.4669
AE	-11.4669
▁Tablet	-11.4669
Ort	-11.4673
UT	-11.4675
▁halbe	-11.4676
tasche	-11.4676
▁verstossen	-11.4677
aja	-11.4678
▁Derzeit	-11.468
dimension	-11.468
mode	-11.4681
uda	-11.4682
▁zumal	-11.4683
kru	-11.4683
beständig	-11.4683
▁Demokratischen	-11.4684
▁Richt	-11.4684
mobilienanzeigen	-11.4684
▁Gastgeber	-11.4685
sfähig	-11.4685
▁Trier	-11.4685
zeichnet	-11.4686
▁Bie	-11.4686
▁Vorgang	-11.4686
stünde	-11.4687
▁Seitdem	-11.4689
schäden	-11.469
▁sichergestellt	-11.4692
▁erhebt	-11.4692
▁Tageszeitung	-11.4693
Komitee	-11.4693
rak	-11.4694
▁BV	-11.4694
▁Nov	-11.4694
▁Amtes	-11.4694
sozialismus	-11.4694
▁verzeichnen	-11.4696
▁Sab	-11.4699
▁Wünsche	-11.47
hebt	-11.4702
öd	-11.4703
▁Verbesserungen	-11.4703
tions	-11.4703
Col	-11.4704
PM	-11.4705
▁kritisiert	-11.4705
▁Parkplätze	-11.4705
Museum	-11.4706
klagt	-11.4707
▁grüne	-11.4708
▁Lateinamerika	-11.4708
▁Nicola	-11.4708
▁niedrige	-11.4708
flüge	-11.4711
sjahr	-11.4711
▁Schmerz	-11.4711
▁gesunde	-11.4711
▁steil	-11.4712
▁überarbeitet	-11.4714
▁Vielleicht	-11.4714
wis	-11.4716
äg	-11.4716
▁EuGH	-11.4717
▁streng	-11.472
▁Abweichung	-11.4721
▁zukünftigen	-11.4721
▁objektiv	-11.4721
antrieb	-11.4722
Ob	-11.4722
▁Out	-11.4723
orientierten	-11.4724
▁Potential	-11.4726
▁Dynamik	-11.4727
▁Verantwortlich	-11.4729
▁ansonsten	-11.4729
zieren	-11.4729
▁serviert	-11.473
▁Mannschafts	-11.4732
▁Rohstoff	-11.4733
▁Bistum	-11.4734
▁Sofort	-11.4735
▁Wy	-11.4735
haar	-11.4736
▁Neg	-11.4738
/87	-11.4738
bek	-11.474
▁Busse	-11.474
▁Versicherungen	-11.474
▁Weih	-11.4741
angaben	-11.4741
▁GPS	-11.4741
▁unternommen	-11.4741
▁Vorbehalt	-11.4741
unternehmens	-11.4742
▁Č	-11.4743
▁Planungs	-11.4745
▁Onkel	-11.4745
▁Brett	-11.4746
melde	-11.4746
initiative	-11.4749
▁bemerkenswert	-11.4749
▁Geschichts	-11.4751
▁Junior	-11.4751
sstrategie	-11.4757
▁aufweist	-11.4758
▁Veröffentlicht	-11.4759
▁3,5	-11.476
grau	-11.4763
▁englischer	-11.4763
ao	-11.4764
▁Titan	-11.4765
lah	-11.4766
▁Franzosen	-11.4766
▁gerufen	-11.4766
▁Knie	-11.4767
▁Netze	-11.4767
schick	-11.4768
▁Mach	-11.4768
▁Kantons	-11.477
pause	-11.477
gaben	-11.4773
▁Singles	-11.4774
▁Wunschliste	-11.4775
▁Häusern	-11.4775
Tipp	-11.4775
Forts	-11.4777
wellen	-11.4778
▁Yo	-11.4778
▁Marg	-11.4778
▁Brauerei	-11.4779
▁berechnen	-11.478
▁Leopold	-11.478
▁innovativen	-11.4781
▁Asia	-11.4782
▁meistens	-11.4783
jähriger	-11.4783
ordnet	-11.4784
▁fragte	-11.4785
▁unstreitig	-11.4787
▁1888	-11.4787
wäsche	-11.4787
▁statistische	-11.4789
▁Junge	-11.479
CM	-11.479
Mag	-11.4792
0%	-11.4793
▁Härte	-11.4794
▁Kunstdruck	-11.4794
zio	-11.4796
DK	-11.4797
▁Kommunal	-11.4799
▁Gon	-11.48
▁Versuchen	-11.4801
▁Zw	-11.4801
▁ohnehin	-11.4801
▁Spiels	-11.4802
Pu	-11.4803
eigenen	-11.4804
tina	-11.4804
▁Baumwolle	-11.4804
problem	-11.4804
▁liebt	-11.4805
▁vorgesehene	-11.4806
Staat	-11.4806
parks	-11.4806
▁Verdacht	-11.4806
stoss	-11.4808
▁Strahlen	-11.4808
▁schriftlichen	-11.4809
▁Stellungnahmen	-11.481
▁ungewöhnlich	-11.4812
▁Public	-11.4813
Fahr	-11.4814
▁Zucht	-11.4816
▁kompliziert	-11.4816
kundig	-11.4818
kum	-11.4818
▁Darin	-11.4819
brüche	-11.4821
▁Schweiss	-11.4826
▁Gelb	-11.4826
▁regelmässigen	-11.4827
▁Erdöl	-11.4827
▁nachstehend	-11.4828
▁vielfach	-11.4828
enne	-11.483
▁beantragte	-11.4831
▁ergebe	-11.4831
wel	-11.4831
▁BVerwGE	-11.4831
▁älter	-11.4832
▁diversen	-11.4833
▁Bronzemedaille	-11.4833
▁beinhalten	-11.4834
Vo	-11.4835
▁zustande	-11.4836
bru	-11.4837
besitzer	-11.4838
▁Aero	-11.4839
gläubig	-11.4839
▁türkische	-11.4839
▁Net	-11.4839
▁Tübingen	-11.4842
▁Call	-11.4844
posten	-11.4845
▁Universum	-11.4845
Matri	-11.4846
▁Add	-11.4847
▁Himmels	-11.4848
▁Roboter	-11.4848
▁CEO	-11.4849
▁besonderes	-11.4849
▁Castle	-11.4852
▁Rückseite	-11.4852
▁betrieblichen	-11.4853
▁Beute	-11.4853
RM	-11.4853
▁Jura	-11.4854
▁Regulierung	-11.4855
▁uner	-11.4857
onym	-11.4857
▁Warnung	-11.4858
edel	-11.4858
▁Schu	-11.4858
▁Oscar	-11.4859
▁dänische	-11.4862
schutzes	-11.4862
▁Space	-11.4863
Gen	-11.4863
CL	-11.4864
▁erfordern	-11.4864
Name	-11.4865
▁Öffnen	-11.4865
Hü	-11.4866
ierend	-11.4866
asien	-11.4866
alismus	-11.4868
led	-11.4868
▁Lein	-11.4869
play	-11.4869
positionen	-11.487
▁Quell	-11.4871
▁Bru	-11.4872
schraub	-11.4872
▁freiwillig	-11.4872
▁Anwalt	-11.4873
▁Erkrankungen	-11.4876
▁Animation	-11.4876
▁kündigte	-11.4877
▁Abstieg	-11.4878
▁Berichts	-11.4879
▁Geschlechter	-11.4883
▁wirksame	-11.4885
kloster	-11.4889
▁PRO	-11.4889
▁versichert	-11.4891
▁sage	-11.4892
▁Kun	-11.4893
bedingten	-11.4893
krise	-11.4894
Well	-11.4894
▁Lettland	-11.4894
▁kämpfte	-11.4895
▁Kai	-11.4896
▁Nachbarschaft	-11.4897
disziplin	-11.4898
IB	-11.4898
▁Synagoge	-11.4898
▁Freundin	-11.4899
▁gegangen	-11.4899
▁Italiano	-11.4901
▁Fertigstellung	-11.4901
Verordnung	-11.4902
▁Präsenz	-11.4902
▁Blo	-11.4903
▁Kreuzung	-11.4904
▁Beschäftigte	-11.4904
▁Treppen	-11.4905
▁Sonnenaufgang	-11.4907
▁beteiligen	-11.4907
gängen	-11.4908
Historische	-11.491
Punkt	-11.4911
dynamische	-11.4911
AND	-11.4913
▁subjektiv	-11.4914
▁Schichten	-11.4914
▁Klärung	-11.4915
ät	-11.4915
Einfach	-11.4916
▁Ansprechpartner	-11.4916
▁folglich	-11.4917
kleidung	-11.4918
▁240	-11.4918
▁1893	-11.4918
alb	-11.4919
▁verweigert	-11.492
▁Standorten	-11.4922
biet	-11.4922
▁herab	-11.4922
▁Termine	-11.4924
path	-11.4924
möglichkeit	-11.4924
▁bat	-11.4924
schub	-11.4925
▁Begriffs	-11.4925
Registr	-11.4927
ifiziert	-11.4928
findung	-11.4928
▁fortan	-11.4928
Dame	-11.4928
▁sank	-11.4929
▁Stress	-11.4931
Achse	-11.4931
sleiter	-11.4932
▁107	-11.4932
pers	-11.4933
▁GR	-11.4934
ès	-11.4934
wurf	-11.4934
▁1800	-11.4934
▁juristische	-11.4935
▁Marx	-11.4935
itzer	-11.4936
▁Besonderheit	-11.4938
▁Sin	-11.494
▁1892	-11.494
▁Time	-11.494
▁männlichen	-11.494
▁gleichmässig	-11.4941
▁Terror	-11.4941
▁GB	-11.4942
▁Spalte	-11.4944
syn	-11.4944
sgruppe	-11.4947
hielt	-11.4948
▁befassen	-11.4949
Hel	-11.4949
kommunikation	-11.4951
Generator	-11.4952
▁Urkunde	-11.4952
gehende	-11.4953
grat	-11.4955
▁Heirat	-11.4955
и	-11.4957
BGBl	-11.4958
▁Wales	-11.4958
▁wichtiges	-11.4958
ted	-11.4959
vater	-11.496
zusammen	-11.496
Bra	-11.496
▁Zimmern	-11.496
▁verlief	-11.4962
damm	-11.4963
▁Defizit	-11.4966
berechtigte	-11.4967
▁Touren	-11.4967
Flüge	-11.4968
gliederung	-11.4969
▁Geschlechts	-11.4969
▁Fernsehserie	-11.4969
börse	-11.4969
▁112	-11.4973
▁Wehrmacht	-11.4973
▁dauerte	-11.4973
▁Aktuelles	-11.4975
▁Wohnhaus	-11.4975
▁DLL	-11.4978
ales	-11.4978
▁Indonesien	-11.4979
zentrale	-11.4979
▁repräsentativ	-11.4982
▁gefeiert	-11.4982
▁Wiederholung	-11.4983
▁angemessenen	-11.4983
▁Bestellungen	-11.4983
▁Seg	-11.4984
▁geladen	-11.4985
▁Puerto	-11.4985
bald	-11.4986
365	-11.4988
▁Campus	-11.4988
▁Sängerin	-11.4989
▁betreffende	-11.4989
▁Games	-11.4989
ving	-11.499
▁Antriebs	-11.4991
▁kanadischen	-11.4991
▁vernünftig	-11.4991
izi	-11.4992
▁materiell	-11.4992
▁Meist	-11.4992
▁Anfragen	-11.4994
▁niederländische	-11.4995
▁Trau	-11.4997
▁weiblichen	-11.4998
beamten	-11.4998
▁fehlenden	-11.4998
▁Eli	-11.5
▁erbringen	-11.5003
▁Heeres	-11.5006
DL	-11.5006
▁Wang	-11.5007
ë	-11.5008
installation	-11.5009
▁Hit	-11.5009
▁Sens	-11.501
▁Mechani	-11.501
▁Koalition	-11.501
motiv	-11.5011
▁Amtsblatt	-11.5011
studie	-11.5011
▁Peters	-11.5012
▁do	-11.5012
maler	-11.5013
lud	-11.5013
schel	-11.5015
▁Eignung	-11.5016
▁Ziegel	-11.5017
vertrauen	-11.5017
▁Sozialausschuss	-11.5017
▁Maschinenbau	-11.502
▁Zar	-11.502
üben	-11.5021
Just	-11.5021
bleiben	-11.5022
▁Regensburg	-11.5023
▁Medizinische	-11.5024
▁118	-11.5024
▁hochwertigen	-11.5024
tica	-11.5024
▁Investoren	-11.5025
▁Organisations	-11.5026
▁Räumen	-11.5032
▁feiern	-11.5035
▁Pet	-11.5036
▁Ausbruch	-11.5037
satzes	-11.5037
▁vollstreckbar	-11.5038
▁angewiesen	-11.5039
geladen	-11.504
brems	-11.5041
tums	-11.5041
▁get	-11.5042
▁freigeschaltet	-11.5042
▁fungierte	-11.5042
>;	-11.5043
▁angebotenen	-11.5046
zwecken	-11.5047
Auto	-11.5047
▁Motto	-11.5048
▁investiert	-11.5048
▁Umzug	-11.5049
schafts	-11.505
▁fühlt	-11.5052
▁Nase	-11.5053
Medaille	-11.5054
▁alternativ	-11.5054
KI	-11.5054
wesens	-11.5055
▁Geniessen	-11.5055
▁erlebte	-11.5055
stehend	-11.5055
ärztliche	-11.5059
▁demselben	-11.506
▁Übersetzer	-11.5061
ersatz	-11.5062
bedingte	-11.5063
▁fantastisch	-11.5063
ritt	-11.5064
▁schützt	-11.5064
▁Arbeitsvertrag	-11.5065
iko	-11.5066
▁Strömung	-11.507
▁Können	-11.507
ätz	-11.5072
700	-11.5074
gerichtet	-11.5076
lea	-11.5076
stunde	-11.5076
▁ordnungsgemäss	-11.5078
Takt	-11.5078
atorisch	-11.508
▁Angestellte	-11.5081
▁AP	-11.5081
▁stattfindet	-11.5083
▁angesiedelt	-11.5083
▁Staatsbürger	-11.5084
▁montiert	-11.5085
▁Merkzettel	-11.5085
illi	-11.5087
▁geäussert	-11.5089
▁Wider	-11.5089
lange	-11.509
▁Drehbuch	-11.509
lehr	-11.5091
▁SO	-11.5091
vögel	-11.5092
▁eingegliedert	-11.5092
▁reden	-11.5093
▁Ep	-11.5094
▁Besuchern	-11.5094
▁Pres	-11.5096
▁Kontrast	-11.5096
Ki	-11.5097
toren	-11.5097
1986	-11.5098
▁Websites	-11.51
▁Español	-11.5101
▁Ernte	-11.5101
▁Diät	-11.5102
farbig	-11.5103
bacher	-11.5103
▁Sortiment	-11.5104
tö	-11.5105
konform	-11.5105
▁gewinnt	-11.5106
nit	-11.5107
gelb	-11.5109
▁ausgelöst	-11.5109
III	-11.511
▁liege	-11.5111
mmern	-11.5112
ofen	-11.5112
▁bunt	-11.5114
▁anerkannten	-11.5114
Dynastie	-11.5114
taten	-11.5114
MR	-11.5116
▁anfordern	-11.5116
iche	-11.5117
▁Zahlreiche	-11.5119
▁erlangt	-11.5119
▁Störungen	-11.5121
istischer	-11.5122
wor	-11.5122
itis	-11.5122
dacht	-11.5125
▁Ala	-11.5126
leu	-11.5127
▁materiellen	-11.5128
▁endgültige	-11.5129
▁süss	-11.5129
▁zuverlässige	-11.513
▁wählte	-11.5131
Produktion	-11.5131
Mal	-11.5132
▁Mühl	-11.5132
▁Typen	-11.5134
▁Tendenz	-11.5136
Marathon	-11.5136
▁Gemarkung	-11.5136
▁Flughäfen	-11.5136
▁Vari	-11.5138
▁Primär	-11.5139
▁Fehlermeldung	-11.514
ohr	-11.514
öhr	-11.5142
▁1891	-11.5143
▁gestaltete	-11.5145
▁erwiesen	-11.5145
▁stützen	-11.5145
▁ISPO	-11.5146
▁Plastik	-11.5146
sä	-11.5148
▁Marco	-11.515
Hop	-11.5154
▁info	-11.5154
▁unterbrochen	-11.5155
▁Zoo	-11.5156
beträge	-11.5156
▁beantragen	-11.5158
Italia	-11.5159
▁Speisen	-11.516
▁erleichtert	-11.5161
▁Rektor	-11.5161
[...]
